#version: 0.2 - Trained by `huggingface/tokenizers`
Ġ t
i n
Ġ a
Ġt h
Ġ b
r e
i t
Ġ s
Ġ w
o n
Ġ c
Ġth e
e r
o u
Ġ i
Ġ m
Ġ p
a t
in g
Ġ f
o r
a n
e n
Ġt o
Ġ d
l l
e s
Ġ h
Ġa n
Ġ n
Ġ o
o in
Ġ in
Ġ l
e t
a r
e d
s t
Ġan d
Ġi s
c oin
Ġ g
Ġ y
it coin
Ġo f
o t
o m
a s
a l
Ġ it
i s
Ġy ou
Ġb itcoin
Ġ e
Ġb e
i c
o w
v e
l e
Ġ u
Ġ re
Ġ on
i on
c h
a y
Ġf or
Ġw h
en t
Ġth at
i ll
l d
t h
Ġb u
l y
v er
s e
Ġp r
t o
a d
c t
Ġd o
Ġn ot
k e
e re
r y
i g
c k
Ġ Ċ
Ġ r
Ġs t
u r
c e
a ll
o p
i d
Ġh a
Ġth is
it h
g e
Ġn e
i m
Ġa re
Ġm o
es t
u m
ou t
Ġg o
Ġw ith
a m
Ġw ill
Ġa s
Ġs e
ry p
Ġ v
a in
Ġt r
ryp to
Ġ j
Ġw e
i r
Ġd e
et h
l o
Ġl i
u st
ou ld
Ġc rypto
p p
Ġ k
Ġs o
Ġha ve
n t
er s
Ġc an
on e
Ġe x
Ġa t
Ġbu t
Ġs h
o d
Ġa l
u t
Ġc om
u n
Ġc h
o s
Ġpr o
Ġs u
Ġa b
Ġc on
ig h
Ġ Ġ
Ġ or
Ġu s
Ġthe y
all y
re n
at e
t c
Ġf r
om e
Ġi f
Ġyou r
o l
i l
an d
at ion
Ġa ll
m ent
t er
Ġm e
Ġ eth
ic e
u l
Ġw or
a b
an t
Ġm y
ar t
es s
Ġj ust
Ġmo re
Ġli ke
Ġc oin
Ġu p
Ġm a
ren c
ver y
ur renc
Ġh as
Ġh e
Ġp e
in k
it y
Ġl o
Ġab out
i ve
a p
or t
i f
e ct
en d
Ġg et
ar k
Ġfr om
a ct
Ġi m
u e
Ġb tc
Ġin v
g h
op le
Ġit s
ar d
Ġb y
Ġn ow
n d
igh t
Ġw as
a u
Ġwh at
Ġne w
Ġpe ople
Ġs ome
u re
Ġbu y
ou gh
Ġw ould
Ġa d
ark et
u s
Ġl e
Ġinv est
Ġf e
Ġan y
urrenc y
Ġthe re
i es
ou r
a st
o k
an s
e m
Ġ out
ere um
a ck
Ġbe c
Ġth ink
lo ck
Ġt im
Ġm arket
Ġn o
Ġt e
Ġm in
b itcoin
q u
Ġpr ice
Ġdo ge
Ġp l
i st
on g
n ow
one y
i e
Ġeth ereum
Ġs p
a re
as h
Ġm oney
Ġb lock
a k
as e
i p
Ġon e
au se
i v
s o
Ġth an
Ġh ow
o st
Ġa m
ay s
o re
Ġtim e
Ġk now
ou nt
Ġcom p
e ar
th e
Ġtr ad
i b
Ġthe ir
Ġwh en
i a
Ġa c
w h
k s
i z
ch ain
it e
Ġa g
Ġm an
Ġp re
Ġbec ause
Ġe v
Ġcrypto c
ic h
Ġe very
Ġo th
ion s
t r
p t
Ġse e
am e
Ġon ly
Ġgo od
Ġwh o
Ġa r
Ġ ĠĊ
Ġy ear
i al
Ġu se
ab le
w e
Ġex p
ou nd
an ce
Ġ en
f or
id e
Ġu n
Ġtr ans
o ld
Ġs a
ch an
Ġne ed
a g
Ġblock chain
Ġoth er
d e
Ġo ver
ow n
Ġf in
Ġw ant
Ġthe n
re at
a ke
Ġb an
Ġs c
ou s
en s
Ġthe m
on t
k ing
Ġc r
Ġma ke
Ġp ay
Ġv al
Ġst ill
re e
Ġbe en
Ġex chan
Ġb et
Ġg r
Ġgo ing
Ġ x
o ll
in e
it s
Ġa f
e p
Ġcryptoc urrency
Ġin to
ot h
Ġev en
i re
a ge
Ġdo es
Ġs to
Ġlo ok
j ect
Ġh ere
Ġb r
Ġof f
Ġb ack
Ġm u
Ġal so
Ġwh ich
e l
Ġc ould
Ġin c
Ġcoin s
Ġh igh
Ġ qu
d ay
is h
Ġse ll
Ġd own
Ġmu ch
Ġm on
Ġde c
Ġa pp
Ġ ke
n o
Ġth ing
Ġh old
Ġa ct
Ġw all
ar n
b er
a ce
Ġw ay
t ing
Ġst art
Ġsu pp
Ġsh ould
Ġ very
os s
Ġf ir
o se
um p
Ġl ong
Ġwh y
ve l
Ġmo st
ut ure
a c
Ġg u
Ġac c
Ġb ig
Ġpro ject
y s
et s
Ġf uture
re ad
Ġc l
Ġm ay
Ġte ch
Ġha pp
Ġs ay
Ġr ight
Ġbe l
f f
Ġre ally
Ġd r
at ed
i le
Ġwor ld
Ġu nd
for m
re s
Ġtrans act
Ġre al
Ġc ash
Ġman y
Ġval ue
Ġp ost
b e
or s
w or
Ġfir st
Ġse c
Ġv ia
ough t
r al
Ġto k
r o
ig n
Ġf un
Ġp er
Ġo p
Ġd id
w n
Ġnew s
Ġp art
Ġc urrency
d s
Ġf u
Ġund er
as s
n e
c o
Ġag ain
Ġim p
Ġs m
a ch
ill ion
a il
b le
Ġin t
Ġl ot
Ġl a
Ġb it
ic k
Ġtrad ing
Ġto o
Ġad d
Ġd ay
Ġre g
v ing
Ġ our
Ġo wn
Ġre s
x t
Ġcom m
Ġwe e
Ġaf ter
is e
ment s
Ġd ont
Ġpro f
b l
n ot
th ing
u ally
t s
g r
f ore
Ġexchan ge
g y
Ġcon tr
in d
Ġch an
e c
Ġt ake
a h
Ġwall et
ce pt
Ġwe ll
ent ral
y ou
Ġw ere
it al
Ġn et
Ġs om
ad e
i ous
n ing
Ġst r
th is
Ġch e
Ġbe ing
Ġthe se
y st
if f
i ly
Ġre ad
Ġre p
f e
Ġg reat
Ġmin ing
Ġg ot
Ġmon th
Ġcon s
Ġbe fore
ar y
ib le
Ġyear s
wor k
re d
Ġwh ere
Ġl ow
Ġs er
Ġf ree
Ġbet ter
u p
Ġne xt
Ġs ame
Ġas s
Ġh ad
Ġt w
Ġke ep
Ġc ap
Ġbitcoin s
Ġd iff
oth er
Ġt ry
on d
Ġh ard
g es
res s
Ġsupp ort
Ġl ast
Ġre c
Ġus ing
in ce
t y
on s
ation s
en ce
Ġsu re
an c
Ġp u
Ġbel ie
Ġw a
eth ing
Ġth ose
l i
Ġto day
op e
Ġin st
ere st
se l
Ġb est
urrenc ies
un ity
Ġbu ll
er m
Ġc ur
Ġp oin
wh at
read y
p le
Ġsom ething
Ġcon t
Ġne ver
iz ed
Ġr o
Ġe l
Ġwee k
Ġwor k
Ġc ount
Ġhapp en
ll ar
Ġnet work
yst em
w ays
ic al
il ity
w ard
l p
c ess
h e
g er
vel op
Ġal ready
Ġfe w
a z
Ġh is
Ġ ent
Ġr un
as ed
Ġal t
Ġth r
Ġin ter
Ġde velop
Ġb o
Ġf i
Ġ end
ul t
Ġc o
Ġr is
d o
Ġd a
ne w
at ch
Ġhe lp
Ġto p
oll ow
re nt
Ġin f
Ġs ince
Ġ z
Ġre m
f t
Ġwor th
Ġint erest
Ġin d
Ġw r
u ct
u d
b s
Ġcan not
an y
Ġ et
v es
ic es
m e
o c
i pp
ic t
Ġgo ld
Ġar ound
st and
Ġinvest ment
is s
l ess
Ġe as
Ġyou re
Ġt al
it t
f ul
ver n
it ion
Ġban k
at h
ver s
at ing
Ġso l
Ġf ollow
Ġs ign
Ġus ed
Ġs im
a x
Ġd ig
Ġm ade
Ġe arn
or y
no lo
g t
Ġpoin t
c on
Ġe m
at ive
Ġdiff ere
Ġgo vern
Ġbelie ve
Ġbuy ing
p r
Ġcur rent
Ġac cept
Ġprof it
Ġsa id
Ġde f
Ġa w
Ġal ways
Ġacc ount
Ġwa it
Ġsc am
Ġp ut
d r
Ġd es
Ġunder stand
Ġwh ile
Ġtok en
Ġc all
Ġtech nolo
er t
Ġact ually
i o
Ġpl at
ak ing
Ġan other
a v
h ow
Ġre as
Ġd ays
f er
Ġp ers
Ġcon f
sel f
Ġthing s
Ġv ol
Ġinc re
Ġs ystem
u al
c om
Ġc or
g est
Ġso on
Ġb ought
Ġre t
Ġplat form
v ed
ar ch
Ġat t
Ġli st
ĠĠ ĠĊ
Ġg ive
Ġgr ow
Ġevery one
Ġla un
g o
b tc
Ġp ow
p e
Ġs ur
Ġm illion
Ġg en
b o
Ġse em
Ġtransact ions
ut ion
a w
ab ly
h ing
Ġpl ay
Ġi de
ic ally
Ġdr op
Ġad v
Ġdo llar
al e
c rypto
at es
Ġt erm
Ġp oss
Ġg ain
Ġthr ough
Ġx r
Ġreg ul
Ġbu s
Ġtransact ion
Ġsh ort
Ġh ope
Ġfe es
ar ly
Ġm ight
g et
l et
Ġb re
Ġme an
Ġtrad e
Ġfe el
Ġcomm unity
i ed
in ess
ur n
Ġus d
Ġi d
b ase
Ġpu bl
Ġdig ital
l es
iz e
n ce
Ġs et
i ld
Ġche ck
Ġp ump
Ġcom e
Ġget ting
d er
Ġmo ve
Ġalt coin
eth er
n a
Ġh u
at s
Ġf ar
in ance
Ġan al
od e
Ġde p
Ġp h
ble m
Ġsh it
n et
k es
Ġfi at
l ine
Ġre d
Ġsu b
Ġf l
Ġwith out
Ġs l
Ġm ain
Ġc ard
Ġdo ing
Ġi co
Ġpro blem
Ġthat s
Ġth ough
Ġtechnolo gy
entral ized
Ġl ess
Ġsh ow
Ġany thing
y e
Ġtok ens
Ġam ount
Ġlaun ch
ent s
Ġst e
p er
Ġexchan ges
Ġb l
i an
Ġbus iness
Ġpers on
Ġj oin
ĠĠ ĠĠ
Ġp os
Ġle g
le ase
Ġfin d
s h
Ġte am
and gt
Ġp ur
Ġb ad
Ġsu ch
Ġsp ec
Ġdiffere nt
u ck
ie w
i ally
or d
Ġfin anc
Ġpro b
Ġsto ck
Ġy et
Ġe ver
Ġcont in
Ġi ll
al s
Ġu nt
Ġl et
Ġf act
Ġinvest ors
Ġreas on
Ġcryptoc urrencies
i end
it ies
Ġp o
Ġus ers
Ġmay be
Ġle arn
Ġhold ing
Ġpr iv
Ġlook ing
Ġl ar
Ġsome one
Ġs end
Ġnot hing
Ġt ax
ipp le
Ġris k
Ġsm art
p l
Ġj o
Ġc lo
Ġis s
Ġch in
Ġar t
Ġte ll
er o
op t
and s
Ġm at
od l
ere d
a ir
Ġxr p
Ġh our
it ed
Ġfu ck
Ġl ol
Ġpre s
Ġl ink
Ġd ip
Ġp ot
Ġma king
Ġtw o
Ġmo on
b r
Ġc reat
Ġen ough
Ġb oth
er ing
Ġcom ing
Ġmonth s
Ġg iv
Ġcoin base
Ġs w
Ġ q
u c
Ġf ound
Ġcontr act
o f
a ve
Ġtry ing
Ġh it
Ġban ks
ent ial
Ġprob ably
if ic
m y
Ġgen er
Ġf ast
ap er
u es
Ġany one
Ġfu ll
Ġunt il
Ġs at
Ġch art
Ġag o
t e
Ġtr ust
us s
Ġlo ve
Ġevery thing
Ġop en
Ġgovern ment
Ġchan ge
Ġpre t
Ġn um
m ost
Ġw atch
j or
Ġfinanc ial
itt le
Ġpro v
j ust
Ġs ays
Ġqu est
ct ion
u g
Ġa v
Ġch ain
ent ion
im e
Ġin s
Ġl at
Ġsm all
Ġma kes
Ġth ought
Ġi ve
b ut
Ġbec ome
an o
Ġide a
Ġv ide
Ġser v
Ġl ittle
Ġsto p
Ġad opt
Ġpow er
re am
Ġle vel
Ġbre ak
Ġsu c
are d
ut e
Ġadd ress
Ġgo es
Ġh odl
Ġw in
ite coin
Ġbe ar
Ġ es
ic s
od y
en e
Ġe ff
Ġexp ect
o ve
Ġfr iend
Ġpr op
Ġf all
Ġpr od
Ġpay ment
Ġfun d
y es
Ġma jor
g in
Ġd at
e ver
Ġe con
Ġhu ge
Ġre l
c es
Ġo pp
Ġli ve
Ġcr ash
w are
o o
Ġd ump
Ġecon om
Ġpret ty
ĠĠ Ġ
um e
Ġet c
Ġpr ot
Ġpr om
Ġseem s
Ġab le
Ġsec ur
Ġcomp any
Ġposs ible
a pp
Ġli fe
th ere
Ġr ipple
Ġc ase
Ġp op
Ġan n
h i
Ġre ach
Ġinvest ing
Ġgu ys
Ġexp er
Ġm iss
Ġm ed
l ed
c r
Ġfor k
ot e
Ġexp l
Ġ ver
Ġo pt
Ġcor re
Ġre v
Ġpl an
u ll
Ġda ily
Ġh im
Ġc are
Ġle ast
am p
Ġc our
Ġc ost
Ġon ce
Ġa ir
Ġb inance
Ġb ot
a id
Ġsay ing
Ġthis c
Ġd ou
Ġha ck
Ġde m
i ent
Ġpr ices
Ġp lease
Ġagain st
Ġb illion
wh y
Ġall ow
Ġproject s
Ġtr ue
Ġsell ing
Ġc le
Ġl itecoin
Ġcons id
c os
Ġpre d
c ed
ys is
we et
Ġvide o
Ġpot ential
Ġme ans
Ġg am
Ġc e
Ġtim es
Ġde v
Ġfor m
en se
at ure
d it
b it
Ġb as
Ġwr ong
Ġbel ow
se arch
Ġdec entralized
Ġag ree
Ġc oll
Ġle ad
Ġk ind
Ġstr ong
Ġeas y
Ġcomp let
Ġb ch
p ect
le ct
Ġp ol
g ed
c i
Ġso ld
we en
b t
Ġanal ysis
Ġs it
a im
Ġstart ed
Ġhigh er
Ġg re
Ġm om
Ġcount ry
Ġup d
gr am
Ġaw ay
Ġg lo
Ġp ast
Ġd one
ul ar
Ġbet ween
Ġe ach
Ġab ove
Ġthan ks
ward s
Ġsupp ly
Ġimp ort
on na
ish ed
ate ly
t om
Ġc re
Ġb ased
wh ere
ith er
Ġel se
Ġsuc cess
b ody
Ġmin ers
ver t
Ġwho le
g ing
Ġm ass
Ġre search
ren d
Ġg ame
Ġinter net
r ies
Ġp ar
Ġdef in
em ber
Ġt ak
Ġha ving
Ġcan t
ou p
s w
Ġo ld
an k
Ġm ust
m a
as es
is ed
Ġpl ace
Ġwor king
Ġ est
v ious
ur ing
i k
Ġdat a
b al
Ġrec ent
Ġh al
Ġsh are
Ġincre ase
e e
Ġop in
Ġto t
Ġs ch
Ġann ou
Ġch o
ul ation
Ġlo se
Ġh y
Ġprod uct
e ad
i ence
m ed
h ip
Ġmarket s
Ġin form
Ġinf l
Ġsat os
Ġgu ess
Ġas k
Ġal most
Ġmin e
Ġg onna
ert ain
Ġre qu
Ġnum ber
Ġr ich
Ġe arly
m in
Ġbe h
Ġex ist
es e
Ġd ire
Ġbull ish
al th
Ġrep ort
Ġ ed
it ter
dr op
Ġl im
Ġp ort
Ġpubl ic
Ġbu ild
Ġsecur ity
b u
Ġart ic
Ġh and
i er
g n
Ġp ass
c l
Ġoth ers
ing s
ist r
Ġsp end
Ġquest ion
Ġpur ch
e x
Ġlo st
Ġp at
f ect
o g
Ġpred ict
Ġaltcoin s
Ġst ate
l ic
o od
Ġon line
Ġt est
Ġtal king
Ġcurrent ly
Ġse en
Ġtrans fer
er n
m ber
we ll
y m
Ġgain s
wh en
an g
Ġn ice
Ġexpl ain
Ġcontr ol
Ġneed s
Ġsto re
Ġadopt ion
ver age
Ġ er
Ġre ce
Ġy es
Ġinc l
the y
Ġcomplet e
m an
Ġlike ly
Ġv is
ath er
Ġr ise
Ġinst ead
Ġbu b
Ġimport ant
Ġpriv ate
Ġcomp an
in t
Ġhe ad
Ġmom ent
Ġch ar
Ġst ay
Ġhour s
Ġcl aim
Ġopp ort
Ġfe e
ac y
Ġtal k
Ġsa fe
Ġbe gin
re t
Ġgr oup
Ġd ue
Ġchin a
Ġd et
Ġn or
Ġre co
Ġvol ume
Ġc urrencies
Ġf ore
n er
Ġd i
o ol
u b
ap h
Ġke y
l t
Ġfun ds
eth ereum
Ġam az
Ġv s
Ġglo bal
al es
Ġcour se
ite ly
Ġwor ks
ab ility
Ġfuture s
Ġlook s
Ġf ail
Ġe ither
Ġtw itter
Ġcrypto s
Ġl oss
Ġo b
i um
ye ah
it er
Ġc ar
Ġwe bs
Ġget s
Ġev ent
bo ok
u th
Ġsp e
Ġt urn
Ġass et
Ġl ets
Ġqu ick
Ġl ight
Ġclo se
Ġtech n
Ġdollar s
Ġwee ks
Ġc ode
r ic
Ġopin ion
do ge
ter n
Ġl os
n ers
Ġgu y
Ġsp ace
Ġcompan ies
f ull
id es
Ġair drop
Ġc entral
Ġind ust
Ġh ist
Ġpart ic
Ġatt ack
Ġbu r
u de
Ġs ing
Ġcre ate
Ġmat ter
c ash
Ġbub ble
c ent
m s
iz ation
Ġs k
v en
y ing
us d
Ġal ts
Ġn ame
Ġhow ever
th ats
Ġex am
Ġpro cess
Ġm ult
Ġs ide
Ġcap ital
Ġf ace
Ġlar ge
Ġre st
n y
Ġw ent
Ġex t
is ing
Ġex act
ar ing
Ġcount ries
Ġsec ure
c ial
Ġinterest ing
us h
Ġcontin ue
Ġor der
Ġcomp et
Ġwhat s
Ġvol at
Ġc red
Ġl uck
f ol
Ġinform ation
h ere
iv es
as ing
Ġar g
Ġartic le
r t
Ġt aking
Ġc ust
Ġcom es
f r
th at
Ġd ash
Ġlow er
Ġdevelop ment
c an
Ġc ore
ot a
Ġcall ed
Ġsec ond
g an
le ment
Ġan sw
or r
p ec
Ġsatos hi
Ġb ene
Ġt y
Ġt ar
Ġch ance
ation al
Ġpay ments
Ġdoes nt
Ġret urn
Ġapp ro
c c
Ġwould nt
Ġe lect
Ġprof its
Ġd uring
Ġwall ets
u ff
Ġcomp ut
Ġf am
Ġexam ple
Ġdire ct
lo ok
Ġm or
Ġc ertain
Ġt rend
Ġla w
Ġread y
n ect
Ġst able
Ġinvest ed
un d
Ġp aid
Ġthink ing
Ġst and
Ġbene f
Ġrequ ire
Ġbeh ind
Ġme m
Ġwait ing
ch e
ryp t
Ġsu per
Ġdefin itely
Ġi r
at or
Ġmed ia
Ġcom ment
our ce
Ġent ire
Ġb lo
t ime
Ġl ed
on est
Ġma x
Ġconf ir
full y
Ġs ent
d d
Ġcontract s
i x
Ġsl ow
Ġ ve
Ġpop ular
Ġbig gest
fol io
Ġe qu
Ġmin d
Ġr a
Ġhapp y
Ġeth er
Ġass ets
Ġm et
Ġre f
an ks
Ġc ou
b ers
p h
n ed
it ing
Ġb ill
c urrency
a ire
Ġpro of
Ġbr o
s ide
Ġm er
l a
m ore
Ġq ue
en c
Ġav ail
Ġpos it
ar s
dr aw
end ing
Ġmo ons
Ġwant s
Ġres ist
Ġin de
Ġen er
Ġp aper
Ġhe ard
Ġwh ite
Ġbr ing
j o
Ġdem and
u ed
ag es
b in
is m
Ġindust ry
d ont
Ġbec om
Ġp an
s ol
Ġde al
Ġr ather
Ġw ond
b ack
Ġwebs ite
Ġacc ess
Ġse g
Ġde l
y c
Ġser ious
ig in
Ġopport unity
il ar
Ġl tc
b lock
Ġsh e
Ġeff ect
a f
Ġhapp ens
Ġu t
Ġred dit
Ġcreat ed
Ġgrow th
Ġcl ass
Ġsh ill
Ġs ound
n el
Ġqu ite
t en
Ġinf o
in es
Ġs ense
Ġop er
Ġlat er
end s
Ġwith draw
Ġne o
Ġl iter
Ġener gy
Ġa p
Ġpubl ished
Ġsu g
Ġavail able
pec ially
Ġtot al
oc ol
Ġserv ices
Ġm ention
Ġor igin
Ġhas h
Ġincl ud
Ġbot tom
Ġiss ue
Ġupd ate
Ġsh ib
Ġserv ice
Ġex c
Ġan t
Ġy e
od es
Ġwith in
Ġd om
w it
Ġthisc uss
Ġrem ember
Ġre le
Ġr ate
q ue
p ly
Ġgo og
Ġyour self
w ay
Ġrep l
ir t
Ġport folio
Ġsim ple
Ġsing le
qu id
Ġoff ic
Ġche ap
Ġen g
Ġres p
Ġsc al
li ke
i or
Ġthan k
ut ions
Ġtrad ers
Ġinterest ed
Ġcust om
Ġmass ive
Ġst uff
Ġknow s
u ation
Ġhist ory
Ġlo c
Ġce o
Ġcr az
c ap
Ġd on
Ġtechn ical
Ġcorre ct
Ġsug gest
Ġrem ain
istr ib
c ome
Ġle ft
Ġfu d
Ġin tr
Ġsh itcoin
at ors
Ġes pecially
Ġst or
if y
Ġadd ed
Ġon es
Ġi ota
Ġst ep
ou se
Ġit self
Ġprot ocol
Ġne ar
Ġm ill
p ro
Ġso cial
Ġhappen ed
Ġtak es
u ly
Ġcou ple
an ge
ir d
Ġjo b
Ġleg al
Ġfollow ing
Ġad a
c a
Ġv iew
st r
Ġc op
Ġt weet
Ġi cos
Ġb ount
Ġfriend s
Ġus er
ap s
Ġliter ally
Ġo k
Ġw ish
Ġs ite
Ġun i
o h
Ġst ake
Ġh er
st ream
p ing
Ġthere s
est er
Ġm ess
orr ow
Ġfe ature
Ġman ip
gr aph
id ent
Ġw ont
Ġinst it
crypto currency
Ġet f
Ġexact ly
Ġcred it
Ġhal f
ag ine
Ġk ore
Ġli quid
ant s
d es
Ġclo s
ord ing
v ent
ut es
Ġinv ol
iv id
Ġso ft
Ġdec is
Ġdep os
er ic
on es
e very
ir c
Ġint e
Ġj an
oc us
u ary
Ġpu ll
Ġdiff ic
v iew
Ġsim ply
w ill
Ġtar get
Ġh o
om m
Ġgre en
Ġis nt
Ġn ano
Ġob vious
Ġh onest
Ġto m
Ġ vers
Ġmin er
au gh
sol ute
Ġrun ning
Ġimp lement
Ġconsid er
os ed
Ġeas ily
Ġc ause
Ġsim ilar
ĠĠ ĠĠĊ
Ġmo ving
p ed
Ġf av
Ġf re
Ġh um
Ġw ar
Ġseg wit
Ġpartic ip
Ġl ine
up id
Ġblock s
l m
Ġc amp
Ġk ill
Ġcomplete ly
Ġansw er
Ġannou n
Ġz ero
Ġf ur
Ġe ur
Ġstock s
Ġa th
he ad
ou th
Ġto ok
ate ver
Ġh op
Ġg l
il t
Ġreg ard
au d
Ġs ource
Ġled ger
it ch
Ġcom ments
Ġpro gram
Ġl ate
Ġco ol
m arket
Ġdevelop ers
Ġper cent
Ġne g
s ure
bu y
um ent
Ġsol ution
Ġa verage
Ġdes ign
Ġste llar
Ġstr ate
e g
Ġlat est
r u
go od
n b
Ġyou ll
v al
Ġpart ners
Ġte le
Ġdid nt
Ġst upid
Ġs ale
lo ad
Ġiss ues
Ġsp read
Ġresist ance
if t
m m
am ent
Ġchan nel
ol ution
Ġfuck ing
Ġcon c
Ġgoog le
lo l
Ġg as
Ġinc ome
ou d
Ġlight ning
to p
or ry
no v
Ġact iv
ow s
Ġleg it
Ġdoge coin
th er
Ġf ocus
Ġtr ack
Ġcraz y
Ġn on
if ied
Ġexper ience
Ġth read
Ġdec entral
Ġmon ero
Ġlong er
un e
Ġsa w
Ġact ual
ort s
Ġfi x
Ġa uth
th anks
are nt
f l
id ed
ist s
Ġsee ing
Ġm ar
Ġe ar
Ġj ump
ip le
Ġf a
Ġcle ar
Ġin it
d a
Ġposs ib
um b
w ith
Ġbount y
Ġmo de
Ġth istrib
ot s
Ġde ad
b y
p or
Ġst ud
Ġc irc
led ge
Ġstart ing
Ġamaz ing
al ity
Ġto ld
Ġb ag
on ym
Ġwh atever
n ess
Ġapp lic
Ġam eric
f ort
id d
im es
an e
h a
in s
ion al
Ġnor m
Ġeconom y
g ether
Ġrecent ly
Ġhold ers
ant ly
Ġpurch ase
t a
ens ive
Ġgiv ing
Ġposit ive
Ġa ut
a ign
s ome
Ġwant ed
Ġprot ect
pe ople
Ġpan ic
Ġb t
Ġhe ar
Ġv ar
Ġb on
p al
Ġab solute
Ġinvest ments
Ġrec omm
Ġimp ro
new s
Ġc al
Ġbas ically
um m
Ġadv ant
Ġus es
Ġpur p
m ay
Ġinfl ation
l er
Ġmy self
Ġy ester
Ġpriv acy
er ve
Ġcon nect
Ġpay ing
Ġwe alth
Ġhappen ing
Ġhy pe
Ġfur ther
Ġsur pr
Ġd ie
s p
r a
Ġadv ice
Ġe os
Ġf air
he y
Ġexp lo
Ġoff er
Ġc entralized
Ġaccount s
sel ves
re et
Ġe cos
Ġpos ition
Ġb ou
che ck
Ġcamp aign
Ġw ays
ed ge
Ġgener al
im in
Ġn ode
ck et
c ast
Ġad vert
Ġc ent
Ġwe b
p s
ad a
Ġt ether
Ġpost s
Ġfin ally
l ing
Ġbig ger
Ġecos ystem
Ġwh ether
Ġrece ive
Ġman ag
Ġgiv en
Ġh ouse
Ġde ce
Ġme et
Ġbu ilt
Ġproblem s
Ġsa ve
Ġst ory
Ġh ate
Ġmin utes
Ġr ul
Ġn odes
ition al
Ġun less
Ġsoft ware
Ġh its
ip s
Ġinvest or
v est
Ġi gn
Ġb al
Ġrec ord
ail s
Ġopt ion
Ġgrow ing
Ġf ig
g ress
Ġto gether
p ay
Ġcard ano
Ġin nov
re me
ap an
Ġper fect
t u
m o
Ġfast er
Ġban king
ist ic
Ġt er
Ġf ake
Ġrecomm end
d id
Ġface book
Ġpo ol
Ġv irt
Ġprov ide
m ing
Ġcoll ect
ck s
Ġp ush
au s
Ġwond er
Ġshow s
ere nce
Ġd est
iv ed
Ġacc ording
Ġwor d
Ġc ame
Ġlist ed
Ġvolat ility
Ġknow ledge
Ġre ward
ver al
es ome
Ġsign ific
Ġh ome
Ġneed ed
Ġfor get
l f
Ġn ight
Ġannou nce
Ġm us
ac es
Ġre fer
Ġprop er
Ġh ands
em pt
Ġtax es
Ġs al
Ġm is
Ġlim it
Ġm ark
Ġd am
Ġen jo
al so
ie f
Ġfin ance
Ġgiv es
Ġaccept ing
Ġsuccess ful
Ġfr aud
Ġlo g
Ġb ar
Ġbo ok
Ġyester day
Ġf ed
Ġaf fect
im ate
i ke
Ġcho ose
Ġtom orrow
a a
Ġsol id
Ġcard s
be c
Ġto wards
Ġse veral
Ġal ong
Ġdou bt
bl ing
Ġreas ons
Ġfin e
Ġincre asing
ter m
Ġcons ens
Ġstand ard
Ġel on
Ġchin ese
Ġoffic ial
Ġgovern ments
ad ing
Ġhard ware
Ġs il
Ġfig ure
ru pt
Ġsch em
Ġg one
Ġme me
Ġfor ward
Ġa head
Ġevent ually
Ġval id
ul ate
Ġtele gram
Ġdece mber
a i
im ent
d own
Ġt on
Ġhe ll
k t
Ġal tern
st er
Ġan onym
ot ing
Ġro ad
Ġorigin al
Ġsa ving
Ġwh ales
Ġl ay
Ġdiffere nce
or n
Ġcons um
Ġterm s
l ets
Ġdou ble
Ġmor ning
re g
Ġen c
Ġent er
Ġcon v
Ġre lease
Ġany more
o id
Ġth ous
Ġth ree
Ġper form
Ġim agine
Ġd is
Ġchart s
ut ed
i en
Ġatt ention
Ġcomput er
Ġw arn
Ġm eth
Ġinclud ing
Ġpay pal
Ġlar gest
u ce
Ġex tr
i as
Ġloc al
Ġlist en
Ġconc ern
Ġlot s
Ġprofit able
Ġworld s
des k
se c
Ġcr oss
Ġcomp ared
Ġyou tu
Ġand gt
Ġb s
m on
Ġp air
n g
Ġa ch
Ġm il
ive ly
Ġman age
Ġact ion
Ġc rypt
Ġsa f
Ġye ah
Ġrev olution
for d
Ġconfir m
l and
re ci
Ġr ally
Ġcon vert
Ġaut om
Ġread ing
Ġr uss
Ġwor ry
Ġill eg
Ġintr od
Ġbear ish
h old
Ġmajor ity
Ġb ir
Ġmill ions
o ff
Ġcontin ues
at t
id ence
Ġinvol ved
Ġdecis ion
ent ially
Ġr id
f in
y n
Ġfor um
et y
Ġfav or
wh o
Ġto ol
Ġrul es
iv ing
Ġfam ily
Ġno body
Ġsom et
ou ch
l ist
Ġcorre ction
Ġh ur
Ġconsens us
Ġlos ing
ce ed
g ot
Ġstart up
Ġp ick
u se
Ġmarket ing
Ġm ist
Ġas king
h ood
Ġfun ction
Ġmax im
Ġthem selves
b ased
Ġind ic
i od
id s
Ġch r
bec ause
Ġh es
Ġext reme
Ġsh ut
ie ld
Ġtr ied
Ġknow n
id er
uct ure
Ġle ave
om o
k ed
Ġbecom es
Ġr t
Ġh ot
l s
Ġdiffic ult
Ġre wards
ah a
Ġval u
at er
Ġpres ent
coin s
Ġyoutu be
Ġdrop s
ist er
Ġbegin ning
Ġauth or
Ġmeth od
Ġneg ative
Ġc ents
Ġdirect ly
Ġr oll
Ġpl ans
wh ile
l ar
Ġbuild ing
ver se
Ġsit uation
Ġpre vious
Ġelect ric
Ġstrate gy
ire d
Ġde ep
Ġr u
o b
Ġmo b
d ays
Ġreal ize
Ġrev iew
Ġdev s
med i
Ġquest ions
Ġper iod
Ġth reat
Ġa ug
Ġpart y
Ġmult iple
te ch
p u
w ise
p ite
f ir
Ġd en
act ion
block chain
Ġac r
Ġpost ed
un g
t on
Ġex cept
p ost
Ġimp act
Ġed uc
Ġne cess
th ough
re m
Ġfund ament
Ġregul ation
Ġuse ful
Ġwatch ing
Ġat m
Ġmain stream
Ġenjo y
o lo
Ġrepl ace
Ġvirt ual
Ġc as
Ġilleg al
Ġcop y
g u
Ġeconom ic
Ġk r
s u
Ġid ent
Ġabsolute ly
Ġperson al
Ġeas ier
Ġbr ok
Ġpl us
Ġpartners hip
Ġpol it
Ġt x
Ġnorm al
Ġav oid
Ġbl ack
r ing
Ġus ually
Ġke ys
Ġp ie
Ġtrad es
Ġjan uary
in vest
Ġst reet
Ġcon cept
Ġvers ion
Ġweek ly
Ġind ivid
Ġsur v
Ġapp e
Ġim o
Ġb ase
Ġhe ld
iss ion
Ġfull y
Ġsc ale
Ġcho ice
Ġse lf
Ġlim ited
Ġh ar
Ġacr oss
Ġj apan
z e
Ġperson ally
Ġcl ick
Ġs orry
is es
Ġcoin desk
Ġchan ges
Ġma ch
Ġexp ensive
Ġinfl u
Ġs n
Ġse arch
Ġrel ated
Ġb ab
Ġinter n
Ġd ream
Ġdepos it
Ġde b
Ġpurp ose
Ġaw esome
Ġpre fer
le x
Ġk ing
Ġs outh
Ġpo or
Ġst aking
Ġty pe
Ġr ange
Ġdip s
Ġgu ide
bitcoin s
b re
Ġlevel s
g reat
g ies
m er
Ġd umb
Ġter r
Ġach ie
Ġhum an
Ġindivid ual
Ġda pp
what s
tr act
r s
r ight
h h
Ġph one
Ġapp reci
oss ible
Ġf ight
z i
i ant
g s
Ġinte gr
Ġtr on
Ġn ft
Ġr and
Ġspec ul
Ġf il
p ut
Ġopt ions
Ġyou ve
Ġbon us
Ġmem bers
Ġany way
Ġaf ford
ot o
Ġfe ar
Ġem p
Ġcustom ers
Ġtr a
Ġhere s
ĠĠĠĠ ĠĠĠĠ
may be
Ġwor ds
Ġor d
y ond
Ġchan ged
Ġu k
Ġhe av
Ġt ill
Ġadvant age
Ġcr it
Ġs ize
Ġtrad er
Ġal though
Ġw an
cr ib
a ut
Ġp en
Ġris ing
Ġc aus
lo s
ak en
Ġgo al
Ġpoin ts
Ġsh o
ur s
Ġx lm
Ġlo ck
Ġv i
Ġf ac
enc y
Ġbu n
Ġthey re
Ġblockchain s
Ġsc r
Ġp m
it es
se ll
Ġlaunch es
Ġd er
Ġam ong
g or
Ġr bitcoin
iz ing
in c
Ġer c
Ġscal ing
Ġof ten
Ġgam es
Ġmin im
li er
Ġc y
Ġf omo
Ġd an
Ġcost s
Ġextr a
it or
l come
Ġm ic
Ġem ail
Ġst at
Ġp et
Ġback ed
Ġor gan
Ġp on
Ġjo ke
Ġw ast
y or
on ly
Ġmost ly
Ġsu bs
Ġvalu able
ple ase
Ġset t
Ġschem e
Ġimpro ve
Ġw al
Ġtak en
Ġexpect ed
Ġe p
Ġannoun ced
Ġcon st
Ġaccept ed
Ġmiss ed
ol id
Ġcont ent
Ġbou nce
Ġappro ach
ak es
Ġsomet imes
Ġbenef it
Ġmob ile
Ġsh op
Ġspec ial
Ġs ad
Ġpre p
Ġhe alth
Ġrem o
Ġsound s
Ġpredict ion
Ġreco ver
Ġmin ed
ic ient
Ġearn ing
y our
Ġthought s
Ġdet ails
ific ation
is on
Ġatt empt
v ant
Ġtot ally
Ġdes pite
Ġquick ly
Ġhope fully
Ġbet ting
h o
Ġsp l
Ġcontr ib
Ġv en
w ow
our ces
Ġclass ic
Ġoff ering
Ġwill ing
Ġa pr
as on
Ġut ility
Ġp age
Ġl ack
Ġplay ing
do es
bin hood
Ġsw itch
Ġstart s
Ġa ud
Ġliquid ity
ab il
ure s
Ġo h
Ġt ouch
Ġmo ves
Ġsp ot
Ġallow s
Ġres ult
Ġbe yond
Ġtr uly
Ġt ick
Ġup gr
Ġloss es
Ġfore ver
Ġacc um
Ġth ird
Ġreal ity
Ġbo om
Ġf lo
Ġunderstand ing
p aper
Ġvolat ile
ic o
Ġb cash
Ġkore a
m ain
Ġgam bling
Ġmention ed
Ġbusiness es
Ġkeep s
Ġban ned
Ġrele ased
Ġmillion aire
Ġpar a
Ġimp ossible
Ġma g
Ġc ases
Ġo m
Ġmode l
Ġh edge
Ġs un
Ġsk y
Ġfall ing
Ġweek end
Ġpre m
Ġobvious ly
Ġelectric ity
Ġph ys
Ġexc ited
Ġfir m
ic ed
as k
Ġrisk y
am es
Ġg e
Ġs umm
Ġhigh ly
Ġspe ed
j oin
un ities
ly ing
Ġm al
Ġcreat ing
ip t
iv al
Ġdef i
th ank
Ġdep ends
Ġv ote
red dit
ul ated
Ġplatform s
Ġtr ump
Ġm arch
Ġrand om
are s
em s
Ġinit ial
Ġo cc
Ġd ate
Ġwe ak
Ġask ed
Ġdec ide
Ġex ec
Ġr ound
Ġgo d
Ġdest ro
Ġt re
Ġrep res
Ġid i
Ġgre ed
Ġinstit ution
Ġh und
Ġs le
Ġind ia
Ġaltern ative
Ġt ur
Ġun like
us ed
ot ed
f ine
Ġst ates
Ġpol ic
ot es
ul ts
Ġche aper
Ġput ting
Ġen v
Ġhack ed
h is
r on
Ġmon et
Ġc yc
ve mber
Ġne arly
Ġs ort
Ġc ut
Ġanonym ous
Ġcomm on
Ġbenef its
Ġspe ak
Ġfound ation
ar ant
Ġprom ising
Ġsystem s
end ed
i ans
re x
l ation
Ġlaunch ed
Ġf o
Ġamaz on
Ġo bs
Ġdec ided
Ġbecom ing
Ġserious ly
Ġsol utions
ar r
w all
Ġim medi
Ġaddress es
pp ed
Ġf an
in a
Ġfeature s
ear s
Ġinc ent
Ġthis app
com ing
at ives
Ġfeel ing
Ġscam s
Ġk ar
Ġr ide
Ġfun ny
Ġpat tern
Ġfe ed
Ġme ant
Ġcle arly
ab l
Ġtell ing
Ġch ild
pr ice
h ave
Ġj our
Ġcertain ly
Ġtop ic
Ġextreme ly
te le
Ġal one
Ġdevelop er
Ġdrop ped
p ar
h aps
fort un
Ġtrad ed
Ġcan d
Ġa im
Ġgl ad
Ġarg ument
id ing
l ight
e k
Ġf ol
Ġxr b
Ġchan ging
Ġbun ch
Ġtrans p
m it
Ġ ess
ad o
Ġproduct s
Ġinter view
Ġsc en
Ġf ill
z z
Ġk new
t f
ul ating
r i
Ġste al
Ġt em
you re
Ġear lier
Ġsignific ant
Ġhop ing
all en
Ġc atch
Ġwor st
ed om
Ġno vember
anc es
Ġpon zi
Ġsc re
t ed
m r
ad y
Ġnum bers
sh it
Ġret ail
Ġdown load
Ġlay er
ac c
Ġpe op
Ġreturn s
f ts
Ġbull s
Ġpr act
uct ion
Ġthous ands
Ġother wise
or k
ma o
there s
h as
Ġo d
at ically
Ġhonest ly
Ġpro gress
Ġhigh s
or ing
Ġf ool
h n
Ġtrad itional
w a
Ġfe ll
m as
in o
Ġreach ed
Ġres pect
Ġty p
Ġn ak
Ġeng ine
Ġh ost
Ġwa ve
Ġgu arant
Ġfor ks
m ers
in ed
Ġcr imin
Ġsupp osed
Ġc ry
b i
p ass
Ġre ve
o on
Ġmer ch
Ġcall ing
Ġregul ations
Ġass um
Ġmess age
Ġa u
Ġtr uth
Ġle verage
Ġblo g
Ġbit t
Ġconsid ering
ar ily
Ġbo ard
Ġprof ess
Ġwor se
th en
Ġcl oud
an a
Ġprop os
ast r
Ġinst ant
Ġg ave
ain ing
Ġd ude
Ġal gor
Ġp od
l ive
Ġsp orts
Ġlearn ing
fine x
Ġpe er
Ġbear s
Ġat tract
Ġli ked
Ġsaving s
Ġmean ing
er v
Ġmove ment
r ied
il i
Ġmo d
Ġeur ope
Ġadvert ise
Ġapr il
Ġfre edom
cl us
u ry
Ġch allen
Ġe g
Ġshare s
Ġappe ared
Ġanal yst
Ġspl it
Ġoff ers
Ġshitcoin s
Ġstor age
Ġwan na
Ġst ack
ic ks
Ġsol ve
Ġaug ust
Ġaw are
Ġspec ific
Ġsit es
Ġkeep ing
Ġpeop les
Ġrel ative
at ic
Ġro binhood
Ġact ive
he ll
Ġpie ce
Ġm ath
Ġthr ow
at ory
Ġevery day
l en
p ool
Ġout side
Ġany where
Ġuni que
Ġse pt
Ġconf erence
Ġspec ulation
Ġwr ite
Ġl augh
Ġide as
z a
ir on
Ġbab y
fir st
Ġbal ance
Ġclaim s
u k
Ġj e
b c
Ġm ad
Ġexp ert
Ġsend ing
Ġtr illion
Ġre li
Ġvis ion
ce ll
Ġhigh est
Ġun c
Ġown ers
Ġwh ale
i os
Ġcontr oll
Ġbro ke
r ate
Ġdo c
Ġhand le
Ġus age
Ġret weet
Ġthiscuss ion
wor ks
Ġwhite paper
t ers
Ġl am
Ġlead ing
Ġincre ased
Ġusd t
s i
Ġdec l
tele graph
Ġs ales
oo oo
uc ed
Ġsign al
e v
Ġs on
Ġdec re
Ġconsid ered
un ch
ital ik
Ġmiss ing
Ġthere fore
ac ed
Ġj une
ain s
bl es
Ġp ict
im b
Ġj uly
if e
Ġvis it
af ter
ent ly
ar io
Ġst ick
lo y
Ġdam n
Ġare a
Ġbur n
Ġsle ep
Ġcr ow
a ight
Ġpr im
Ġa ust
Ġo c
Ġt end
Ġpe ak
Ġcomp ar
a ult
dd en
re p
Ġlong term
Ġd ark
ag ing
Ġdr ug
Ġreco gn
Ġsp ent
st o
Ġsu dden
s c
we ets
p o
Ġfr id
Ġf ire
Ġdecentral ization
Ġbr and
Ġchr ist
fortun ately
Ġadd ing
con nect
Ġdr ive
f ound
st e
Ġlo ad
any one
ag ree
Ġhold s
Ġstate ment
Ġmanip ulation
Ġshow ing
g en
Ġthink s
ic king
Ġres erve
Ġluck y
Ġest abl
Ġc c
Ġresp ons
Ġris ks
to k
Ġmo ved
Ġm id
Ġcompet ition
Ġe yes
Ġfail ed
Ġy a
Ġins ane
ib ility
Ġspend ing
coin base
Ġw ide
Ġyou d
Ġdesign ed
Ġsp am
Ġsurv ive
Ġinstit utions
ul ous
Ġrece ived
Ġsch ool
Ġcor por
w ould
Ġw ild
Ġpump ing
Ġdestro y
Ġwe lcome
Ġb c
Ġopt im
o ver
Ġstr aight
aw ay
Ġth o
am a
Ġl ab
Ġign ore
ent y
fr om
i j
Ġim m
Ġc it
Ġro om
i ents
wh ich
g le
Ġapp s
Ġfol ks
Ġapplic ations
ad d
Ġc at
Ġu lt
Ġp ure
Ġt en
Ġp or
Ġper haps
f ree
e ven
Ġcomp l
Ġn one
Ġli ving
x r
ar ter
pect ive
Ġremo ved
s s
Ġad s
Ġfall s
ipp ing
Ġt es
Ġn fts
Ġamount s
Ġem er
Ġholding s
Ġsurpr ised
Ġcr ack
Ġphys ical
Ġdec ent
Ġinstitution al
u z
Ġexper ts
Ġp ain
Ġslow ly
Ġod ds
Ġreg ret
ene z
w atch
Ġmic r
Ġupd ates
Ġbr ows
Ġbitt rex
Ġfr ont
Ġsu ff
Ġth us
Ġde li
idd le
Ġdom inance
Ġde bt
Ġcal c
ad es
Ġrepres ent
Ġab ility
st ill
Ġhodl ing
Ġhelp s
Ġa k
Ġpro ve
Ġdi vers
Ġdo g
Ġl n
Ġal ert
look s
Ġmach ine
Ġmonet ary
ne y
Ġrep e
Ġcomp are
Ġnak am
Ġk ick
Ġord ers
Ġgener ate
u nt
Ġregard ing
v id
Ġro b
Ġimmedi ately
Ġb nb
Ġlearn ed
Ġpre c
Ġpres s
Ġcon vers
Ġdrop ping
Ġr ates
Ġdet erm
Ġpost ing
Ġenv iron
Ġinnov ation
Ġthe ory
on ds
so ci
Ġcyc le
Ġthistrib uted
Ġqu ant
c ard
ve red
Ġfor t
Ġnot e
Ġinc red
Ġfound er
Ġd ow
Ġy ork
Ġf al
Ġc ity
Ġfeel s
Ġmed ium
Ġpre vent
Ġsub reddit
augh t
Ġfavor ite
b ig
Ġinf r
u x
Ġv o
Ġbas ic
Ġs ats
r aid
an other
se e
Ġcall s
Ġlaun der
pl ace
Ġsec ret
Ġintern ational
in i
Ġbtc usd
Ġfrid ay
Ġv ent
Ġi e
Ġwe ve
enez ue
Ġm en
Ġapplic ation
g old
Ġb es
Ġlist ing
Ġinde x
Ġbit finex
Ġplay ers
Ġvar ious
Ġsuc ceed
Ġuse less
Ġannounce ment
Ġgr aph
Ġo l
Ġent ry
Ġbreak out
g a
Ġparticip ate
Ġexist ing
un k
Ġactiv ity
Ġas ic
Ġha ha
Ġt it
Ġme as
wor d
astr ucture
it able
Ġmus k
Ġbre aking
Ġbag s
t t
Ġg iant
Ġle a
Ġte ach
Ġno v
n ice
ber g
f ace
Ġshib a
Ġm b
Ġp s
Ġk ids
Ġbreak s
Ġl and
in ing
Ġalgor ith
Ġr h
e ll
Ġrid ic
Ġr ap
Ġeff ort
Ġac qu
Ġn a
Ġt a
in y
val ued
Ġplan ning
Ġreport ed
Ġmaxim al
Ġm iddle
Ġp ath
Ġli br
here s
Ġqu ality
c ing
Ġv et
Ġn d
min er
Ġg ir
Ġsome where
Ġsign als
ag ed
im ately
Ġreg ister
Ġgo v
Ġenviron ment
Ġaf raid
Ġgr and
Ġwork ed
Ġe ye
Ġu r
Ġso ci
Ġmin ute
Ġs en
Ġhack ers
Ġcour t
Ġas soci
Ġbuy s
Ġmanage ment
w ide
Ġres ults
Ġsw ap
Ġinfr astructure
Ġsign ature
Ġdis c
Ġkind a
Ġr d
p end
Ġar r
Ġnew b
Ġover all
Ġfund ing
Ġbillion aire
Ġc ol
Ġk u
Ġevery body
Ġremain s
Ġmain t
b el
Ġmanag er
b est
Ġf ood
au c
Ġtr oll
Ġnecess ary
Ġrequire d
Ġminim um
Ġr ig
Ġst ream
iz es
Ġinde ed
Ġn ational
Ġb at
al t
Ġachie ve
Ġr at
r ipple
Ġass ume
Ġc old
Ġpossib ly
Ġpr int
er al
Ġru le
Ġcare ful
Ġuni vers
Ġtechnolo gies
ke ep
Ġw on
ang u
Ġf our
le br
Ġm ent
Ġfor ce
to ber
Ġr cryptocurrency
Ġt weets
Ġnet works
Ġsecur ities
Ġg ift
Ġg ar
Ġcr ip
Ġconfir med
Ġcl ients
Ġst age
Ġsept ember
Ġde ath
nb c
every one
Ġpers pective
Ġco ver
on se
Ġregul ar
Ġse ason
Ġsure ly
Ġcons olid
Ġrev en
Ġnakam oto
Ġy all
Ġchain s
Ġwor ried
Ġdevelop ed
th ese
Ġb all
Ġse ed
Ġr an
Ġw om
Ġexper ien
Ġup coming
Ġsur ge
Ġv italik
am s
ust ain
Ġhal ving
Ġopp os
Ġare nt
Ġthisc ount
Ġcomm un
Ġpossib ility
Ġre ject
a ig
t ake
Ġmain net
Ġa ge
Ġsit ting
Ġrefer ral
Ġopport unities
u ing
Ġd ot
Ġimp ress
Ġbull shit
re ed
Ġus a
me x
Ġfix ed
Ġwast e
Ġmo der
Ġcur ious
Ġfin al
Ġadv is
Ġsil ver
r am
ah ah
Ġbo ost
b ank
Ġon to
Ġm ot
Ġcon d
Ġrequ est
Ġbec ame
Ġve chain
Ġincre ases
Ġm t
Ġridic ulous
Ġappreci ate
Ġbe aut
o ke
Ġpod cast
Ġturn ed
Ġg em
Ġbuy ers
Ġpict ure
y a
l im
p ow
Ġw ind
Ġgot ta
ul ty
Ġs an
Ġre tr
Ġshill ing
Ġpl enty
Ġupgr ade
Ġdapp s
Ġg d
c ur
c ould
Ġd ca
Ġapp le
Ġt reat
Ġpr ior
Ġsmall er
Ġautom atically
Ġpredict ions
Ġdep end
Ġlead er
st op
Ġt ip
Ġh or
h aha
Ġchar ge
ound s
Ġtes la
us ing
g th
Ġs ir
l ong
Ġlar ger
f s
Ġpl aces
Ġaf ric
t w
Ġscen ario
us hing
Ġcom bin
Ġsl ight
int erest
Ġsh aring
Ġbrok en
Ġresp onse
Ġins ide
Ġha vent
Ġn ature
Ġra ise
Ġyou ng
Ġpr os
Ġdom in
ct or
f i
w s
in ds
Ġreli able
l ines
and a
Ġto days
b et
Ġmon day
n ces
Ġinte ll
Ġruss ia
Ġameric an
Ġstud y
s m
n n
Ġmist ake
Ġcoin telegraph
Ġworth less
i est
k now
Ġw ise
Ġre vers
Ġmoment um
ear n
em oon
Ġameric a
ast ic
en ing
Ġli ves
Ġsto len
Ġlook ed
Ġkore an
Ġw ed
um ents
Ġi c
Ġdevelop ing
Ġdown v
Ġthistrib ution
Ġadd ition
Ġm atch
l ink
Ġoc tober
Ġce lebr
Ġrem ind
Ġpres ident
Ġut il
Ġattack s
Ġlaunder ing
Ġfl ow
re st
Ġtrust ed
Ġc ens
com p
Ġeff icient
Ġfa ith
bo ard
Ġt v
Ġup side
b inance
Ġtr ain
Ġkar ma
Ġstr ug
i i
Ġad ds
itt en
at ur
Ġest ate
Ġton ight
min ing
Ġcomp r
op h
Ġl angu
w as
Ġregul ated
Ġgreat er
Ġw ow
Ġcy ber
w ap
Ġl as
Ġaccept s
Ġd m
Ġst ar
pp ing
Ġknow ing
Ġd ed
s a
hell o
Ġr um
ren ds
look ing
Ġvide os
Ġsupport ing
Ġf auc
Ġsto pped
cell ent
Ġallow ed
Ġbit main
Ġbr ain
Ġbe at
m c
ke y
ast er
ish ing
Ġp c
Ġro ger
Ġre b
Ġcustom er
Ġsu s
Ġch at
Ġup on
Ġclos ed
anc ed
Ġincl ude
Ġfl uct
Ġaust ral
Ġw est
Ġspecul ative
Ġim age
Ġtest ing
Ġexplain ed
Ġro cket
Ġf ive
f ers
Ġreco very
Ġpat ience
Ġsk ill
Ġproper ty
Ġbas is
Ġma c
Ġm i
Ġbu g
Ġsent iment
z y
Ġsur pass
Ġp pl
Ġcount er
Ġa int
b h
Ġbu ff
arent ly
Ġinde pend
iv en
Ġli f
cr ipt
Ġn as
Ġdire ction
to day
h ope
Ġpres sure
Ġfollow ers
Ġfore x
Ġcont act
Ġstat us
d am
Ġmonth ly
Ġlaunch ing
Ġsatos his
Ġcit iz
Ġl mao
Ġg pu
Ġhelp ing
re al
Ġk yc
wall et
Ġsub ject
p ers
ond on
d ate
Ġn y
Ġfor got
Ġc ryp
go ing
Ġdan ger
oc r
Ġwond ering
Ġbl ow
Ġd u
app ed
Ġpurch ases
ess ion
Ġh at
Ġbo y
Ġup v
Ġear th
Ġkr aken
Ġv enezue
Ġp p
Ġbr id
Ġse par
Ġpat ient
Ġexpect ing
m ap
Ġd iv
Ġfl ag
Ġgive away
Ġworld wide
h s
Ġke pt
Ġrequire s
Ġbill ions
Ġinv ent
tr ading
Ġinvest ig
Ġgam ing
Ġb a
Ġthis co
Ġregul atory
l ated
Ġpercent age
Ġcomm od
Ġdr aw
Ġsome how
Ġdi am
Ġgener ation
Ġdeb ate
Ġall time
re ds
Ġhe art
ict ion
Ġse es
Ġres ources
fr iend
Ġgr ab
chan ge
Ġsports book
ĠĠ ĠĠĠĊ
br uary
Ġb en
Ġhist or
sh ould
Ġe at
Ġsoci ety
n al
Ġdiffic ulty
pt ion
Ġvis a
Ġprov ides
Ġs qu
Ġm ix
Ġku coin
Ġfin tech
it ive
Ġme chan
Ġenc our
Ġco ff
sto ck
Ġle e
Ġpower ful
b a
ul ations
Ġun ited
on ed
Ġwe ird
Ġdec line
Ġrun s
ut s
st art
ure d
Ġreve al
Ġph ase
Ġun fortunately
Ġs ustain
Ġme mber
Ġnot ice
os es
Ġgr ound
Ġcontroll ed
in ary
Ġsc ared
w ere
g ets
h us
Ġtal ks
Ġbrows er
Ġmar gin
Ġen ab
Ġannoun ces
Ġst uck
Ġw ake
Ġset ting
ed it
Ġexc iting
bl ed
Ġlock ed
s et
Ġn arr
Ġcl ient
Ġthis agree
Ġma ster
Ġdes crib
b ull
Ġjo hn
Ġre q
Ġinc om
Ġscam mers
Ġfr ame
Ġa i
Ġc a
itt ed
Ġconfirm ation
Ġp a
Ġst ren
Ġro ck
z os
Ġma st
Ġprov en
Ġas pect
Ġpolic y
app y
y le
d om
i us
Ġfact s
Ġr ad
f ollow
Ġver ge
Ġinst all
res h
Ġb i
and o
ap se
ib ly
s ame
n ight
f uck
Ġf ield
Ġz one
Ġpopular ity
Ġearn ed
Ġcas ino
Ġt rends
Ġfundament als
Ġev ents
Ġgood s
pl ay
ors hip
Ġda o
f o
m ission
Ġem ot
al k
Ġmat ters
Ġj ud
c ant
Ġlo an
et r
Ġj ack
Ġacc ur
Ġhund reds
o ft
am ed
Ġchrist mas
Ġc ult
Ġd ivid
Ġreven ue
Ġsupport s
Ġevery where
Ġfe bruary
Ġident ity
f un
Ġx mr
Ġwr itten
Ġth ist
Ġmarket place
Ġev idence
Ġbro ad
Ġbit mex
Ġhard er
ur ance
Ġfal se
Ġcrash es
Ġend s
Ġbo x
g ers
Ġl ic
Ġpot entially
Ġdump ing
d f
th ink
op er
Ġde let
in de
Ġe le
Ġsu ck
Ġentire ly
Ġset up
Ġbes ides
Ġartic les
fe e
Ġlow s
uc ing
Ġtr ig
Ġar k
Ġperform ance
Ġtr ou
Ġj p
Ġown er
is is
Ġregul ators
Ġregard less
market cap
Ġb att
if ically
b b
Ġpr in
m or
p art
Ġcomm er
Ġde bit
ac ing
Ġpump s
are ly
m p
Ġro le
Ġver ify
el s
Ġroad map
e y
Ġelect ron
Ġanal y
Ġprom ote
Ġbr ief
Ġg if
Ġhold er
Ġl ondon
Ġwithdraw al
Ġnor th
Ġp le
Ġclos er
k k
Ġpump ed
g ical
Ġre nt
Ġmarket cap
Ġm c
i et
Ġr ough
im agine
Ġent hus
Ġexp and
Ġcoll apse
found er
Ġlibr a
Ġcompar ison
Ġred uce
Ġbr ings
Ġpartic ular
Ġidi ot
Ġk id
in st
Ġp iz
Ġsu sp
v is
Ġbit connect
Ġgovern ance
Ġform er
f act
Ġfl aw
Ġadd itional
on om
Ġma k
un der
n es
Ġb and
Ġess entially
Ġtrans fers
Ġreach es
Ġal go
Ġearn ings
b all
if ul
g l
ro cket
ir ing
Ġcor rupt
us ion
Ġwr ote
s orry
Ġf ant
Ġindividual s
Ġbu cks
Ġconf idence
Ġwr iting
Ġp ack
Ġsh ot
Ġwh os
p ort
bit r
Ġd in
Ġam id
i y
l itecoin
Ġm ate
Ġmem es
xr p
Ġcl imb
Ġcoff ee
Ġop ens
Ġom g
Ġlaw s
Ġl ately
Ġactiv ities
Ġsaf emoon
Ġep is
Ġn atur
Ġexpl an
Ġdow nt
Ġbr ought
Ġoppos ite
Ġris es
er y
or re
Ġjour nal
p os
Ġjoin ing
Ġdecis ions
Ġpre live
j a
Ġregul ate
Ġspec ifically
Ġprem ium
Ġp oll
Ġposit ions
Ġany time
Ġo il
Ġopin ions
Ġd im
ipp ed
Ġwarn ing
ro id
Ġmerch ants
Ġin ev
Ġv oting
Ġst ated
Ġinflu ence
Ġwin ner
Ġbir th
o y
Ġok ay
Ġturn s
Ġdoc ument
Ġimplement ed
ens ion
Ġyour s
l ast
Ġstrong er
Ġrap id
Ġcomm ission
ct ions
Ġm r
Ġcr aig
m any
for k
Ġli ber
act ly
Ġap art
Ġsec onds
Ġf ue
Ġfluct u
ch s
Ġsp ike
Ġs ym
Ġgener ally
Ġc nbc
Ġc me
os oft
Ġfollow ed
Ġexperien ced
ne ver
Ġv an
Ġv ict
Ġstr ucture
Ġprofess ional
Ġrep ly
i h
c s
Ġbr ight
es is
Ġown ed
Ġs ke
Ġcon ven
Ġfed eral
Ġcommun ic
Ġcand le
Ġsc ar
Ġs v
Ġconst antly
Ġser ies
Ġdel ay
Ġocc ur
Ġtra vel
Ġapp ear
Ġheav y
ph one
Ġwa ves
Ġintell ig
c ong
Ġaw a
Ġz cash
Ġret ire
or m
Ġpred ic
Ġhim self
Ġrat io
Ġstep s
Ġal ot
Ġfo ot
Ġm s
Ġsupport ed
Ġbur st
Ġadv ance
Ġcomp lex
Ġalgorith m
Ġexist s
ous ly
Ġcreat or
Ġrelative ly
u u
Ġcom fort
Ġhe aring
k r
tr ade
Ġgreed y
y ep
Ġt ips
Ġlink s
b es
Ġbl ue
Ġf ile
y y
lim ited
Ġhy per
Ġcl ar
Ġblo om
m oney
Ġpr inc
er ves
Ġc aught
Ġshort s
Ġpolit ical
d en
is k
Ġbet a
Ġmaint ain
Ġfact or
Ġunder valued
fl ow
Ġp ays
Ġlow est
p ret
Ġspread ing
Ġeconom ics
Ġpool s
Ġlink ed
Ġsudden ly
rem ember
Ġs yn
le y
Ġwin ning
Ġinf in
Ġcoll e
Ġconf ident
Ġinst antly
Ġh r
Ġbelie ves
Ġpair s
u h
Ġown s
Ġpass word
Ġsoon er
Ġp ushing
Ġruss ian
h onest
Ġer r
ex actly
Ġlea ving
Ġhur t
Ġdecentral ised
oin t
Ġtool s
Ġprov iding
Ġlog ic
Ġhit ting
f a
Ġcr ap
Ġfriend ly
Ġex cellent
ve re
Ġar bitr
Ġcomput ers
Ġupd ated
Ġcoin marketcap
Ġrele vant
Ġoff ice
Ġwebs ites
b ed
ch ina
Ġjoin ed
Ġpl un
Ġapp ly
Ġtr x
Ġlangu age
Ġplay list
p re
Ġchild ren
Ġadopt ed
Ġs um
Ġinst r
Ġreport s
s on
Ġeduc ation
Ġexper iment
r op
Ġb le
h appy
Ġins ight
Ġrep ut
Ġarg ue
Ġc am
Ġwas nt
Ġste em
Ġdiam ond
Ġbot s
interest ing
Ġw ater
Ġhodl ers
er a
Ġcrypto graph
Ġcaus ed
Ġsub st
Ġcle an
Ġbill s
Ġmo v
Ġmus ic
Ġoffic ially
wor ld
and t
Ġpart ner
Ġreg ist
Ġg me
Ġsur ve
h es
Ġorigin ally
Ġthis rupt
Ġequ ival
Ġbl ame
Ġli e
Ġhe y
Ġen sure
Ġlead ers
Ġblock stream
Ġallow ing
Ġepis ode
Ġfore cast
Ġdep ending
Ġcon gr
tok en
ore d
Ġun a
oth ing
Ġf it
Ġreason able
Ġcl ue
Ġbo ys
Ġx post
Ġlam bo
Ġst ability
Ġban ning
Ġadvant ages
p et
wa it
Ġcr isis
Ġdump ed
Ġal ive
Ġconf used
Ġemp lo
Ġs and
y o
Ġwr ight
Ġli kes
Ġtell s
Ġco founder
w r
Ġhealth y
Ġguarant e
m en
Ġsign s
Ġgam ble
Ġcrit ic
Ġreal ized
Ġex it
an n
Ġdepos its
Ġscal ability
Ġcens orship
Ġir s
Ġp y
Ġgroup s
Ġchar act
Ġmin ds
tr ad
ad or
Ġapp arently
ac ity
Ġsto res
Ġspe aking
some one
dam n
Ġpartnership s
Ġsa chs
Ġimplement ation
Ġtem por
Ġn ames
os ing
Ġhash rate
Ġenter pr
Ġg erm
Ġand roid
ic i
know n
Ġins ider
Ġpol ice
da q
cong r
Ġbring ing
Ġjo bs
Ġadvert ising
e ur
Ġheav ily
per form
Ġcompet e
li ed
Ġbr other
Ġcan ada
ak ed
Ġst ress
c al
Ġse lect
Ġresp ond
sh ort
Ġcrash ing
Ġt or
Ġpo ly
Ġsurpr ise
Ġconcern s
b ought
Ġe u
Ġdeli ver
Ġnot iced
r r
Ġcirc ulation
Ġtit le
Ġr btc
gr ound
Ġprom ise
Ġpres ale
n c
g on
Ġg b
Ġenc rypt
Ġbuff et
Ġteam s
if ying
Ġbeaut iful
Ġch ief
Ġv ir
Ġant miner
Ġexplan ation
Ġste ady
Ġequ al
v g
Ġenthus i
ab or
Ġcheck ing
bo x
Ġhack er
Ġra ised
Ġr si
cur rent
Ġcons ist
l ies
ip e
Ġbs v
Ġex clus
f air
ch in
Ġat ms
on ce
i vers
Ġexist ence
Ġign or
Ġpow ered
Ġt ag
Ġlegit imate
ok en
Ġdes k
Ġit ll
ard s
Ġcitiz ens
Ġv ul
Ġfocus ed
Ġver ification
Ġbu d
Ġfind ing
Ġmanag ed
Ġauthor ity
for ce
y ch
Ġer a
Ġchallen ge
Ġsun day
Ġb id
b d
Ġbu dd
Ġse ctor
ard ing
Ġhelp ed
p ir
x x
le g
Ġn ons
btc usd
Ġcheck ed
Ġexplain s
Ġun limited
Ġb er
Ġpurch ased
Ġre act
Ġev ol
Ġsh ift
f c
Ġre th
Ġw ife
ag er
Ġunlike ly
Ġsell s
Ġapp ears
Ġthisapp ear
Ġethereum s
Ġhu nt
e xt
Ġsignific antly
Ġincent ive
Ġbrid ge
re w
Ġw it
m t
ans om
Ġsky rocket
Ġprov ided
Ġcrit ical
ial s
Ġcare s
Ġr n
Ġt um
Ġcomp lic
c ons
Ġm it
Ġstren gth
Ġem br
en n
r un
Ġcl ub
k y
Ġpiz za
Ġconcern ed
Ġtyp es
or der
Ġall e
Ġopen ing
Ġbur ned
se ems
Ġf ib
Ġparticip ants
Ġequival ent
Ġbe g
lo g
Ġdet ail
Ġfundament al
m ark
Ġsto red
ili ar
Ġassum ing
idd en
we ek
Ġins urance
Ġl ending
Ġemplo ye
Ġske pt
ld r
Ġgain ing
Ġv ault
lt a
at os
Ġp arent
s ur
Ġser ver
u ine
Ġdrug s
m ake
Ġthous and
Ġg un
t ry
ce l
Ġder iv
Ġlo ans
Ġpr oud
Ġbatt le
act ually
Ġad mit
Ġ ll
Ġoff line
Ġdon ate
Ġstor ies
Ġplan et
Ġcampaign s
Ġte xt
l ie
Ġguarant ee
Ġtr ian
Ġy ield
Ġu m
Ġrevers al
Ġwhen ever
Ġcrimin al
ak kt
Ġad just
ic ious
Ġestabl ished
s ince
Ġpass ed
Ġw o
Ġblo od
Ġfact ors
Ġf resh
Ġr out
Ġtw ice
Ġfl ash
Ġas ide
Ġterr ible
Ġgo x
Ġob ject
Ġas ia
Ġvent ure
olo gy
Ġvul ner
Ġded ic
Ġgir l
Ġpart ies
Ġfuck ed
Ġi ot
ac le
Ġtr ash
h ib
Ġany body
Ġtransp arent
Ġstartup s
Ġmeet up
Ġbit ch
Ġinclud ed
Ġt u
Ġcrimin als
Ġairdrop s
Ġl ines
bre aking
Ġse x
ic ip
or ds
Ġsepar ate
Ġat om
Ġw tc
y i
Ġdanger ous
c ity
Ġpen ny
Ġdefin ition
Ġinit i
il ities
Ġw tf
Ġg ate
Ġend ed
Ġinter act
Ġsh ap
Ġcrip tom
Ġf ans
Ġrest r
Ġoper ations
Ġexec ut
Ġqu arter
Ġgo als
Ġm ca
Ġs i
Ġc f
Ġcre ation
Ġir re
pro b
Ġexp ress
Ġcap acity
th r
Ġsim pl
Ġdr iving
ag on
Ġar ch
om b
Ġsu cks
Ġsus pect
Ġetf s
Ġless on
Ġmat ic
Ġr ansom
Ġelectron ic
Ġprotect ion
at a
Ġt ight
ill y
Ġver ified
Ġval ues
Ġmicr osoft
Ġn ative
Ġslight ly
Ġb its
Ġfail ure
Ġp our
Ġaccur ate
Ġfair ly
Ġcompl ain
j e
Ġon chain
Ġelect r
Ġch air
Ġconv ince
p us
as y
Ġtick et
z en
s om
ye a
k i
Ġst abil
Ġtechn ically
so ld
h ot
Ġopen ed
Ġaccum ulate
Ġfar m
Ġpredict ed
Ġdecre ase
Ġbeh av
ore s
Ġsumm er
Ġte zos
Ġfin ished
Ġstrug g
Ġdon ations
Ġconvers ation
Ġchan ces
Ġd ad
Ġiss ued
Ġwin s
n s
Ġsubs crib
es h
Ġbloom berg
et e
Ġvar i
am ask
um es
ust r
Ġsh ar
Ġsell ers
Ġan no
it ude
Ġl un
Ġc od
Ġt iny
Ġfl at
a ff
Ġshit ty
Ġs ources
Ġsegwit x
ast s
h ash
Ġnecess arily
Ġad ap
Ġs ix
renc y
Ġgreat est
Ġclaim ing
pro f
ne xt
ag ue
Ġgen uine
b ay
ll y
Ġinnov ative
Ġtrou ble
Ġh ence
Ġdump s
Ġsh ared
Ġwide ly
Ġvenezue la
de c
w ant
h u
anc y
Ġrel ations
Ġhund red
se qu
Ġad min
Ġmin or
Ġdem ocr
Ġtur ning
th ose
Ġcreat es
Ġtar gets
Ġbt w
Ġl es
Ġstr ict
Ġlead s
Ġar rest
ar ies
Ġbrok er
Ġfe lt
Ġdat ab
Ġowners hip
Ġconv in
re as
ar m
Ġstandard s
Ġdown side
Ġback ing
Ġi p
Ġdec ade
Ġfl ip
Ġidi ots
l at
Ġbl ind
l k
Ġlos es
Ġfauc et
Ġvi ol
es us
Ġjapan ese
Ġprocess ing
Ġsa fer
Ġrem ove
b m
Ġreg istr
b on
Ġchannel s
g as
h y
b age
in ation
Ġpop ulation
Ġfor ced
Ġsuper ior
Ġt ank
op s
Ġt ough
is ation
Ġps ych
b ol
re ally
Ġshort ing
Ġf li
Ġbtc s
Ġne ither
Ġqu it
Ġpet er
le v
Ġr ace
Ġval ued
Ġconnect ed
z or
Ġdef lation
Ġhelp ful
Ġafric a
prob ably
ut ers
Ġengine er
Ġcommod ity
Ġhead ing
t ar
al d
ic ial
on y
Ġfir ms
Ġad op
Ġindepend ent
Ġc os
Ġup t
ire s
v r
Ġval uation
Ġrepe at
Ġwom en
Ġprom ot
Ġret est
Ġsuccess fully
Ġt ons
r ase
er in
lock s
b ro
Ġgov t
Ġsw ing
Ġj am
Ġcryp tom
Ġt bh
Ġtr ick
Ġm as
h er
Ġstake pool
Ġside ways
Ġpropos al
Ġlo ose
p a
Ġsn ap
Ġtra ff
Ġs weet
id ers
Ġpurp oses
Ġcr ime
Ġtrian gle
Ġtrend ing
Ġmoder n
Ġm other
z er
Ġincred ible
Ġp in
Ġflo or
Ġadv anced
Ġinev itable
Ġgr ad
Ġindic ator
Ġy ap
Ġp as
Ġstakepool com
at o
ad ays
Ġmeet ing
n othing
qu ot
b an
ie l
Ġy o
bu ying
it ors
ic a
Ġsh ip
Ġpurch asing
Ġfam iliar
Ġunc ertain
Ġprom oting
lo ve
Ġadv ise
Ġmechan ism
Ġmet amask
Ġdev ice
Ġmor gan
Ġnarr ative
Ġhigh light
Ġde g
Ġsho ck
Ġexplo re
st ood
Ġgar bage
i kes
Ġs y
Ġm ort
Ġsign ed
Ġexp os
Ġv a
ious ly
Ġcrash ed
Ġpay out
Ġn ation
rep ren
Ġpull back
Ġgrow s
ig er
am az
Ġeur o
Ġpass ive
Ġen able
Ġto ward
Ġcar ry
Ġmon itor
ter y
Ġau to
Ġreach ing
Ġqu ote
Ġprof ile
Ġsell off
Ġconvin ced
Ġmanip ulated
Ġr ush
Ġsome body
t m
Ġand lt
Ġmain ly
orre ct
Ġgold man
Ġcent er
an al
Ġbirth day
Ġcap t
Ġc iv
Ġtre as
Ġbegin ners
Ġcentral ization
Ġstable coin
honest ly
Ġam a
Ġfort une
Ġunder lying
Ġperfect ly
Ġs ens
Ġretr ace
Ġh om
Ġplan ned
Ġproper ly
Ġfollow s
Ġanonym ity
Ġkill er
Ġn av
Ġgain ed
Ġult imate
Ġcomput ing
Ġconsum ption
Ġult imately
Ġmer c
m i
m ak
Ġser ve
Ġquant um
Ġconsum er
st amp
Ġsh own
ed e
Ġtransfer red
Ġi ce
s es
b ot
Ġcon ver
Ġbr ave
Ġb arely
Ġconst ant
h odl
Ġscre w
Ġscam med
Ġbank ers
Ġre kt
ist ics
Ġrespons ible
Ġport ion
ne ed
pers on
Ġcolle ge
wor th
Ġfail s
Ġfe b
Ġi os
Ġgen ius
or g
Ġcrow d
Ġdo or
Ġprin ting
Ġdim on
Ġt ues
Ġsol ved
Ġt i
Ġexpos ure
Ġb cc
Ġf ly
Ġm ir
Ġbet s
Ġvict im
t alk
Ġb orrow
Ġshort term
Ġexplain ing
Ġb ed
Ġi st
Ġest im
Ġref lect
Ġdem on
Ġk ong
Ġintrod uced
Ġside chain
Ġproduct ion
Ġgot ten
tr ue
ok er
Ġbitcoin ers
Ġeurope an
Ġsaf ety
ok ing
ret weet
Ġsh all
at ulations
Ġmanip ulate
Ġhop es
g g
Ġun it
Ġref erence
Ġjour ney
ie x
Ġnons ense
Ġcon gress
Ġintrod uce
Ġr are
Ġaffect ed
gu ys
Ġdes erve
Ġfam ous
Ġcan ad
m itted
Ġcomp aring
Ġcomplic ated
Ġappro ved
Ġguarante ed
Ġout perform
Ġv ast
Ġput s
ic ing
to o
Ġmaxim um
Ġimm ut
Ġassoci ated
Ġeffect ive
Ġent repren
g ive
Ġmca fee
Ġqu al
Ġint ended
Ġhy p
Ġper mission
p y
Ġcash flow
Ġappro val
ap ore
il s
Ġview s
Ġwithdraw als
Ġconnect ion
ut or
Ġpolic ies
Ġansw ers
le ar
Ġnas daq
Ġmult ip
Ġtest ed
Ġb ans
cept ion
is wap
Ġsu p
Ġnatur al
m iss
Ġrough ly
Ġak a
Ġt able
Ġp orn
Ġtest net
Ġbegin s
Ġd l
b ch
c in
az ine
Ġincom ing
le arn
Ġsett le
Ġmag ic
Ġfav our
uc es
s er
Ġfr act
in ter
Ġbudd y
Ġwant ing
Ġown ing
Ġr ank
Ġauthor ities
Ġnewb ies
il it
h r
o v
da ily
Ġdom ain
c urrencies
is ion
Ġz e
in form
Ġcomfort able
Ġph il
Ġover night
Ġnow adays
Ġr ating
Ġsur ges
ab ol
Ġdr ink
Ġind ian
Ġlo go
s l
Ġpolit ic
iv ity
Ġli es
Ġint ention
il ing
Ġrepl aced
i ver
Ġtalk ed
so red
re lated
que e
Ġmethod s
how ever
uck s
om p
Ġenterpr ise
Ġfa ult
Ġpat ent
Ġt ied
Ġn ich
Ġb less
Ġgen esis
Ġfill ed
Ġh idden
Ġt ired
ag reed
or a
v ol
Ġincred ibly
Ġdou bled
Ġs am
Ġf ren
Ġarg uments
Ġterr or
ed ay
tr ans
Ġappro x
Ġfork ed
Ġcharact er
Ġth urs
u fact
bo e
Ġconven ient
Ġcompr om
Ġsupp ose
Ġalle ged
Ġcirc le
Ġrelations hip
Ġsome what
ink lev
en ces
Ġam c
or se
Ġsett lement
Ġaim s
Ġwal k
ce ler
Ġeff orts
Ġwar ren
Ġcar s
y up
is c
up date
Ġaustral ia
Ġtues day
Ġcrypt ot
ater al
f ill
ur ity
Ġsch ed
Ġs ong
eth e
d ude
Ġtr ap
o bs
Ġinclud es
n ah
Ġl in
r ain
en ed
s he
Ġus ual
Ġcirc ulating
Ġbo at
Ġmove ments
ith ub
pow er
Ġstop s
Ġcon clus
m od
d on
c all
Ġp un
Ġrec ords
Ġprov ider
Ġoper ation
end er
h igh
Ġrevolution ary
Ġt ab
Ġthe ft
y al
Ġb other
up s
Ġcontin ued
k et
Ġcal m
Ġsqu are
Ġwin ners
Ġoptim istic
Ġcorpor ate
l ish
Ġdr iven
Ġf at
f all
Ġcon str
Ġprep ared
Ġcom o
Ġjud ge
Ġmist akes
Ġent ering
Ġs illy
Ġart ific
ap ers
Ġshill s
Ġencour age
et ime
Ġreb ound
t d
am ing
Ġx vg
Ġsecure d
Ġtrack ing
Ġdep loy
Ġse ction
ar i
x s
Ġtransp a
Ġmillionaire s
Ġreput ation
dr a
Ġchin as
Ġshop ping
Ġun known
Ġre uters
Ġb ody
u le
Ġcombin ed
d ig
Ġf ing
Ġrestr ict
Ġun p
Ġman ufact
Ġoper ate
de fin
Ġh ide
el on
Ġre ly
Ġsc ience
Ġbs c
Ġup s
Ġn u
Ġpart s
ch o
Ġdeterm ine
Ġmass es
led ger
Ġs quee
Ġsa ved
t ldr
Ġar my
Ġcaus ing
Ġr s
ain ed
Ġconsum ers
Ġqu iet
ou l
Ġcc n
Ġtick ets
Ġskill s
Ġbu st
Ġshit post
g ence
inklev oss
Ġmach ines
Ġunivers ity
Ġs ick
le vant
Ġt ang
Ġant i
p oint
ib locks
Ġcontrib ute
Ġsat ur
Ġtranspa rency
Ġed ge
Ġpl ays
s en
Ġbe gan
Ġin u
Ġsupport ers
Ġgem ini
cl aim
Ġcould nt
Ġx d
Ġact ions
Ġd il
Ġrefer ring
Ġtrading view
Ġmeas ure
Ġcon dit
Ġh olid
Ġel imin
Ġfight ing
id o
Ġvol umes
Ġtre zor
acc ording
Ġide al
Ġwatch ed
Ġact ively
Ġhas nt
Ġch ose
Ġdownt rend
Ġant icip
w in
st he
ren ess
Ġcommer cial
Ġcondit ions
Ġpar abol
Ġfil es
t es
Ġhead s
h mm
ion e
Ġkill ing
Ġwere nt
Ġbook s
Ġglo b
Ġregul ator
Ġthurs day
Ġan g
pe er
Ġvi able
Ġg ithub
Ġh orr
Ġne m
et ic
Ġst ands
Ġwed nes
Ġsal v
Ġt un
Ġto wn
Ġhack ing
Ġoper ating
Ġfeed back
Ġoff ered
Ġhard fork
Ġestabl ish
Ġaccept ance
Ġwit ness
Ġt ul
Ġpe g
Ġu tc
Ġgold en
Ġintegr ation
fin ally
Ġap i
b f
ad ed
Ġpl umm
Ġbut ton
Ġg pus
Ġanalyst s
Ġcond uct
every thing
Ġconsolid ation
Ġac celer
a ur
Ġin put
b ar
Ġd ur
Ġupt rend
Ġo tc
le m
Ġwarn s
l am
p ot
Ġ ou
ee ee
k ad
Ġany ways
Ġevery ones
Ġco ord
Ġiss u
Ġmaximal ist
s ounds
Ġdatab ase
bl ic
Ġtrig ger
ol es
Ġal ph
Ġeffect ively
wor ds
f und
Ġeas iest
h ah
cap e
l n
Ġrece iving
Ġeng lish
Ġmerch ant
m ine
Ġprim ary
Ġpr iced
Ġrapid ly
Ġstrong ly
c er
mor gan
r uss
Ġcriptom oned
Ġw edge
Ġsh ame
Ġprom ises
Ġb oss
pret ty
Ġc u
Ġdep art
Ġpublic ly
Ġfell ow
te ll
Ġdivers ify
Ġacc ident
Ġsp ir
Ġem pt
on iex
Ġd ick
Ġeffect s
Ġv tc
Ġstud ent
Ġent ered
yn am
Ġra ises
Ġo bt
Ġprop ag
Ġchar ges
Ġdedic ated
market s
x ic
Ġclos ing
Ġprinc ip
Ġplay er
Ġmot iv
Ġbel ong
s outh
Ġirre levant
Ġplay ed
Ġprevious ly
Ġtim ing
ic le
Ġthrough out
Ġr ipp
Ġawa reness
Ġnews btc
Ġro i
Ġmov ie
Ġprod uce
Ġmet a
Ġcont ext
s ign
for get
Ġadv oc
Ġl ap
Ġim ag
Ġtraff ic
Ġh ong
Ġi con
o vers
Ġid k
Ġcontrol s
le ading
Ġn amed
Ġpe ace
Ġres ol
Ġbus y
Ġm ich
ĠĠĠĠ Ġ
if i
Ġtrans form
Ġdev ices
Ġt ps
Ġreal istic
Ġhour ly
Ġfore ign
v in
Ġfac ilit
Ġlim its
Ġcomp li
Ġcomm unities
Ġble ed
Ġwednes day
abil ities
Ġi l
Ġm ig
oo o
Ġexp on
Ġth in
Ġb oring
Ġtr ip
Ġne ut
Ġp iss
x o
Ġnewb ie
Ġp al
Ġprotocol s
Ġman ia
cript ion
Ġemploye es
Ġdeal ing
Ġs ets
Ġright s
Ġderiv atives
l ay
Ġwonder ful
stand ing
Ġshould nt
back ed
Ġm ere
Ġste am
c ending
Ġr ip
or ter
c y
Ġo s
Ġcollect ion
c ore
Ġc up
Ġsteem it
Ġh rs
ch ar
Ġw ire
Ġen force
Ġerr or
Ġdi ver
Ġt our
Ġexplo de
Ġst ays
j p
Ġpract ical
Ġye ll
ent ic
Ġk no
Ġcompet itor
Ġbut erin
br and
Ġsom eday
ic it
Ġmast ern
Ġshow ed
Ġreveal ed
Ġg ap
ach ed
Ġit ems
Ġmo ds
Ġpy ram
e ff
Ġcontin u
amp les
Ġmak er
l as
Ġch ill
Ġpoly gon
Ġback ground
m os
Ġsurve y
Ġbu zz
Ġso le
Ġchar lie
l mao
Ġe c
Ġremind er
Ġcorrect ly
m u
o j
Ġinst ance
Ġlet ting
Ġall oc
h ouse
ot t
ok es
Ġent ity
Ġmiss ion
Ġmil est
Ġreve als
Ġpr ime
Ġlaw su
Ġintellig ence
Ġtr ace
Ġlot tery
le ast
iz on
cr ow
Ġs ink
Ġb akkt
Ġcomm it
gr ail
Ġconvert ed
Ġd ynam
Ġdesk top
Ġb ias
Ġinvol ve
Ġph rase
Ġand or
Ġfr action
a ft
Ġh ous
ex change
Ġgr ant
Ġd ust
Ġjump ed
Ġbit pay
Ġnow here
Ġr am
Ġhum ans
aa aa
Ġrele ases
x y
Ġe bay
s im
Ġdemon str
Ġmat er
Ġscam mer
ad ers
Ġstr ange
n ced
Ġact ing
Ġsteal ing
Ġbit stamp
m ic
Ġunder stood
a el
Ġt ap
Ġc ert
Ġun iswap
Ġremain ing
here nt
Ġjam ie
Ġretire ment
Ġret ard
Ġb ol
Ġloc ation
o om
ut ing
Ġdo om
Ġparent s
Ġc uz
Ġsol ana
we lcome
Ġdeflation ary
Ġwho se
Ġwealth y
Ġ ing
b us
com ments
ul ting
h ack
Ġver t
Ġprec ious
Ġdef ault
Ġpull ed
Ġform ing
Ġre verse
Ġc mc
Ġcompet ing
Ġsh ady
Ġsing apore
Ġsym bol
Ġauth entic
Ġcompet itors
Ġinvent ed
Ġdes per
m et
Ġex ceed
Ġun ion
Ġj ail
Ġmort g
Ġexclus ive
ul arly
Ġf aces
Ġand the
Ġcor ner
Ġdr am
kad ot
Ġstor ing
Ġu l
Ġpl ug
Ġas ics
Ġagree ment
Ġcrack down
am i
Ġglob ally
Ġfunction ality
Ġam b
om in
Ġb orn
ag n
Ġs we
m art
Ġh ed
Ġlisten ing
v a
Ġe in
Ġcoll ateral
Ġclaim ed
Ġhead ed
Ġcomplet ed
Ġbelie ved
Ġb ash
ab out
at z
st able
Ġsal ary
Ġsc ient
Ġcapital ization
v y
Ġdevelop ments
Ġtrust less
Ġdream s
Ġfant astic
Ġchar ity
Ġproof of
Ġcap able
sh ot
Ġleg acy
ams ung
em y
Ġb ail
Ġf lex
uct ions
Ġev il
Ġparabol ic
b as
Ġprop osed
Ġbt g
Ġt ask
ark s
Ġsubst ant
Ġcorre lation
Ġsuggest s
Ġstrate g
Ġgener ated
Ġanno ying
Ġjo e
Ġneut ral
Ġve h
Ġschem es
go og
Ġfast est
Ġwest ern
Ġlo ves
Ġg i
ok ay
om en
Ġda i
ens es
Ġra iblocks
Ġjoin s
Ġfound ers
Ġmag azine
Ġmaximal ists
ex pect
Ġether ium
Ġpredic ts
Ġbur ning
im o
Ġreport ing
k ind
Ġfac ing
Ġadvis or
ab a
face book
ip ed
Ġpolit ics
ak s
Ġintr ins
Ġregist ered
Ġi in
Ġfigure d
Ġlic ense
Ġsat is
Ġstay ing
Ġa h
v s
Ġg al
Ġtempor ary
Ġex amples
Ġexecut ive
id ad
br id
Ġusd c
Ġhe ight
Ġent ertain
Ġsw iss
Ġadap t
Ġstud ents
Ġh ilar
Ġmal ware
is nt
g b
Ġr ug
Ġbillionaire s
l an
Ġorgan ization
Ġequ ip
Ġhar m
p ol
Ġpl s
id a
Ġsp ee
v i
Ġsustain able
in fl
to peer
Ġmon op
Ġag ency
Ġfor bes
be en
ag o
Ġem a
Ġm ike
Ġwe ight
Ġbehav ior
ac in
us es
Ġd ying
Ġth s
Ġlam b
Ġj av
Ġpick ed
Ġsurpr ising
Ġeduc ate
Ġbitcoin cash
Ġst yle
anc ing
Ġde als
Ġspee ch
b ur
Ġcoin c
sec urity
Ġnew com
ing e
Ġinflu enc
Ġab c
Ġev olution
oth ers
Ġcoord in
Ġph oto
Ġch ip
f d
Ġm ut
Ġtx s
Ġup ward
Ġle ver
im al
n ope
Ġb iz
Ġpol oniex
Ġameric ans
Ġimpress ive
doge coin
er c
Ġbu ck
Ġtechnolo gical
Ġo bl
p n
Ġg ig
u an
Ġc ate
ound ing
Ġcreat ors
Ġh os
Ġbitcoin talk
Ġa ward
Ġd as
Ġpract ice
Ġfin ds
Ġra ising
l in
Ġacc om
Ġcontr overs
h ard
g lo
Ġbuy er
Ġrequire ments
Ġfre qu
Ġout look
chan nel
atos hi
al ways
Ġn ations
Ġd ies
Ġw ik
Ġs ight
Ġciv il
c rypt
b by
Ġd d
Ġsh a
m ar
qu est
Ġlap top
Ġfar ming
em p
Ġser vers
Ġj im
Ġcat al
Ġlaw y
Ġa ver
Ġball s
Ġd ir
Ġm ars
b anks
Ġprogram ming
Ġb in
et ch
is er
ill iant
Ġfue l
Ġf b
pro of
at ible
th ought
Ġgd ax
l tc
Ġempt y
Ġj esus
app ing
Ġtweet ed
Ġscre en
Ġcon sequ
Ġpr a
Ġpubl ish
Ġflo od
Ġaltern atives
ag ain
li x
Ġinfin ite
f uture
o oth
Ġd yor
Ġpeer topeer
Ġscr ipt
at r
v o
Ġsho ot
Ġs ession
Ġb reat
Ġblocks ize
Ġf ish
c ase
Ġtransfer ring
Ġz er
Ġpyram id
ud es
Ġrel ax
crypto currencies
Ġblock ed
Ġcons pir
Ġs ides
Ġdeg ree
w ar
t est
Ġe ast
Ġme w
Ġstate ments
Ġl uc
oin ted
Ġcoll abor
ad r
Ġthread s
Ġprint ed
Ġd ied
Ġcop ied
Ġthrow ing
Ġcont est
Ġequ ity
Ġat least
Ġreal ise
Ġdr ama
Ġth istr
Ġmult i
ici ency
an ch
h op
enc ies
u it
Ġaccom pl
h ares
Ġsc ary
Ġdirect or
Ġinv ite
Ġc ow
Ġbon ds
Ġreject ed
Ġsal t
c ale
Ġp i
Ġun s
i am
i yor
Ġf ut
Ġas ian
Ġblockchain based
Ġking dom
ore t
friend ly
Ġrecogn ize
k a
Ġp iv
Ġpo cket
Ġj er
ĠĠĠĠ ĠĠĊ
Ġcanad ian
Ġbit grail
no body
Ġfr ustr
Ġe ll
Ġincent ives
Ġform s
Ġb il
Ġwould ve
Ġaccum ulating
st reet
Ġsee king
Ġare as
Ġk inds
Ġcash ing
gen er
Ġsee k
Ġconf using
Ġins p
ne o
Ġc art
Ġw s
Ġt as
ber t
de p
Ġno ob
Ġpart n
i ota
Ġdestroy ed
Ġsatur day
Ġm outh
Ġpolitic ians
sell ing
it zer
Ġg h
Ġint ent
g d
Ġc boe
Ġinit ially
Ġh ang
Ġir on
Ġv end
Ġcap s
Ġachie ved
Ġsaf est
Ġe ase
Ġimp lic
Ġintrins ic
Ġstor m
if ies
Ġmin s
Ġmean while
Ġann ual
Ġclose ly
l ands
Ġdet ect
Ġt an
c ont
Ġpro hib
Ġcaus es
c are
Ġatom ic
Ġpol kadot
Ġenthusi asts
Ġthey ll
Ġpartic ularly
ob i
Ġlab s
j apan
to s
Ġstable coins
Ġsquee ze
em ote
Ġeng age
iz ations
Ġon going
Ġhodl er
Ġemer ging
Ġd ub
Ġd ent
Ġappe al
Ġw inklevoss
Ġaspect s
Ġo ct
com m
Ġr ose
Ġpre v
Ġep ic
Ġcoll aps
Ġpen n
Ġsto pping
Ġenab les
Ġwind ows
Ġseem ed
Ġmic ro
Ġl end
r ich
t ot
trad er
Ġinterest s
Ġb ound
od us
Ġp ark
Ġpr ize
Ġresist ant
Ġframe work
Ġaud it
c f
Ġde x
Ġag reed
il ed
Ġband w
Ġh on
Ġindic ators
and lt
Ġno obs
Ġcorpor ations
Ġc ub
com mer
is co
Ġindust ries
su pp
Ġthiscuss ing
Ġbar r
Ġchallen ges
Ġpossib ilities
n i
Ġstrugg ling
nd a
Ġrum ors
defin itely
ab les
d ash
Ġpure ly
Ġdam age
as p
Ġin herent
Ġdisc uss
bel ie
Ġimport ance
goog le
Ġbelie f
Ġhilar ious
Ġh an
Ġre new
Ġexpect ations
Ġbr it
Ġl um
Ġsumm it
t um
Ġcongr ats
card ano
invest ing
Ġhard ly
Ġconf l
Ġlif etime
Ġdivid ends
we b
ed a
Ġed ition
ag ram
Ġdelet ed
Ġaccess ible
il es
Ġleg end
Ġshut ter
Ġfigure s
rop ri
Ġsatis f
Ġv ib
cl ass
Ġst re
Ġhur ry
Ġsh ake
om g
Ġl ying
Ġass ist
Ġprep are
Ġre action
Ġch ase
Ġbount ies
Ġregistr ation
ĠĠĠĠĠĠĠĠ ĠĠĠĠĠĠĠĠ
Ġdon ation
Ġsp in
ac ak
o ly
Ġup wards
Ġr all
b oth
Ġp ending
Ġs ia
Ġa lex
g reg
hope fully
re h
Ġm ur
Ġregard s
Ġuncertain ty
Ġas ap
i que
Ġreported ly
Ġi bm
Ġjump ing
Ġper man
b ing
Ġth or
Ġbub bles
Ġparticip ating
Ġv otes
Ġreward ed
ar a
Ġscar city
Ġcust ody
at is
Ġincreasing ly
Ġdig it
Ġold er
Ġguess ing
our s
ad s
Ġcons erv
Ġend ing
Ġignor ant
Ġtreas ury
current ly
Ġautom ated
Ġincent iv
Ġthisco vered
Ġl isk
Ġembr ace
Ġpros pect
Ġscre ens
Ġf ul
Ġst aff
Ġl ag
Ġsol ar
Ġh i
Ġsell er
Ġu ber
Ġk n
Ġda vid
Ġjump s
Ġar m
Ġtr ies
Ġarrest ed
Ġdownv oted
Ġab and
Ġso bre
Ġfinanc ially
part y
Ġd ict
Ġleg is
Ġcr o
Ġdec ades
Ġperform ing
b ucks
Ġa y
bet ter
Ġprop ert
Ġpush ed
Ġc pu
a e
Ġrecommend ed
Ġcryptograph y
Ġthiscuss ed
Ġwor ries
Ġcrow ds
Ġsalv ador
Ġfin ish
they re
Ġha ven
hold ing
h ad
Ġcentral ised
Ġdr ag
Ġequip ment
Ġsc ream
Ġn iger
Ġc t
Ġimmut able
Ġb n
a o
congr ats
v ia
Ġvo ice
idd ing
os en
Ġfr ank
pp er
Ġcf tc
Ġchain link
Ġcom b
Ġla zy
tw o
Ġun con
r ated
Ġho le
Ġwal ton
Ġprov iders
Ġpa ul
Ġaf f
Ġye a
Ġarg ent
Ġbuffet t
Ġinter face
Ġg ib
ar ian
ic on
Ġsw aps
Ġl ux
Ġrel ig
Ġt il
Ġcountry s
Ġskept ical
Ġout let
Ġy ah
Ġsp ons
l ow
Ġd un
Ġlawsu it
Ġbit co
Ġnewcom ers
Ġpropert ies
Ġf as
Ġpro ves
ion ally
Ġtend er
Ġconclus ion
air drop
Ġlo op
Ġattract ive
Ġv oted
Ġalph a
Ġbud get
Ġfund ed
Ġdep ress
Ġwhere as
Ġdepart ment
Ġpr ay
Ġappreci ated
o gr
Ġa uction
Ġj u
Ġsm ooth
Ġg ang
re ts
ab solute
ans ion
Ġintegr ated
Ġconfir ms
Ġred uced
Ġd ut
Ġnot es
Ġthisc ord
Ġn uts
ast e
Ġmis leading
Ġsp o
st ers
Ġcrypto p
n cing
Ġgr own
Ġp oker
Ġadopt ers
ho ly
l aw
Ġbr illiant
Ġic x
al y
Ġr amp
tr a
res p
red ict
Ġmill enn
Ġbelie ving
Ġchair man
b illion
Ġcommunic ation
it ions
Ġkill ed
ot os
Ġa ck
re es
Ġt utor
Ġbu gs
ill ions
Ġmem ory
Ġpro ceed
Ġemp loy
Ġshutter stock
Ġstrate gies
Ġmy ster
ire ct
Ġir an
Ġupv otes
Ġn er
Ġed itor
Ġma gn
de lta
Ġcho ices
Ġshill ed
Ġobs ol
Ġmin ister
h el
commer ce
Ġcap it
Ġu g
Ġthe oret
Ġp ione
Ġpull ing
Ġfe ars
Ġfun ctions
f ix
Ġd c
Ġdes erves
Ġout come
Ġsp ect
Ġscal able
Ġr aid
Ġcompl aining
oll ar
Ġchr ome
Ġmassive ly
Ġeconom ist
n ab
Ġsl ump
Ġfor ces
it ect
ck ets
Ġsw ings
retweet ed
Ġm un
Ġem b
Ġconspir acy
Ġo w
b en
Ġch a
ag ile
pro ject
Ġuni verse
Ġtop s
Ġsto le
Ġtrans ition
Ġi phone
Ġext ension
Ġlog ical
Ġst aked
Ġb out
i ot
Ġmin t
Ġkno ck
Ġh ire
Ġsh arding
Ġlet ter
Ġex odus
Ġcand les
Ġthey ve
Ġb b
Ġtop ics
hold ers
go vern
Ġtouch ed
itzer land
st ep
Ġi po
block channel
Ġw at
Ġa st
Ġcross ed
c ar
se g
olo g
Ġtax ed
Ġr ational
Ġg ates
Ġc el
Ġch ips
d ing
Ġcr uc
Ġchar ged
Ġun reg
Ġdef end
Ġev al
Ġun able
Ġhy ped
Ġv c
bus iness
Ġl u
Ġhat ers
Ġupv ote
Ġdelet e
f g
ste llar
Ġapp lied
Ġinst agram
Ġfail ing
Ġimpro ved
h ahah
Ġmath em
Ġcho osing
er ous
Ġbas ics
Ġun e
k en
Ġbull run
ur al
Ġelse where
Ġd ag
b lo
Ġhistor ical
Ġphil ipp
Ġq r
Ġcur ve
ar ios
it ory
Ġw ood
Ġoffering s
Ġp icking
er ved
Ġcr ush
sh ib
Ġgreat ly
aw esome
Ġmilest one
Ġsh ipping
Ġwin ter
Ġprom ised
Ġfool s
Ġadop ting
Ġgerm any
Ġman ner
Ġsa v
Ġthr u
Ġma p
Ġpass es
one ws
g i
person ally
op en
worth y
in fo
Ġch amp
Ġto xic
Ġsub mit
Ġd ive
Ġsuggest ed
on op
alth ough
Ġback up
Ġplumm et
Ġlea ves
Ġintegr ate
sh ip
Ġdescrib ed
ogr atz
h al
wor king
Ġhuman ity
Ġwom an
Ġack now
tr on
Ġuk rain
y te
Ġtr iple
Ġreth ereum
Ġlong s
Ġs ab
h t
Ġh ay
mon ero
Ġwe l
Ġe commerce
Ġobsol ete
mo on
Ġas ks
iv etr
chin ese
q d
v t
Ġi le
Ġlegit im
d ed
Ġte x
Ġsu it
le ction
Ġpoin ting
Ġs ar
Ġdeep er
Ġcash ed
Ġb ip
h an
Ġsafe ly
Ġfall en
Ġsp are
Ġbeg un
m ight
Ġsa ke
Ġcan did
thr ough
or ies
Ġsw ift
Ġdo lar
Ġsh out
p ress
Ġcar bon
fi at
Ġv all
Ġg n
Ġcrip to
Ġacqu ire
mon th
Ġarch itect
d ata
Ġaccum ulation
Ġr ing
thing s
Ġw oke
Ġcraz e
Ġf ather
Ġup set
Ġt f
Ġbt ct
Ġsol ves
nt y
Ġan ge
Ġdeli very
se m
Ġcirc um
bit main
Ġdr ives
b ear
Ġsuff er
Ġhost ing
Ġtop f
Ġrepres ents
Ġb omb
Ġr ival
i ance
g ent
sm art
Ġpres erve
i q
it o
Ġt am
Ġp ic
Ġnorm ally
Ġus b
Ġlarge ly
Ġm and
itt ies
Ġelectr um
Ġc ake
Ġeff iciency
Ġmode ls
m ax
Ġcyc les
Ġartific ial
Ġover take
Ġpr ison
Ġcompan ys
Ġfr o
en omen
Ġsubscrib e
Ġc b
r oll
ivetr aders
Ġy en
Ġsuggest ions
be fore
Ġtopf ivetraders
Ġf old
y ear
and er
Ġche ers
Ġdec ides
Ġg an
Ġg hs
fr ame
Ġhu b
Ġph i
j ack
our se
Ġsnap shot
Ġstrug gle
Ġattempt s
f ast
s atoshi
qu es
Ġinv al
az il
not e
Ġcelebr ate
get ting
h and
ul ent
Ġdo d
Ġac ad
Ġad am
Ġapp lies
Ġfor th
ide l
Ġprogram s
Ġe ip
l ate
Ġripp les
Ġw ars
Ġpromot ion
Ġthis p
Ġp itch
lat est
ir a
Ġst an
Ġv ice
st ar
f erence
Ġcomp reh
Ġconfirm ations
p c
Ġe ating
Ġfeature d
Ġdeterm ined
Ġre brand
Ġir r
Ġdisc ount
h en
Ġpan el
Ġsent ence
Ġb ond
Ġalgorith ms
end a
f inance
Ġtal ent
em ic
Ġwe ed
Ġarg uing
ur a
Ġsc ene
Ġsomet ime
Ġexplo s
Ġspe ll
Ġinvestig ation
Ġmess ages
Ġsign up
Ġp icks
Ġdiver gence
Ġarbitr age
Ġconver ting
Ġres ource
Ġover view
Ġapp ropri
Ġinform ed
Ġcatal yst
Ġco verage
Ġintrod uction
Ġgate way
Ġfr anc
Ġes crow
ash ion
Ġp il
Ġaff ili
Ġopp osed
Ġapproach ing
Ġvers us
Ġrep u
Ġbit ly
add y
Ġun stable
Ġmortg age
s ay
w an
Ġlaugh ing
Ġcheck s
Ġsan ctions
Ġreg ion
Ġcry ing
Ġext ent
and g
imb ab
Ġintern al
m illion
enc ing
Ġthisco ver
Ġdown s
Ġvent ures
ing ly
Ġrem itt
Ġsm ash
Ġmich ael
p an
Ġadmin istr
Ġpret end
Ġho ly
Ġsign ing
ec onom
up er
Ġanaly t
Ġk o
glo bal
Ġimprove ment
Ġres erves
Ġwind ow
bull ish
Ġs r
Ġchar les
Ġr ub
Ġmater ial
Ġbuy sell
Ġcruc ial
Ġent ities
ap ans
Ġbre ach
Ġfl ight
Ġresearch ing
Ġsol ving
Ġdown ward
k n
Ġtr action
Ġrem ote
g od
vid ia
ad vant
Ġreco vered
Ġpropag anda
Ġful fill
cl ud
Ġf c
Ġo g
u ate
p ump
Ġcon gest
Ġsleep ing
Ġcare fully
Ġch ick
ort ion
d c
Ġtr ib
Ġcent ury
bo y
Ġus ern
Ġb inary
Ġso ars
Ġfocus ing
ch a
Ġdecl ining
t le
infl ation
Ġimprove ments
Ġex tern
Ġeth usd
Ġmin es
et imes
al most
Ġfluctu ations
Ġcol or
Ġch osen
does nt
Ġcult ure
n am
Ġem ails
Ġbch usd
Ġdelay ed
it a
Ġfun g
Ġsn l
Ġmac ro
Ġclos es
Ġhas hing
Ġaud ience
Ġso vere
Ġup load
Ġmis under
Ġm ount
Ġtr aining
less ly
Ġm n
Ġco oper
Ġwho ever
Ġre n
Ġsen ate
Ġph ones
Ġliber tar
Ġcontin uing
Ġco vered
Ġco vid
k o
or por
v able
m al
Ġthis play
Ġgerm an
Ġplun ge
Ġtun ed
Ġgenuine ly
Ġv ac
w o
ma jor
Ġminim al
ere nces
Ġa x
Ġlearn earn
dig ital
z ero
Ġout put
Ġbe er
mo ons
Ġtr ial
Ġy k
Ġlo ved
Ġunivers al
t im
Ġroll ing
net work
Ġmod ified
Ġsubs id
Ġsp ikes
Ġab sur
Ġrid ing
Ġdir ty
Ġcons ult
Ġholid ay
Ġce ll
Ġencrypt ion
Ġpr l
Ġencrypt ed
Ġannounce ments
un less
Ġcomp atible
Ġshort ly
Ġsumm ary
Ġexp osed
h am
Ġen j
Ġhack s
ho le
Ġover come
ok ed
Ġp ace
id ents
Ġbelie ver
Ġspecul ators
Ġand reas
in ent
Ġfauc ets
Ġaustral ian
df und
Ġbarr ier
Ġsm ell
Ġsw itzerland
Ġl ad
Ġc aut
Ġpass ion
Ġis land
Ġm m
Ġor acle
Ġfundament ally
Ġmanufact ure
Ġad m
Ġissu ance
Ġs amsung
Ġcriptomoned as
op ular
Ġl unch
pr iv
Ġpr icing
Ġweak ness
Ġmal icious
Ġa z
Ġph enomen
los oph
idel ity
Ġretrace ment
Ġiniti ative
Ġt sh
j s
Ġpar ity
Ġemot ions
b ad
Ġk a
erm an
un fortunately
Ġlo yal
Ġmet al
Ġover valued
vr it
fir med
Ġhe at
Ġconserv ative
Ġrespons ibility
Ġsur r
Ġform ed
Ġp ag
absolute ly
d m
Ġshar p
Ġbenef icial
pl us
Ġpie ces
en ced
Ġse m
Ġsuggest ing
o gy
Ġour selves
Ġtw ins
Ġw ang
s end
Ġsolid ity
tr ib
Ġdepend ent
Ġabsur d
Ġcompet itive
be ing
Ġh mm
Ġref und
Ġno ise
Ġsend s
Ġmonop oly
et c
Ġyear ly
Ġentrepren eur
if orn
p read
Ġd ipped
v ide
or o
Ġorgan izations
hah aha
Ġmac d
f ed
Ġtyp ically
Ġrig s
Ġsuff icient
Ġinc orrect
Ġrev ol
ig ence
Ġterm in
Ġcommer ce
Ġcl own
Ġte en
olo gical
Ġeduc ated
som ething
Ġsee ks
Ġun ve
did nt
Ġglo be
w c
Ġo dd
Ġleg ally
Ġthiscuss ions
d ear
Ġang ry
Ġg ent
Ġdiffere nces
Ġwast ing
Ġfort un
Ġbe ll
Ġz oom
Ġcalc ulate
Ġf lying
Ġbreak down
Ġimplement ing
Ġb io
Ġse ven
Ġvulner able
Ġrest aur
Ġk im
d i
st ay
Ġnum erous
Ġn uc
Ġgir ls
Ġsm arter
Ġfunction al
Ġconf usion
Ġap y
Ġcontroll ing
Ġb order
Ġimmedi ate
Ġregul arly
congr atulations
ser iously
Ġofficial s
Ġransom ware
Ġprep aring
Ġse a
Ġsh r
Ġfli pp
Ġg el
amaz ing
Ġcorrupt ion
Ġst agn
Ġdem o
Ġwh e
Ġhor se
e os
Ġtul ip
Ġag gress
Ġpattern s
Ġgu ard
l ad
Ġab s
ict ed
Ġred uction
co ol
Ġma is
en a
Ġen orm
g iving
Ġphi losoph
Ġwarn ed
Ġfavour ite
and quot
Ġpers ons
Ġrepu blic
ed ly
Ġhead lines
Ġscar ce
w tf
il er
Ġdetail ed
Ġmain ten
Ġh ero
Ġste ad
Ġmeta verse
Ġrecogn ized
id ential
mon y
Ġst ance
Ġsp an
ch art
Ġtax able
Ġref use
Ġk i
Ġnov ogratz
gold man
h it
Ġexper i
Ġexist ed
on sored
n ano
Ġr ain
Ġsil k
op ack
g ar
k u
Ġl ite
Ġroll er
Ġapprox imately
Ġp and
graph ic
tok ens
Ġst ating
z ing
em opack
Ġpet ro
er ated
Ġit em
Ġflaw s
Ġmaster card
Ġimpro ving
emote emopack
Ġmanag ers
Ġnice ly
ra el
ip to
Ġspec ially
Ġphilipp ines
Ġf ashion
ex cept
Ġgo ver
Ġinter medi
Ġcust od
Ġh ood
emp loy
Ġsc an
p ace
Ġen h
Ġj ames
Ġliquid ated
ro om
Ġtest s
Ġple as
ax y
Ġdo ges
Ġlum ens
Ġma il
Ġun its
Ġun lock
Ġre de
Ġinter oper
imbab we
Ġsad ly
Ġinval id
ion es
h ar
Ġextern al
Ġcrypt ow
me an
g ency
Ġim min
Ġfe at
Ġretard ed
Ġn g
w er
Ġv r
Ġcommod ities
Ġpl aced
ad os
red it
Ġbad ly
m em
coin telegraph
bu ild
Ġw ides
Ġq tum
Ġvalid ators
Ġst ages
om ics
ue l
Ġevery time
Ġwas hing
Ġs ant
wa iting
Ġinflation ary
m aking
ist ically
g ory
light ning
Ġk az
Ġfoot ball
Ġdel us
d ated
Ġdou b
Ġcritic ism
Ġt ens
p res
sec ond
Ġfor king
Ġsc are
r um
do g
Ġrich er
Ġment al
Ġswitch ing
Ġun real
ch at
f lix
Ġprior ity
Ġsp ark
Ġbe k
Ġnich e
Ġsl ide
l or
Ġy rs
Ġforum s
fun ny
Ġt empt
Ġveh icle
Ġtr ail
Ġcond ition
Ġsh irt
il st
Ġje ff
Ġlun a
Ġqu adr
h ist
Ġd istrib
en g
Ġmult is
Ġdl vrit
Ġaim ing
Ġmed ical
Ġsett led
Ġshop s
d an
tw itter
Ġprec ise
Ġback s
Ġmeas ures
Ġpl ain
in os
Ġocc as
id th
Ġtroll ing
Ġd ipping
Ġrem inds
Ġtyp ical
let e
Ġbit c
Ġne x
Ġeditor ial
Ġemot ional
Ġyah oo
Ġusern ame
Ġde leg
Ġatt itude
Ġcrow dfund
Ġthisapp ointed
Ġvall ey
Ġhorr ible
y ears
Ġconsist ent
Ġintellig ent
Ġwides pread
Ġag enda
Ġess ential
Ġtas ks
Ġcombin ation
Ġansw ered
ill a
b ears
Ġam d
Ġp apers
d y
Ġscr oll
Ġreview s
we ve
ct ors
ific ations
Ġsole ly
Ġund erest
Ġass ess
Ġb ow
Ġun f
h or
av en
Ġt eth
hh hh
Ġim ho
st ake
Ġtick er
e f
ay a
ul ed
Ġk ad
Ġis h
Ġeur os
Ġanal ogy
Ġmix ed
Ġsa cr
the ir
Ġord inary
Ġmis inform
Ġbroad cast
Ġsp ring
Ġpro ved
Ġm es
Ġconvers ion
Ġignor ance
ether wallet
Ġjust in
Ġhu obi
Ġprotect ed
Ġclimb ing
dep ends
Ġenforce ment
Ġc odes
s how
Ġcompli ance
Ġn ash
la unch
Ġdou bles
Ġrele asing
Ġest imate
b its
Ġestim ated
Ġrecord ed
val ue
Ġstand ing
Ġluc r
Ġupgr ades
rep ort
st h
id k
an os
ed en
Ġstr ives
Ġart ist
r ia
Ġlin ux
Ġrec ession
Ġenjo ying
qu ote
Ġre nd
ur ch
Ġaccount ing
Ġexplo it
f ind
Ġd ia
so on
Ġp ill
Ġsp r
Ġimplic ations
Ġimmin ent
e qu
Ġif tt
Ġk in
Ġs now
Ġident ify
andgt andgt
g m
Ġeven ing
Ġsuggest ion
s k
Ġon board
Ġs ig
Ġcreat ive
Ġtroll s
Ġmet als
Ġbut t
v n
e urs
Ġst ash
Ġdoc uments
Ġrec ru
b ab
Ġre ck
Ġprim arily
t aking
Ġmanag ing
Ġbas ket
Ġes p
Ġa while
bas ically
Ġh ij
Ġcrowds ale
Ġtex as
Ġhur ts
Ġexp ansion
Ġf t
Ġdecre asing
Ġt one
wh el
Ġt act
Ġprod uced
Ġfut ur
Ġo we
Ġintrod ucing
l uck
r x
Ġattempt ing
Ġrecover ing
Ġsand p
Ġfraud ulent
jo hn
Ġrout e
Ġgrad ually
ou nce
tr ump
Ġe k
Ġp ed
as ma
seg wit
ant e
Ġv on
Ġro ot
Ġbl ast
Ġch unk
Ġmanip ulating
Ġappro ve
Ġfil ed
Ġhes it
Ġworth y
Ġex cess
f ly
p to
l ots
Ġlat ter
Ġunreg ulated
Ġexperi encing
ow ing
Ġant onop
Ġqu otes
Ġk idding
Ġbu l
Ġag greg
Ġb read
Ġdel ive
ist a
Ġde fe
Ġh ind
Ġign oring
esh ift
Ġsit u
v p
Ġdo s
ic ago
t i
Ġafric an
b il
Ġt rem
Ġexpand ing
Ġwe ap
Ġact ors
Ġfar ms
Ġprob ability
Ġsmart phone
Ġsubstant ial
Ġmainten ance
Ġminds et
Ġthis advant
Ġment ions
p at
ke x
Ġprofess ion
b or
Ġo lm
Ġdefin ed
Ġunp redict
Ġwall s
Ġc oss
Ġh int
Ġbal ances
Ġpredic ting
Ġcl imate
Ġspir it
Ġdesper ate
Ġw il
Ġexchan ged
r ation
Ġappropri ate
tech n
a ust
Ġspeak s
it ution
Ġlo gin
Ġrad io
Ġfacilit ate
Ġqu i
Ġran king
Ġdelive red
Ġhighlight s
t ether
Ġst ats
ap e
Ġlist s
Ġtarget ing
inde ed
Ġun employ
Ġn erv
ul se
Ġbl ah
Ġengine ering
Ġatt ached
s n
Ġexp enses
Ġrad ar
tr ust
Ġpoint less
Ġadd r
bre ak
p able
Ġcontrovers ial
Ġw ider
Ġenab led
Ġde ar
Ġpass ing
Ġnew ly
Ġenorm ous
Ġlucr ative
Ġall iance
Ġhop ium
Ġcod ing
Ġmention ing
on ents
Ġattack ed
Ġjournal istic
min ers
Ġtrend line
Ġbr anch
ib er
gl ad
y all
Ġcon cent
Ġgu est
Ġdr aper
Ġmil it
Ġh ill
Ġunt r
Ġban g
Ġgraph ics
Ġj un
Ġmoon ing
Ġme l
Ġdomin ant
Ġnot ed
at i
Ġby te
Ġdynam ic
w ish
z ai
Ġcrypt onews
Ġsearch ing
Ġli l
v et
Ġpeg ged
Ġgr id
Ġcal iforn
Ġb atch
Ġmax is
n or
Ġsched ule
ha ving
Ġjust ice
lo se
Ġsh ad
c ount
unt il
Ġpresent ation
Ġele ction
Ġdev al
ce k
Ġtime line
fe el
Ġit ands
on a
Ġx t
ih an
Ġus able
Ġf le
Ġg ath
Ġcryptop ia
Ġcub an
ie ve
Ġsidechain s
w w
Ġsal ty
hel p
Ġimportant ly
Ġk en
Ġequ ally
Ġfre aking
let ter
Ġl ands
Ġne igh
r up
Ġle ague
Ġe h
Ġx bt
Ġthis aster
Ġrecogn ition
y et
Ġa pe
Ġru in
Ġp ir
we i
prof it
Ġether delta
Ġdelus ional
Ġconstr uct
c op
c am
Ġhistor ic
Ġab ides
Ġcomprom ised
Ġsyn c
Ġfas cin
Ġfr ance
m es
Ġconsist ently
w ond
av a
d its
Ġblock folio
Ġd are
ere s
Ġg ut
Ġmat ure
Ġmet ric
Ġstre ets
Ġj ur
Ġwang zai
c as
Ġdel ays
Ġbtc eth
Ġmere ly
Ġignore d
Ġh oney
Ġdef ine
Ġwe igh
Ġcount ing
Ġexchan ging
Ġhu h
Ġrum or
in iz
Ġdownv ote
Ġmem pool
ll e
av in
Ġc ree
Ġaffect s
gu ess
Ġdot com
Ġdef ense
Ġcomp ens
Ġso v
ere n
week ly
Ġvol unt
Ġd n
er ts
Ġbi ased
is ms
m ade
Ġpartn ered
Ġexc use
Ġtutor ial
j an
Ġen s
Ġbr azil
ir o
Ġoff chain
Ġsusp icious
Ġbu mp
ab led
Ġevol ve
p m
Ġn vidia
Ġvari ety
Ġpoint ed
Ġso ar
Ġvictim s
Ġassum ption
c ust
Ġs f
Ġmer ge
de velop
Ġve gas
Ġscr atch
Ġun re
Ġdr iver
Ġscrew ed
Ġover sold
Ġin eff
Ġtweet ing
sec ure
Ġcred ibility
Ġnet flix
Ġfix es
Ġden y
Ġprocess es
Ġh ates
Ġcaut ious
Ġelimin ate
Ġinvest s
Ġc um
Ġ ry
Ġalleged ly
Ġcorpor ation
Ġapproach es
com es
v c
Ġhor izon
j i
go x
Ġe oy
Ġsh its
ain t
Ġunderstand s
str ong
min ed
Ġhand ful
Ġt at
igh ter
Ġan im
Ġanalyt ics
ou los
Ġblock date
ist an
Ġun us
som etimes
Ġcomm itt
Ġreco vers
l aim
alt coins
ag s
Ġjp morgan
Ġstay ed
Ġu i
Ġpar all
Ġz imbabwe
or um
Ġs in
ced ent
Ġvert coin
Ġinstall ed
w al
Ġhij ack
r ade
Ġwh ilst
Ġu ma
Ġse vere
Ġbeaut y
Ġby e
c entral
Ġscen arios
Ġed it
Ġsignature s
Ġhyp oth
Ġc ute
Ġenvironment al
Ġassoci ation
Ġaccompl ish
Ġnuc lear
ep s
vious ly
Ġexperien ces
Ġthis miss
Ġsm h
Ġstar bucks
l ife
Ġp ages
ul ator
alt coin
Ġprincip les
Ġpow ers
Ġprod uc
Ġu pper
Ġarr ived
Ġph ishing
Ġl m
Ġde lta
Ġre in
Ġpresent ed
Ġc oup
Ġgr oc
Ġh in
qu ick
Ġpass words
a wn
Ġmy etherwallet
Ġtax ation
Ġment ality
ac les
Ġconcept s
ce o
Ġt aught
Ġtrem end
Ġp se
Ġf if
Ġmin i
Ġl en
Ġcut ting
d is
f ar
Ġlamb os
Ġc ast
Ġste ve
Ġs ne
Ġeth ers
Ġel ite
Ġinc orpor
Ġdescrib e
r or
Ġretail ers
Ġgre w
Ġexc ite
ap or
Ġd orse
Ġindust r
Ġstabil ize
z o
Ġme ga
nab is
fin anc
Ġvalid ate
Ġdo gs
Ġdes ire
Ġspec ulate
ar tc
Ġlux ury
Ġcheap est
Ġm all
Ġyou n
Ġcongr atulations
Ġbe ware
Ġrepresent ative
Ġbr others
Ġfacebook s
Ġau f
Ġdes cription
ĠĠĠĠ ĠĠĠĊ
Ġcare er
p i
Ġli ft
s le
Ġm art
j am
d ump
per haps
Ġvis ual
nolo gy
Ġvir us
ib yte
tm l
Ġn ic
Ġpublic ity
Ġprinc iple
stop pable
Ġsup reme
m ail
Ġpropos als
ym i
Ġstrong est
Ġsh if
Ġser ves
aust ral
fr ont
Ġy r
Ġmeaning ful
Ġattack ing
al ar
Ġr ou
Ġam bit
Ġimpress ed
Ġshut down
Ġhur d
d em
Ġthreat s
Ġcl one
Ġtempor arily
ce ived
Ġbo ot
z j
Ġv pn
Ġyester days
b nb
Ġc s
out s
Ġpay check
Ġdem ands
Ġreason ing
des pite
Ġrepe ated
Ġnatur ally
Ġde but
Ġinstr uctions
Ġminor ity
bt w
Ġbou nces
Ġprot est
Ġworry ing
ag ger
Ġcrypto k
s ch
ap o
ign ed
Ġinsight s
cl ick
Ġprocess or
Ġsk in
Ġext ended
am an
h ol
Ġtime frame
fix ed
Ġprem ine
Ġstack ing
Ġleaders hip
Ġsp oke
Ġpast e
Ġann ivers
re l
vide o
ab i
Ġlos ers
Ġst ation
Ġw ol
lic ate
Ġshap e
Ġwashing ton
k ins
r ics
Ġsc ore
Ġless ons
Ġsupp orter
Ġlong est
ak er
Ġobject ive
quest ion
Ġrepl acing
ut ors
hu ge
Ġn ick
Ġst one
pr int
ays cale
Ġd ar
ach e
c n
Ġcryptoc ur
Ġp ac
Ġukrain e
Ġunpredict able
Ġthis s
Ġreal time
Ġr ab
Ġfren ch
Ġwait ed
app le
Ġoper ators
im p
un a
g ered
Ġp ig
Ġdep th
Ġpl ant
ĠĠĠĠ ĠĠ
Ġcollect ing
t al
Ġterr itory
Ġdomin ate
h ub
ul s
se y
Ġna ive
ac cept
Ġemer gency
Ġl td
Ġrob ot
Ġwhat so
Ġoper ator
Ġplun ges
Ġrich est
Ġrel ief
g ust
is a
any way
Ġover whel
Ġbt ce
str at
Ġg mt
Ġgrant ed
thought s
Ġn ah
Ġaccident ally
Ġresearch ers
Ġrestrict ions
Ġslow er
Ġmi ami
Ġsm ile
is d
et er
Ġload ed
d ou
e z
Ġtr illions
Ġannivers ary
Ġchan ger
Ġlisten ed
Ġug ly
g ame
Ġgo ds
act ions
ro ad
Ġcont ain
Ġopens ource
ament e
Ġaccept able
r ant
Ġshe et
Ġconsequ ences
re search
Ġantonop oulos
Ġexec ute
Ġmembers hip
Ġch icago
Ġwhats app
k le
Ġp anc
Ġd up
Ġhit btc
Ġeconom ies
Ġopt out
Ġintrod uces
Ġha haha
Ġl ord
ad ig
Ġph otos
Ġstead ily
Ġr ac
Ġsome ones
Ġflipp ening
Ġthank ful
Ġhe ck
Ġr arely
Ġpayout s
Ġh all
Ġnice hash
Ġwhatso ever
Ġmor on
Ġb ay
Ġbitcoin ist
Ġd aha
invest ors
Ġtoken omics
Ġhos p
usd t
Ġny t
Ġme x
ir s
Ġlic ens
Ġjust ify
Ġreject ion
e ach
Ġmore over
Ġentrepren eurs
Ġart ists
Ġmin ist
Ġamong st
Ġhell o
Ġmillenn ials
Ġbrit ish
Ġscam ming
Ġlegal ize
Ġpl asma
Ġcitiz en
ur t
Ġlo ving
Ġsu itable
and m
Ġred ucing
f u
ul a
Ġvalid ation
Ġmin ted
ed y
ex p
Ġd addy
Ġwas h
Ġsen ior
f x
Ġd ice
Ġbr ian
Ġprefer red
Ġp su
Ġbank rupt
Ġstream ing
Ġacc used
Ġun stoppable
Ġcap abilities
Ġt ree
Ġconv ention
Ġpropos ition
Ġun expect
Ġhealth care
ast ically
Ġsk etch
Ġtreat ed
ne cess
Ġlab el
inst all
Ġpract ically
Ġcate gory
Ġcryptograph ic
st al
Ġlever aged
c u
ak ers
Ġel abor
Ġnews letter
om an
Ġch asing
Ġbleed ing
Ġcan cer
ail and
vis ion
Ġsch iff
Ġs or
Ġutil ize
Ġuncon firmed
co ver
l u
Ġpiss ed
ith umb
try ing
e ch
Ġpiv ot
Ġt ack
res hold
ce an
Ġcred its
Ġwork ers
Ġom ise
Ġfro zen
pl an
Ġbe ats
Ġcaliforn ia
ro ger
Ġshap eshift
Ġatt end
f y
Ġlo om
al an
Ġr on
r ad
Ġg ur
Ġflaw ed
Ġprofit ability
c orrect
Ġcomm itted
en sored
Ġpro ving
think ing
ic os
Ġcryptoc om
Ġargent ina
Ġcan cell
ate ful
erm ore
Ġvirt ually
Ġtsh irt
Ġse ized
we l
Ġinfluenc ers
Ġme lt
Ġsub mitted
Ġgal axy
m ind
q q
Ġrall ies
Ġmilit ary
Ġin verse
Ġt ipping
Ġphys ically
Ġv ital
ast y
Ġobt ain
v italik
da o
Ġprec io
Ġmastern odes
or ge
back s
Ġal g
iss ions
Ġrece ives
Ġadvis ors
Ġobl ig
g re
Ġs oul
Ġl ou
Ġg ee
Ġst ars
in ct
Ġwast ed
Ġdepos ited
Ġpict ures
Ġcircum st
Ġof c
Ġw y
Ġblock ing
ed as
ear ly
Ġsitu ations
Ġp es
cr ash
Ġreturn ed
Ġtang le
me et
em ed
Ġn ue
financ ial
Ġsur ging
Ġdisc ord
Ġcorrect ions
Ġind ones
Ġhead line
Ġha m
Ġw is
ler i
Ġspam ming
Ġe en
sh are
Ġact s
Ġcommitt ee
Ġbrief ly
c le
Ġscreens hot
am os
Ġrating s
Ġn yc
Ġq anda
Ġrenew able
v m
est ed
Ġest e
pl at
Ġentertain ment
Ġparticip ation
Ġth reshold
Ġat trib
and forget
Ġinv ention
Ġadvertise ment
ak i
mod erated
Ġfranc isco
Ġhash power
Ġdecl ared
Ġso lo
Ġhous es
bl ack
st ate
Ġl it
ind ia
Ġbe ach
Ġeth s
ow er
Ġth rew
Ġmultis ig
im a
long short
k in
Ġk icking
Ġinfl ated
Ġset andforget
Ġshould ers
iz z
y w
Ġs s
Ġbitcoin i
Ġst im
Ġform at
Ġca ution
Ġmonitor ing
Ġcle ver
Ġexpon entially
Ġor ange
Ġrandom ly
Ġdivid end
Ġh iring
Ġcan nabis
n ame
ich t
Ġun necess
Ġpar adig
Ġinnov ations
Ġbank er
Ġcos mos
sen ior
Ġris en
m ust
so cial
Ġy ang
b od
no on
l iter
qu i
Ġwe ar
Ġcontrib ution
Ġsm artc
Ġhom es
Ġnerv ous
l ant
Ġdorse y
Ġindustr ial
Ġam p
Ġcha os
Ġb old
Ġdr agon
Ġres et
ad ay
Ġfeel ings
Ġalgor and
Ġthr ive
z ens
Ġsu ic
sw ap
Ġnew er
Ġe cho
Ġal s
Ġun moderated
Ġdocument ary
lo gy
Ġath s
ent er
Ġdin ner
Ġbe ast
Ġcrowdfund ing
Ġc ities
Ġsm a
Ġpu zz
uck er
ex ist
Ġfool ish
got ta
Ġrob ust
om i
Ġlawy er
Ġkad ar
Ġmer it
Ġpop ping
Ġcrypto coins
Ġw u
Ġn xt
los s
Ġir a
p here
z t
Ġf idelity
Ġpenn ies
se a
i ar
Ġh ating
Ġtrig gered
pr ot
f w
Ġmo ver
Ġalong side
Ġinstr ument
Ġconven ience
Ġsurr ounding
x lm
c nbc
f ire
r as
you ll
th ermore
ang ers
Ġlibertar ian
Ġtechnolo g
Ġgif emoteemopack
Ġc lock
ob viously
Ġirr ational
Ġprospect s
Ġtrust worthy
Ġno vel
Ġwh om
Ġcontrib uting
Ġtrust ing
n andt
Ġforgot ten
Ġes cape
Ġh ung
Ġb ored
an z
Ġindic ates
s pec
Ġst all
Ġyell ow
Ġexpon ential
Ġgener ating
Ġvers ions
Ġswitch ed
yst er
Ġent ers
Ġfuck in
Ġbou nced
Ġshock ed
Ġk y
as cript
Ġend less
wh os
Ġpath etic
Ġstrateg ic
Ġj okes
Ġe co
watch ing
Ġsl ack
Ġchar ging
Ġround up
Ġcrypto ass
Ġre invest
b and
Ġag encies
l c
Ġoptim ism
Ġl y
pr od
Ġi i
d ollar
Ġmastern ode
Ġmathem at
Ġspecul ating
j k
Ġfree ze
a ves
m ass
Ġa str
Ġme g
Ġinvol ving
Ġcalc ulated
qu are
Ġautom atic
d u
Ġs ate
z n
Ġcount s
Ġdr astically
Ġt s
Ġdram atically
Ġmerc ado
Ġhosp ital
t ub
Ġmak ers
wh atever
Ġsurpass es
Ġv oc
Ġbreak through
Ġk on
oooo oooo
Ġm ans
Ġchick en
Ġcl im
am eric
Ġlegis lation
Ġshitpost ing
Ġcyber security
Ġtw ist
Ġne ck
Ġclar ify
Ġrequest s
Ġgu id
rem ind
j x
to days
Ġmist aken
Ġdil igence
Ġdo ors
on ent
Ġexplore r
Ġconnect ions
Ġbelie vers
Ġd lt
Ġpil ot
Ġexcite ment
Ġdeal ers
Ġthistrib ute
fa o
ic ymi
c p
v an
Ġout s
Ġan c
Ġup hold
Ġj ihan
v ar
Ġl oud
chan ges
Ġis rael
Ġcatch ing
Ġenab ling
list en
il ty
Ġinter pret
Ġquick er
Ġcompr ar
Ġindic ate
Ġinter v
Ġjur isd
Ġj a
Ġshe ep
Ġmultip ly
Ġch am
n as
Ġlo ading
hh h
Ġe ve
Ġhot el
Ġrequire ment
Ġsil icon
Ġimpress ion
Ġcr imes
o op
i ate
Ġnew est
Ġsched uled
Ġal right
Ġcontinu ously
Ġload s
Ġwr ap
ex per
onym ous
Ġn i
um ber
ach ing
Ġv acc
b itt
Ġman ually
Ġm ln
Ġmy th
b ye
Ġent r
Ġsw ear
Ġannoun cing
Ġreal izing
e a
Ġoccur red
Ġdig its
Ġdon ald
Ġacqu is
c re
ot ic
Ġfinanc es
w k
Ġboom ing
Ġfew er
Ġse at
er i
red dits
Ġw ick
Ġs oph
Ġgun s
Ġdifferent ly
Ġexpl oring
reg ard
Ġcandid ate
e u
in tr
Ġs orts
e ither
ig ible
Ġfing er
Ġg a
al ready
Ġprocess ed
ste in
c me
Ġtransp ort
Ġf ab
Ġk k
b ul
re cent
Ġs ou
Ġbtct n
Ġc z
Ġha mm
Ġwhite list
Ġgib i
Ġport fol
Ġr ow
ex c
ro binhood
ph ones
Ġev m
Ġobs erv
Ġsecur ing
Ġg ear
l ib
Ġcover ing
Ġan arch
Ġg avin
Ġk al
Ġadvoc ate
Ġtarget ed
Ġpush es
Ġi q
Ġb ast
liter ally
Ġto ler
Ġfound ed
Ġmom ents
j r
Ġav g
Ġlab or
Ġdo zens
Ġab use
Ġuse case
ane ously
Ġsh el
Ġperman ent
Ġy ok
is se
Ġprom inent
on line
Ġlocal bitcoins
mu ch
Ġparall el
Ġs ist
res ist
Ġcoinc idence
d n
Ġpredict able
s uper
Ġdivers ified
Ġdownv otes
Ġeng land
Ġhost ed
Ġsurpass ed
a ways
Ġmt gox
Ġbe ating
Ġc ad
Ġexcept ion
Ġz u
with out
or ic
Ġteth ers
Ġbroker age
Ġlimit ations
Ġz ec
Ġunc lear
Ġvulner ability
ro g
Ġgr ateful
Ġrel ation
Ġcomp ound
p age
mean while
Ġint end
Ġpar am
Ġt anks
Ġregul ating
Ġsupposed ly
Ġfe et
Ġprotect ing
al ous
Ġext end
ll a
Ġeth btc
s is
inst ead
Ġv ip
Ġiss uing
en er
ro ck
Ġfor cing
Ġh et
Ġremo ving
Ġc bd
Ġbandw idth
Ġout dated
Ġput in
Ġt ier
Ġbrok ers
Ġm cap
Ġco ok
c or
Ġh iding
sto cks
y at
Ġdub ai
m atic
coin desk
call ed
z el
Ġf ancy
Ġpu pp
Ġcrypt on
Ġprofession als
Ġrepl ies
Ġkore as
Ġcryptot ab
Ġsate ll
class ic
Ġvet er
Ġpros per
ir ts
supp ort
e lect
Ġfing ers
ph er
Ġstat istics
Ġanaly ze
Ġpo ison
Ġstud ying
ill e
ers on
Ġd ates
Ġconv inc
ment e
d k
Ġord ered
Ġn ig
Ġag es
w ind
Ġocc urs
Ġw aking
y ester
Ġdes cending
Ġkr ipto
Ġch op
gh old
Ġwal mart
Ġe y
r an
Ġbab ies
ver ty
r ay
iv o
Ġpract ices
Ġmet rics
f b
arr ass
om od
Ġoffic er
Ġacqu ired
Ġsearch es
Ġgi ants
ic les
Ġsur ged
Ġcompar able
Ġdel ist
s ad
Ġpres ents
er ning
Ġlegitim acy
Ġnight m
Ġremitt ance
form er
Ġfascin ating
Ġquant ity
Ġinsp ired
Ġover t
Ġaw ful
Ġbitcoin agile
Ġconsider ation
Ġparadig m
Ġyou tub
Ġcongest ion
Ġstr ike
pow ered
cr imin
Ġdoub ts
x it
Ġt une
Ġpo ckets
Ġtrump s
ed uc
ll ing
Ġsub reddits
Ġs li
Ġlaw mak
ph as
Ġconfl ict
Ġfant asy
d ot
Ġblow ing
Ġj oking
v v
Ġinform ative
Ġapp les
Ġh t
b log
ed s
Ġtoken ized
Ġam l
Ġneed ing
lo sure
future s
Ġniger ia
Ġwithdraw ing
Ġand quot
Ġgr asp
Ġdig ibyte
ig ate
Ġdemocr acy
s ight
any thing
Ġaut onom
Ġpermission less
Ġguid ance
Ġfe as
Ġconsid ers
Ġexec ution
Ġclue less
rup tc
Ġr ot
Ġen emy
Ġexpect s
Ġhous ing
e asy
Ġconsolid ating
Ġtan king
Ġlay ers
Ġinev it
Ġmut ual
amaz on
s ing
Ġgb p
ot y
Ġj ones
Ġfract ional
Ġinteroper ability
Ġpres ence
Ġgo lem
sc am
Ġwh al
az a
Ġcapital ism
Ġt ai
su ch
Ġp ile
om as
Ġaver aging
Ġcas inos
Ġlangu ages
Ġro of
Ġform ation
n on
russ ian
Ġhon or
Ġprom o
Ġgirl friend
ex cellent
Ġyoun ger
Ġk it
Ġv ot
Ġrelig ion
Ġthisc our
Ġw re
Ġpo ised
Ġpione er
Ġstan ley
Ġm ont
Ġin ch
Ġut ter
Ġintegr ity
Ġmeant ime
Ġbonus es
Ġevol ving
ber ry
Ġexp ands
Ġcomment ing
Ġval or
Ġhand ling
Ġemb arrass
Ġdestro ying
Ġpo verty
Ġrem ark
Ġhy brid
Ġreplace ment
Ġpl z
Ġdr unk
al f
pet er
Ġafter noon
er ies
u ous
Ġa id
Ġafford able
Ġd ans
el ess
Ġtheoret ically
Ġf ck
ig ma
al right
r bitcoin
Ġf bi
Ġmon ster
mic r
Ġactiv ated
Ġadv ent
k an
Ġj ul
Ġspend s
Ġshort ed
Ġintell ect
Ġclass es
Ġad ress
Ġbou ncing
Ġrec all
Ġled gers
Ġdut ch
Ġhas sle
az y
Ġcorre lated
Ġur l
b ath
Ġgam ers
Ġdec iding
Ġcontin uation
Ġi ch
Ġpop s
m b
it ation
ap id
Ġun fair
Ġelabor ate
ac on
al ds
Ġd ry
ane ck
Ġi g
Ġres il
Ġenc ount
Ġteach ing
andgt the
Ġmark s
b akkt
Ġunnecess ary
Ġdeal er
Ġconc erning
on to
v enezue
Ġconnect ing
Ġscr ut
Ġfren zy
Ġdecentral isation
Ġup to
Ġrevolution ize
jo y
Ġz en
Ġdeploy ed
cl ude
Ġha v
Ġthor ough
Ġcont ains
n z
Ġgovern or
om er
Ġdiv ide
Ġfam il
Ġappreci ation
Ġbank ruptc
Ġd gb
as ion
Ġsovere ign
g p
Ġso aring
Ġportfol ios
Ġli ved
is i
Ġaggress ive
Ġgl ass
Ġm hs
Ġmaint aining
Ġdivid ed
Ġwise ly
Ġse l
Ġme ets
fe es
chin as
Ġf yi
av or
Ġattack er
Ġint el
Ġhan ging
Ġattract ed
Ġne ars
Ġfeel ess
Ġjav ascript
ck o
app arently
t ax
Ġvalid ator
m w
Ġcontr ary
de v
a j
Ġs iz
Ġfree ly
Ġselect ed
one um
Ġal b
Ġgr ind
Ġfrequ ently
Ġdecl are
russ ia
Ġdr aft
Ġbreat h
f re
Ġo ly
Ġthr own
it ical
Ġtokens ale
Ġfuck s
plat form
Ġt aste
op ay
you ve
Ġy uan
Ġsim ult
au th
Ġwish es
Ġb om
Ġscream ing
Ġwe ather
Ġy olo
Ġfor b
Ġprofess or
dec entralized
Ġan x
would nt
Ġgener ations
Ġsusp ended
Ġn m
bo ys
es to
Ġchr is
Ġal to
Ġt out
Ġblind ly
Ġsh ine
Ġb ite
ib aba
Ġfun dra
iend o
Ġbegin ner
Ġmisinform ation
y en
Ġshar ply
Ġg ather
r is
Ġim ages
Ġmat t
Ġref ere
Ġarr ive
Ġfil ing
Ġclar ity
Ġwal king
h at
con tr
Ġobs ess
augh ter
Ġtang ible
Ġprom pt
Ġscr ip
Ġexclus ively
opt ion
Ġho ok
Ġlegal ized
Ġfinanc ing
al ing
Ġap olog
k l
es y
Ġemploye e
d t
pr ices
m ag
sa fe
Ġconvinc ing
ord ers
tot al
ok ens
Ġbroad er
Ġloc ated
w ing
f ing
Ġsupp ress
Ġresol ved
Ġrock ets
Ġpack age
Ġhe ist
iped ia
Ġenjoy ed
Ġto d
ret ch
Ġtum bl
Ġper ception
Ġend orse
Ġhum ble
Ġw age
Ġbit m
Ġan ch
Ġhyper ledger
Ġorgan ic
Ġarchitect ure
m akes
Ġdo zen
Ġmo od
e ks
los ed
pt ions
fl are
down load
Ġstren g
o le
k ore
Ġbu m
Ġaddress ed
Ġpl ot
Ġaband on
Ġbull et
Ġaccording ly
Ġbankruptc y
Ġj ose
Ġmess aging
Ġfl or
Ġoly mp
em b
Ġcryptok itties
c reat
ve y
d at
anal yst
Ġeg gs
im ents
Ġreg rets
Ġb ithumb
Ġaffili ate
Ġreput able
Ġcan cel
n x
Ġcas per
Ġomise go
Ġpre mined
Ġv in
Ġfeat uring
Ġut xo
Ġgu ides
Ġfour th
Ġinvolve ment
Ġeduc ational
Ġdis rupt
end o
Ġi k
Ġf x
Ġfo x
Ġth ailand
Ġbl ows
Ġwr apped
ag r
Ġbash ing
g ain
wh ales
Ġby pass
Ġn ut
Ġe lement
Ġsm oke
Ġburn s
Ġag ent
Ġcry to
ill er
Ġj unk
sp ace
Ġcert ific
Ġencour aging
Ġthe r
Ġhistor ically
Ġvo or
con f
Ġambit ious
Ġbitcoin er
Ġphilosoph y
pr iced
Ġinvol ves
big gest
Ġny se
st ore
Ġcircumst ances
Ġunexpect ed
Ġpret ending
andgt i
Ġcons ume
cl oud
il arly
id en
Ġd ild
Ġmc don
chain s
Ġluck ily
japan ese
Ġpsych ological
Ġf ad
or rent
Ġit al
Ġco z
Ġfil m
g onna
st on
Ġlen gth
Ġbid en
d ue
iv a
Ġcoin b
Ġsc ales
Ġliquid ate
h av
com put
Ġimplement ations
Ġdownload ed
gener ate
bank ed
un ks
Ġind ias
Ġc apped
ex pl
Ġequ ities
so ft
Ġmad ness
Ġprecise ly
Ġw iped
Ġad mitted
buy sell
Ġgent le
Ġgu ilty
oin ts
Ġprogram mer
bit finex
j esus
Ġflow ing
Ġbehav i
f am
f ocus
fun ction
iy as
Ġtok yo
ath on
Ġhal t
Ġcome back
Ġpsych ology
Ġrespons es
Ġprop ose
Ġbelong s
Ġresearch ed
Ġshad ow
Ġgam bl
Ġth ie
Ġenthusi ast
Ġres ulting
Ġdoom ed
Ġem phas
Ġno one
Ġd al
Ġproofof work
Ġc ab
Ġcom edy
Ġmind ed
pay pal
Ġrec ap
Ġo cean
Ġa ve
Ġbo b
Ġinfin ity
Ġdun no
m d
Ġper pet
m ad
Ġb is
Ġdr ivers
Ġdram atic
billion aire
Ġs z
Ġvis ible
Ġbu nd
Ġpanic king
Ġrep ost
Ġsho oting
Ġprom oted
Ġfree l
Ġh ust
ap r
Ġdecentral ize
Ġst amp
ur ning
Ġrestaur ant
Ġreal world
Ġtremend ous
Ġthat ll
Ġun belie
qu er
Ġconsolid ate
Ġcomm and
Ġform al
Ġsl ot
Ġam end
Ġbr ag
Ġdon andt
um s
Ġsecure ly
Ġp it
al ts
Ġpre ico
Ġarg u
wond er
Ġte l
Ġst icking
Ġas well
it arian
Ġcapit ulation
Ġn ail
Ġf its
Ġstreng then
Ġout right
Ġparticip ated
com ment
Ġconf isc
h edge
Ġas cending
Ġscam my
Ġo kex
ac o
Ġs lo
Ġschool s
b order
Ġover se
Ġcopy right
ak a
Ġneg at
crypto s
ash ed
Ġdogecoin s
Ġalloc ation
Ġf ate
Ġrel ay
Ġlawy ers
Ġnightm are
le vel
Ġp ap
Ġunc le
it z
ill ed
Ġfac ed
Ġperiod s
Ġminist ry
cop y
Ġg ere
Ġbl ank
x p
Ġfi yat
c ode
Ġb ids
y d
Ġcour ses
Ġskept ic
Ġst akes
Ġintr aday
tech nology
Ġpo ke
Ġthisco very
Ġfunction ing
Ġphenomen on
Ġmanip ul
Ġholid ays
Ġlist ings
Ġaug ur
Ġpoor ly
Ġpull s
Ġt ends
l ined
ol a
Ġs its
Ġle ap
Ġze al
ust er
a coin
Ġbt t
Ġrepl ay
fortun ate
Ġquiet ly
h um
Ġcou nc
Ġp omp
Ġblo ody
yester day
Ġthe sis
Ġan on
s pe
enc ia
e es
Ġt in
Ġarbitr ary
Ġmin us
Ġcollabor ation
Ġseem ingly
Ġcharact ers
Ġa o
Ġn ope
Ġmagn itude
Ġsp onsored
Ġvers a
Ġexpl icit
Ġsecond ary
ab tc
Ġinsane ly
se ason
it i
Ġcr iter
Ġcomprom ise
Ġaim ed
h ots
Ġrel ies
Ġjo y
Ġd itch
Ġdraw ing
Ġrecru it
Ġle an
Ġassum ed
Ġcryptocurrency s
Ġprop h
Ġrank ed
Ġdon ated
Ġsuff ering
Ġg im
Ġe up
em a
Ġstrugg les
Ġexpect ation
Ġacquis ition
cr aig
Ġres ume
g f
Ġch ap
Ġacknow ledge
Ġlaugh ed
Ġaffect ing
Ġel ses
Ġdest r
Ġest a
p in
Ġmeaning less
Ġsuic ide
Ġrepe ating
read ing
Ġrich ard
Ġpre ference
Ġloc ations
Ġdecre ases
al a
Ġfin ite
Ġt ed
Ġout r
Ġje alous
c ious
Ġthreat ened
Ġcor p
m l
Ġsum s
p apers
Ġp ess
Ġyear old
Ġrecommend ations
Ġf az
Ġjim my
j u
Ġdecl ined
b ill
i ary
ack s
ind ian
Ġsecret ly
aa a
Ġdiscuss ion
Ġad ult
intr od
re th
Ġclim bs
Ġbu re
Ġpro be
Ġsur face
kk kk
Ġcounter fe
ver ing
Ġansw ering
s ub
ha ust
Ġtr iv
Ġsurv ived
Ġvac ation
Ġco exist
Ġliter al
reas ons
Ġv apor
Ġafter wards
Ġr p
Ġmor al
Ġbr ands
Ġe ight
Ġperform ed
ere nt
Ġblood bath
ur o
g iven
Ġcons ort
Ġrul ing
Ġpin ned
Ġdecl ines
Ġinherent ly
Ġal erts
e h
re c
clud ed
Ġa us
inds ight
Ġco al
Ġj apans
b ets
n ode
Ġpain ful
le ad
Ġcertain ty
Ġjoin t
Ġh ired
Ġx x
Ġhard est
aud i
Ġreward ing
Ġv ill
fore x
ect ed
et t
Ġill icit
every body
Ġcollect ed
th on
Ġknowledge able
Ġread s
Ġtransact ing
Ġir ony
Ġwe aring
on tract
Ġsh t
Ġlo osing
Ġbr os
Ġp atch
Ġhar mony
Ġflag s
Ġc sw
Ġhyp ocr
Ġpro sec
Ġd udes
ab s
y l
brid ge
Ġstupid ity
Ġsetting s
Ġresol ve
Ġcompli ant
Ġtr uck
Ġexp ense
Ġsp ort
Ġassum ptions
Ġgr av
Ġyk se
Ġtouch ing
off s
Ġrede em
Ġoper ates
c ases
Ġsoph istic
off icial
Ġba ghold
o ge
Ġloyal ty
Ġinevit ably
Ġt uring
Ġun ic
Ġcollect ive
Ġst retch
Ġbr ut
Ġcle aring
Ġben ch
Ġn in
Ġf est
Ġto il
Ġon t
Ġice land
Ġvir al
Ġfe m
im ble
Ġcontr ad
in um
q l
Ġp ound
Ġre lying
Ġengine ers
Ġspread s
c d
Ġmal ta
Ġent it
Ġpat ents
Ġn h
Ġb ars
Ġpro ced
Ġdeep ly
an i
ing u
est ic
Ġaddition ally
Ġlos er
ch er
Ġroll ed
is ible
Ġpop ped
ul us
abil ir
Ġproduct ive
Ġdark net
Ġsub sequ
i ers
Ġg ree
Ġthrough put
hack ers
Ġthanks giving
Ġexplos ion
me k
Ġorgan ized
Ġt l
Ġws j
Ġh d
Ġcharacter istics
Ġhypoth et
i ques
a ik
li k
Ġgd p
yor um
Ġmin ting
Ġmotiv ation
Ġartific ially
Ġho bby
Ġgr ade
Ġintent ions
Ġn os
Ġm ant
or ious
Ġanticip ated
Ġfore see
Ġthe ories
Ġwall street
ic y
Ġc ats
Ġinflu ential
Ġun fortunate
Ġbl at
Ġunve ils
ren ch
acc ount
Ġsimult aneously
Ġfool ed
a is
us ers
Ġcontrib utions
Ġoverwhel ming
ist ent
Ġintention ally
and re
s ir
govern ment
Ġethereum based
Ġconf use
Ġbtc news
op ol
Ġhot test
Ġdivers ification
Ġex haust
Ġcut s
r isk
a ving
Ġg eth
Ġcounter party
Ġpost p
Ġemer ge
Ġprod ucing
Ġsketch y
Ġcounc il
Ġcoordin ator
p ull
Ġinflu x
Ġsubscrib ers
n h
z ed
Ġbandw agon
Ġhope ful
bull s
eth is
b ow
Ġsu e
j ar
ot r
Ġfamil ies
Ġthisrupt ive
to ok
Ġj ar
Ġupgr aded
Ġheight s
Ġb bc
Ġc arn
Ġfl air
Ġdin ero
Ġfed s
Ġvi et
Ġp ier
Ġread ers
un c
Ġargu ably
Ġple ased
Ġk h
ess ions
Ġgain ers
Ġro bin
Ġindones ia
b at
ac ci
Ġrec laim
Ġc d
Ġet n
Ġlaun d
et te
act ive
Ġsacr if
claim er
Ġres idents
Ġhome less
Ġp unch
Ġn sa
Ġcheck out
fl ash
bitt rex
Ġrent al
Ġden ied
Ġpost er
Ġless er
Ġiron ic
Ġdi verse
Ġindepend ence
Ġgr af
e b
Ġanal iz
tot ally
p opular
ad as
Ġtrack ed
z k
Ġp uss
Ġtur key
comp lete
Ġconsort ium
n k
m us
Ġen for
we bs
Ġcorrect ed
Ġwar m
Ġhyper inflation
Ġcross border
Ġmeas ured
Ġb ors
Ġdumb ass
Ġclos est
Ġind irect
os h
Ġbur nt
Ġguide lines
Ġbure au
Ġh f
us ive
Ġmyster y
Ġopen ly
Ġag rees
Ġtul ips
Ġcl icking
Ġb nty
Ġim f
resp ons
s il
Ġeup hor
oll o
ik a
cap ital
w y
Ġd or
Ġse lection
Ġop s
Ġcry stal
Ġfeas ible
t l
Ġimp lies
Ġwarn ings
f ield
Ġcap ability
Ġgl itch
Ġsim ilarly
Ġskill ed
Ġdownt urn
Ġun banked
Ġdef ending
Ġfac ility
Ġwis dom
Ġconvention al
Ġf er
Ġexec uted
Ġconsum es
ch en
Ġdeliver ing
Ġlo vers
Ġda v
Ġboth ered
Ġsc ope
Ġfil ter
Ġc to
Ġpr ince
Ġcapt ure
Ġth x
Ġdemand ing
Ġmed ic
Ġbow l
Ġce os
Ġce ase
an ger
n one
Ġdead line
Ġvo y
Ġcourt esy
Ġprem ier
see ing
any body
f yi
t ag
Ġrev is
d ro
Ġg ems
Ġte a
Ġutil izing
en joy
et oken
Ġho ard
Ġadvis ory
Ġcor resp
Ġpse ud
Ġi z
f j
Ġbuild s
f ake
Ġroll s
ant ic
Ġcur ios
Ġthis like
invest ment
Ġunderest imate
Ġb ath
app er
Ġfung ible
ve chain
Ġmax i
ad el
Ġext ensive
er os
Ġcollect ible
Ġmark ed
Ġfrustr ating
Ġche at
re te
Ġinv ited
Ġinf er
ak h
Ġcalc ulations
Ġmil k
mm m
aire d
Ġge ld
Ġeconom ists
et ary
Ġgr ayscale
Ġpleas ure
o x
Ġfl ows
Ġmex ico
ym arket
Ġhouse hold
Ġhe x
Ġrecommend ation
Ġp ink
Ġcy pher
Ġsmartc ontract
Ġpart ially
Ġskyrocket ing
Ġj on
Ġsex y
Ġcate gor
q r
Ġcollaps es
Ġthem e
Ġbits hares
Ġo t
Ġs our
Ġbeh alf
Ġkick ed
Ġel ons
ou nced
Ġcost ly
c redit
Ġfluctu ate
Ġwik ipedia
st ack
inge cko
Ġke en
ax x
nor th
Ġavoid ing
Ġin ception
Ġtrack er
Ġhar sh
lar gest
Ġcommunic ate
Ġke lly
Ġha ul
Ġxr apid
Ġfar mers
Ġse p
ifi able
ĠĠĠĠ ĠĠĠ
Ġh s
ic ate
est yle
Ġreal istically
Ġfre ak
v ote
Ġass hole
Ġcriter ia
Ġcount less
Ġav o
Ġdecre ased
Ġexpress ed
Ġit i
Ġhand led
Ġres ort
im port
Ġbottom ed
Ġexchan ger
Ġv ary
or ld
f p
Ġlands cape
Ġha ir
l ich
Ġs ich
Ġprevent ing
Ġbre xit
te am
Ġins an
Ġinvestig ate
Ġr bi
are r
id ering
um ing
ill ance
ri ers
xr b
Ġconvers ations
Ġaband oned
Ġacknow led
Ġhand ed
Ġstrict ly
Ġp ants
Ġd j
by te
Ġsubs cription
Ġmaxim ize
Ġcle ared
Ġc nn
Ġex erc
Ġcontr ast
Ġeng aged
Ġr aw
Ġe ager
Ġpe eps
f h
Ġalert trade
Ġinc ident
Ġs inc
co aster
Ġguarante es
Ġgh ost
pu blic
Ġalb um
Ġmor ons
Ġhur ting
Ġextra ord
l r
Ġaccum ulated
Ġimmut ability
priv ate
Ġdec ou
Ġmil es
Ġp ip
Ġsp oken
re f
Ġfur thermore
Ġs ister
Ġgener ous
b n
as i
Ġal ibaba
ol ar
Ġen light
Ġa ave
Ġequ als
z r
vert ed
en ger
Ġin ject
Ġv id
Ġcompreh ensive
Ġso called
Ġhunt ers
Ġmaximal ism
cr unch
Ġautonom ous
Ġinfo graphic
Ġshut ting
reg ister
y r
Ġremain ed
Ġpair ing
Ġacc us
c oll
Ġcancell ed
Ġsub mission
Ġport al
Ġdou bling
Ġback wards
ation ally
Ġdlvrit qd
Ġke iser
Ġdig est
Ġairdrop ping
e ared
Ġl s
Ġtum bles
Ġrefer red
Ġmicr opay
graph y
Ġh oll
Ġtumbl r
u be
i w
vol ume
mo ving
Ġenterpr ises
sh i
on acci
Ġmoons hot
Ġden ial
Ġw ifi
Ġb ah
Ġinterview s
Ġcapital ist
Ġbitcoin news
u ge
Ġnarr ow
Ġwhe el
Ġbl own
Ġz ucker
Ġsc and
Ġcryptom arket
Ġco ck
Ġpuzz le
Ġbtc p
Ġan imal
Ġk rypt
b ir
z d
Ġgr am
Ġflor ida
e en
Ġw ary
Ġse ctors
Ġv ague
st his
Ġproofof stake
Ġatt or
m ath
mo b
Ġp iyas
Ġsatisf ied
Ġus ability
Ġsett les
Ġdr awn
Ġrec ip
Ġadjust ment
Ġtheir s
Ġterror ist
Ġpun ish
Ġx apo
anal ysis
Ġenh ance
Ġmcdon alds
techn ical
Ġh indsight
Ġether um
Ġbu lk
iq a
Ġa wards
Ġn ine
Ġspons or
Ġlove ly
Ġrab bit
Ġcons ulting
tr ack
Ġro bert
Ġpropos es
Ġpriv ile
j un
Ġr f
Ġident ified
Ġshe ll
Ġaud ited
Ġapp arent
uts che
Ġsophistic ated
Ġd imin
Ġle ar
it ute
Ġgraph s
Ġside lines
z m
ot i
Ġwhere ver
Ġv p
Ġar ab
Ġd pos
Ġwish ing
Ġev ident
m its
q s
Ġdevelop s
Ġdes p
Ġmo ck
Ġold est
Ġmun do
ag ers
k er
ik ed
Ġimm ense
Ġfill ing
Ġsp here
Ġcash app
Ġpy thon
Ġco ing
Ġsmart est
Ġb orders
Ġet ern
Ġul tra
Ġremote ly
Ġt ent
d iff
em on
Ġdd os
Ġall in
ib les
Ġk ay
Ġse ize
ar ound
Ġj r
Ġlibr ary
kins on
Ġz aman
Ġadministr ation
ing er
Ġwre ck
u pp
c ost
ig e
Ġstock market
Ġp t
Ġreth istrib
Ġineff icient
Ġw et
Ġlet ters
the less
inde x
Ġspeed s
Ġmir ror
Ġp b
Ġanonymous ly
g am
Ġse am
do ing
Ġr aven
pr om
Ġsurv ival
Ġt ie
ens ions
Ġaw s
Ġgive aways
Ġtoil et
Ġsil ent
olo gies
h ire
al ert
l arn
Ġha re
Ġfluct uation
Ġred uces
Ġobs c
Ġsurve illance
Ġexpert ise
Ġf lock
Ġd um
Ġj ay
Ġru ined
Ġj et
Ġto y
Ġsu ed
aw are
cont in
Ġins ert
Ġdod ge
Ġdepress ion
Ġal ign
Ġsav vy
Ġfrank ly
Ġso c
Ġliquid ation
Ġcomplain ts
Ġu as
Ġindic ation
Ġswe ep
Ġnot able
Ġar ms
Ġne aring
tc om
f ury
start ing
Ġcor n
Ġt p
Ġcash less
Ġmat r
for ward
ex changes
Ġk at
ab o
Ġcontrib uted
Ġdiam onds
Ġemot ion
r ian
m ove
comm unity
en o
Ġdom estic
Ġmov ies
dra wn
Ġk od
Ġl ady
Ġha c
ij u
th ree
h our
Ġab str
z as
Ġlad ies
Ġp ak
Ġcelebr ating
Ġpet ition
Ġassoci ate
Ġex cel
Ġp ax
Ġven mo
t v
m ans
Ġp ension
Ġpain ting
Ġg ym
Ġent re
Ġout standing
be it
Ġcomb at
lo c
Ġste ep
Ġspecial ist
ick ed
Ġproceed s
Ġhin ts
Ġrespond ed
Ġacceler ate
re view
ig o
Ġnich t
Ġreck on
own ed
Ġper ceived
Ġk ur
Ġsp y
Ġlegend ary
Ġcount y
Ġliber ty
act ed
Ġshit ting
opt ions
Ġli king
Ġtempt ed
Ġh us
Ġraid en
Ġrep lied
Ġfix ing
Ġviet nam
Ġb od
Ġoverse as
Ġmechan isms
Ġover stock
Ġv aneck
Ġcomplex ity
Ġauthentic ation
i ry
j et
wh ite
Ġcel si
Ġsant a
Ġyoutub ers
m ult
Ġroller coaster
Ġd ial
Ġjav a
v d
Ġestablish ment
Ġcop ies
um n
s ays
Ġi re
Ġp ose
Ġstr at
Ġestim ates
Ġiftt t
Ġscrut iny
Ġcontinu ous
Ġproof s
e er
Ġc p
gre en
de f
Ġstr atis
oin ting
Ġcelsi us
Ġchallen ging
m ont
Ġgener ator
Ġy ak
Ġlawmak ers
Ġy atr
Ġn om
Ġkid na
Ġbehavi our
Ġgr oss
Ġhow to
Ġspread she
Ġconsens ys
Ġworth while
Ġbless ing
Ġtum ble
r id
Ġr iv
l est
rr rr
Ġdep reci
Ġmer kle
Ġcoin check
um er
wh ether
e vent
Ġdemocr atic
Ġper o
c ryp
he alth
Ġlinked in
fe ed
Ġgener ates
prod uct
Ġd ance
Ġintr ig
ung en
Ġshutterstock the
b cash
tom orrow
Ġste alth
keep ing
Ġser ving
Ġprocess ors
sim ple
Ġprop ort
Ġobs erve
Ġst um
h m
fo x
Ġdrink ing
Ġthreat ens
Ġanno y
d b
Ġintegr ating
cons idering
Ġbr ad
Ġt b
Ġu st
Ġreal ised
am l
Ġner ds
Ġbe an
Ġspeak er
Ġterror ists
Ġent ries
Ġident ical
Ġha st
b ble
Ġn ok
Ġcrit ics
h ill
Ġenj in
er ving
Ġthiscount s
Ġbar ry
Ġto do
Ġdel iber
Ġble w
Ġfib onacci
bod ys
x change
Ġsp ins
Ġperman ently
Ġthreat en
Ġan s
Ġno coin
Ġgames top
Ġheav en
Ġl p
Ġres c
Ġtrack s
Ġpoll s
Ġin no
Ġcross es
j j
Ġthis gust
t x
Ġcomp ell
Ġsuff ered
Ġold u
Ġabs or
t re
Ġflex ible
g al
Ġw ipe
ll er
Ġc m
wr ong
Ġconf ig
Ġr in
Ġdig ging
w arn
he ard
Ġpositive ly
Ġl ur
Ġdown fall
Ġt ail
Ġwol f
chan ging
Ġcar ried
Ġg wei
Ġpl ate
Ġgre y
Ġser ved
Ġs no
Ġtake over
Ġunbelie vable
Ġtank ed
Ġhung ry
Ġmanufacture r
Ġspot light
list ed
Ġuntr ace
iju ana
Ġx mas
ient o
Ġany ones
Ġstrateg ist
oc am
Ġgraph ic
ach t
Ġins iders
ee k
Ġneg l
iz er
pl ed
Ġaud io
Ġstagn ant
ymarket comments
Ġcorrect ing
Ġcoordin ated
Ġar d
Ġthis abled
Ġpatient ly
Ġsatell ite
Ġbo g
Ġdescrib ing
Ġcart el
Ġh ated
Ġg c
Ġair port
sm all
Ġdom ains
Ġreb ounds
Ġpanc akes
i ety
Ġanal ys
Ġmult im
yc le
Ġlog istics
Ġlear nt
Ġmay or
Ġson ra
i ert
Ġme at
Ġstud ies
Ġmis con
ash ing
Ġcomp ares
g if
Ġdistrib uted
yy yy
Ġover bought
Ġcalc ulator
Ġerr ors
ak t
t urn
per fect
Ġcalc ulation
Ġt ut
z s
kr aken
Ġacad emic
Ġr ant
Ġelectr oneum
c orre
Ġre ap
Ġlegit imately
recent ly
Ġconduct ed
Ġend ors
Ġvend ors
ch ild
Ġcomb ine
bo ost
u bs
es pecially
for ks
Ġas h
re ward
p es
Ġdon ating
Ġrespect ive
u y
Ġview ed
att le
Ġinflu enced
Ġcontrib utors
ar on
j ud
Ġsl ides
Ġcham ber
Ġintellect ual
Ġro yal
Ġtrad em
Ġwhere s
Ġinvent or
Ġne at
Ġgo dd
shib a
Ġob st
Ġthisapp eared
Ġnet working
Ġupv oted
Ġll c
Ġins pir
Ġe f
Ġprot oty
Ġkind ly
ok s
Ġqual ified
b ound
act ual
ah h
Ġver d
Ġover ly
Ġs ys
Ġf d
ch r
pre cedent
Ġco vers
Ġdl ares
Ġws b
Ġqu o
Ġbr own
Ġreferral s
Ġamb crypto
bes ides
Ġtheoret ical
blo om
r cryptocurrency
alan che
Ġbitcoin bitcoin
Ġch er
ill iqa
Ġch uck
Ġco ingecko
Ġden omin
pay ments
Ġpar ano
Ġsm s
Ġun com
Ġbl aming
z h
Ġinvestig ating
Ġfract ions
w d
Ġho ge
Ġseed s
Ġcommunic ations
Ġethers can
hmm m
get r
Ġseg ment
Ġcurios ity
Ġn an
Ġpr izes
itution al
Ġsh or
c ol
Ġconsum ing
Ġpeak ed
Ġgif ts
Ġcomp ly
Ġaltern ate
Ġsec rets
Ġche ese
Ġfact om
follow ing
Ġterror ism
Ġc ous
Ġexp ose
Ġsay lor
bo om
we ight
Ġprogram m
s aw
block s
uc cess
Ġt d
Ġth omas
Ġan th
Ġsc oop
Ġmag ical
n odes
Ġcan ce
ee e
Ġbrut al
Ġblockchain info
war ren
Ġin her
Ġearn s
Ġmarket watch
hav ent
Ġhapp ily
Ġroll ups
Ġd ual
Ġn ether
cl ub
Ġimp at
Ġnegat ivity
Ġinstr uments
Ġill ustr
Ġdin os
Ġcryptoass ets
Ġscen es
Ġfluctu ating
Ġd aughter
ord an
lar ak
Ġt ide
Ġtrans l
Ġimp lo
Ġo z
Ġho lo
Ġla id
p ath
Ġfli pping
Ġtact ics
Ġge orge
Ġange les
Ġb ern
le ments
at able
Ġunic orn
Ġvenezue lan
Ġdescrib es
an th
st ud
Ġsh es
Ġste el
r ick
Ġhapp iness
Ġwo z
Ġam m
ii ii
Ġpar is
Ġlack ing
l ot
Ġwatch dog
erv ice
ag ues
Ġamaz ed
Ġx em
Ġcre w
Ġsm oking
Ġsh ed
cr azy
Ġtit an
Ġt m
Ġscient ific
Ġmyster ious
Ġcorresp ond
j apans
Ġt we
Ġimp r
Ġweap on
Ġplumm ets
so f
Ġfr uit
Ġp ulse
Ġbtc c
Ġcryptow orld
Ġthie ves
Ġwild ly
Ġmanufact uring
precedent ed
uu uu
a fe
add ress
Ġp ics
Ġover sight
Ġwith drawn
Ġrespond ing
Ġbar riers
Ġcl oth
t bh
Ġpe ers
Ġsia coin
Ġal ter
Ġactiv ate
Ġdiv ision
Ġmatr ix
Ġpur s
Ġor ph
Ġreal m
Ġuntrace able
Ġoper ational
f ud
Ġi o
m aster
c b
it ting
Ġt ies
j t
ative ly
Ġattempt ed
Ġkn ife
Ġsacrif ice
Ġh ike
Ġoff set
Ġo larak
Ġpubl ishing
Ġpr on
Ġele ments
ide as
Ġn ap
Ġadm its
Ġunder way
b one
Ġw id
p b
Ġy ay
Ġuse cases
Ġminim ize
Ġoff sh
s ource
Ġrequ iring
itt ers
w ed
pay ment
Ġcriptom o
Ġoutr age
Ġk an
Ġsp iked
Ġr ick
Ġgath ering
Ġdo pe
Ġintr o
ur ies
Ġresult ed
ke l
Ġarg ued
Ġtrans lation
Ġscient ist
Ġsil ence
Ġr om
ain e
trad ers
Ġlack s
Ġsens ible
Ġdest ination
Ġke vin
Ġf ired
Ġvir gin
Ġconf erences
Ġwhal ess
Ġsk ip
claim ed
Ġc est
Ġmal ays
p ossible
min i
Ġp nd
Ġupd ating
Ġfr au
Ġpar li
Ġur ge
Ġc ensored
Ġret weets
Ġsimpl er
Ġter ra
Ġeng aging
re ce
Ġqu oted
ias m
Ġr anks
pl aces
Ġb art
Ġsw apping
Ġcoin st
w est
Ġir respons
ke ys
Ġcat astr
eth eless
Ġcam era
Ġsubst ance
Ġshif ting
Ġave c
da i
Ġcred ible
Ġdeb ts
av ed
Ġwe bin
Ġfor d
Ġhost ile
k h
k ar
Ġcens or
Ġconf idential
Ġret ain
Ġse qu
Ġrest ore
s quare
Ġunemploy ment
ard e
micr osoft
Ġtreas ure
Ġhos kinson
Ġk ne
r od
Ġcent re
ath an
end e
Ġfem ale
Ġentit led
Ġfl our
Ġincom pet
Ġch urch
ir an
Ġk icks
nas daq
Ġalto gether
Ġact or
Ġer go
Ġun precedented
Ġass ure
Ġess ence
f ur
Ġg btc
Ġrel ate
Ġpeak s
Ġg oin
Ġk rypto
Ġan ts
Ġden ies
Ġpassion ate
ob ot
Ġflo at
n ie
Ġsto ch
Ġcarry ing
Ġprev ail
Ġobl iv
Ġrepresent atives
jp morgan
Ġsec s
Ġide ology
clud ing
Ġb ird
Ġimp ly
Ġhor iz
Ġlm fao
Ġmore the
Ġadd iction
Ġelect ions
Ġmisunder standing
Ġstr ing
Ġcustod ial
Ġex agger
Ġdca ing
Ġwr iter
Ġran ging
Ġinf ancy
sw iss
Ġattract s
Ġmaintain ed
l end
Ġfe ver
Ġbr ig
Ġavail ability
Ġcross chain
Ġr oth
un es
Ġtw itch
Ġprev ents
Ġvapor ware
ib it
Ġdirect ed
q x
Ġe li
Ġembr acing
Ġh ip
Ġneigh bor
Ġopen sea
Ġlicens ed
Ġcoinb ases
Ġbitcoinist com
bot tom
Ġsinc ere
Ġu d
Ġn ie
all ow
i ation
Ġd irt
Ġtr icks
Ġregist ering
Ġflo ating
d isc
Ġcrush ed
y out
Ġal m
Ġachie ving
acc ur
Ġhust le
Ġdev am
hold er
Ġinv o
med ia
Ġunp opular
qu ant
Ġdec red
Ġreb ate
Ġextraord inary
izon a
y ah
Ġsho es
Ġrepresent ing
Ġdo ctor
Ġho arding
Ġadv ances
Ġhurd le
art icle
Ġderiv ative
Ġzucker berg
er ation
ic ts
Ġen igma
Ġte ars
Ġdream ing
Ġoh io
Ġc ream
Ġsens itive
Ġregistr ations
j h
Ġw en
Ġy er
Ġam ate
Ġsustain ed
Ġcooper ation
z x
Ġun sure
Ġmast ers
Ġins ured
Ġbeg ging
ind a
Ġend e
Ġslow ing
Ġdefe at
Ġsp aces
Ġex empt
q h
ib r
Ġhunt ing
Ġcomment ed
Ġl ect
fuck ing
th ish
Ġce iling
mor ning
Ġcommit ment
Ġor acles
Ġal i
Ġrestrict ed
Ġfrustr ated
Ġital ian
k d
Ġet oro
Ġre buy
Ġvict ory
Ġshort age
Ġlink ing
Ġadop ter
ro ckets
Ġadv ised
b iz
Ġobsess ed
im i
Ġover l
d uring
m ma
Ġa ion
g ie
Ġcomm only
Ġout lets
Ġem oj
Ġkill s
g x
Ġremo ves
Ġl an
ll ed
ad v
Ġk le
Ġeval uate
Ġcl ip
auth or
Ġwr ites
Ġxrp usd
n ite
ent e
Ġte c
li est
Ġspeak ers
Ġfield s
o ot
Ġth iel
Ġcand y
Ġmig rate
ter a
Ġengage ment
Ġapplic able
Ġlif es
Ġeduc ating
Ġbr ib
d ca
Ġbe p
Ġbitt orrent
Ġpancakes wap
Ġdocument ation
Ġco c
ad option
ict ions
Ġveh icles
interest ed
Ġtr i
Ġhy dro
ul es
et ers
vis it
un ning
aza ar
Ġfound ations
Ġv ig
Ġinter action
Ġbes ide
Ġexchan getr
Ġsne ak
o en
Ġyo bit
res pect
ard a
v l
inform ed
k x
p ie
Ġc mon
lo red
Ġlight ing
Ġlegis l
Ġm ale
br a
ene ver
Ġph r
Ġg er
Ġsuc ces
Ġeth os
Ġmar ijuana
Ġall eg
Ġes cal
Ġshare holders
o z
Ġenthus iasm
Ġcypher p
ab y
Ġbe e
Ġridiculous ly
Ġtele vision
k ish
Ġis lam
Ġal beit
Ġa ld
Ġappeal ing
Ġnot ion
Ġes to
Ġy az
Ġhash es
Ġactiv ation
Ġimp er
ast os
bab y
Ġthisadvant ages
Ġhare ket
Ġd bc
Ġn ull
Ġins ist
agr aph
Ġt ipped
Ġbrid ges
Ġwar rant
und ant
Ġfundra ising
i king
block stream
ni ak
Ġgrand ma
Ġr up
Ġg all
Ġsh orter
Ġconfir ming
Ġs audi
Ġm um
Ġl fg
Ġforget ting
trans action
is y
Ġry an
ir l
Ġsubsid iary
Ġplan e
Ġself ish
Ġret urning
Ġcas ual
Ġunreal istic
Ġl ame
Ġnether lands
n is
Ġparli ament
Ġbur den
Ġanal og
Ġext ends
Ġhome work
Ġbench mark
Ġbitco ing
Ġche er
Ġman ages
Ġapp lying
Ġtrans late
Ġjurisd iction
Ġsyn th
Ġcr inge
Ġoff ices
ud os
Ġequ ation
soft ware
webs ite
Ġr us
Ġtem pl
Ġzer os
Ġtreat ing
Ġmathemat ical
mob ile
z w
Ġcomput ation
Ġrep os
Ġem bed
ene ws
ny a
Ġindic ated
Ġsuff ers
Ġint ens
Ġconc rete
Ġins ult
Ġref used
Ġn fl
Ġmar c
st aking
a an
Ġfac ilities
j d
Ġefficient ly
eur ope
Ġr asp
load ed
Ġwond ered
Ġho vering
Ġk iss
Ġd b
Ġpartn ering
Ġlat in
b urn
am n
Ġeconom ically
Ġbut ter
Ġli vest
Ġin box
Ġmem or
Ġfre etoken
z es
Ġavo ided
Ġbal anced
Ġindepend ently
tele gram
Ġbit ter
Ġlim iting
Ġconv iction
ill ing
Ġcryptom onna
Ġinstit ute
Ġn asty
Ġar c
import ant
Ġdifficult ies
c en
s af
Ġover priced
Ġcelebr ity
Ġvoy ager
Ġsp ac
ug s
Ġnegative ly
Ġol acak
Ġamid st
Ġfung ibility
Ġlif estyle
Ġbu cket
Ġaver ages
Ġveter an
Ġb ts
Ġdes ired
Ġvalu ations
Ġweap ons
li quid
Ġassess ment
Ġlock ing
Ġrob bed
Ġteach er
Ġprem ise
Ġs bi
Ġcrypto coin
Ġyen i
Ġsplit ting
govern ments
Ġfear ful
o coin
Ġd ime
Ġhowto buy
Ġcl amp
u pt
Ġacqu ires
u a
Ġfollow er
r c
Ġfrequ ent
Ġro y
Ġu h
Ġun ite
Ġfl u
Ġmur der
Ġra i
emb ered
Ġtreat ment
Ġh ou
Ġal arm
Ġinter f
Ġrespect ed
Ġanch or
Ġbitcoin price
Ġber lin
Ġdet r
ic ias
br ing
Ġappro ves
it ll
Ġf fs
aw s
Ġpar agraph
Ġmod est
r ally
Ġret reat
Ġunemploy ed
Ġe go
Ġoutperform ed
b ly
Ġg ard
Ġbottom s
Ġrecruit ment
s ales
Ġr oss
Ġse man
Ġcryptocoins news
Ġscal p
s ky
Ġfli pped
fir m
ahah ahah
Ġpess im
Ġbitcoin com
world s
Ġyield s
v as
Ġad z
j w
Ġth a
Ġretail er
Ġdownload ing
Ġconstruct ive
Ġmicropay ments
pr op
Ġout law
Ġpres um
ind en
x a
Ġpublic ation
i ks
in ction
ach es
Ġbr ains
b af
z c
ig nty
Ġev ange
Ġdynam ics
m id
Ġu bi
n orm
Ġmet e
re q
Ġdi ye
oooo o
with draw
Ġbot tle
Ġev asion
ku coin
Ġz il
Ġpiz zas
Ġconclus ions
Ġprob able
Ġlivest ream
Ġt ik
Ġemp ire
Ġcl ay
Ġeye ing
Ġha i
Ġthisadvant age
Ġc ada
w ire
Ġwik i
Ġlitecoin s
Ġby tes
re y
Ġweek ends
Ġopt ional
dec entral
Ġstud ied
Ġcry t
de x
Ġn az
lo cal
Ġpain t
Ġfract al
Ġcelebr ities
Ġdash board
st an
Ġol an
Ġin secure
ver ge
Ġu z
ustain able
Ġdivers ifying
b x
Ġrec on
Ġviol ence
an as
Ġyou th
Ġman if
Ġo sc
Ġbitcoin ethereum
Ġb os
Ġwar ming
f ant
Ġc ave
Ġprim ed
Ġnorm ies
Ġg ay
Ġd ab
Ġprincip al
Ġsu its
il a
Ġappear ance
Ġsh y
Ġout ta
Ġrem embered
Ġg au
Ġhy ip
Ġrepeated ly
Ġbe i
Ġrebrand ing
Ġprop ortion
Ġgr ants
ic ity
Ġconsider able
educ ated
re fer
Ġcr ipp
Ġwitness ed
Ġv ouch
Ġtechn ique
Ġtechn iques
Ġcrack ing
al ed
Ġbar gain
Ġrepresent ation
Ġaccur ately
Ġfluctu ates
Ġmount ain
Ġgold s
Ġdepos iting
Ġscient ists
Ġcross ing
Ġexchangetr aded
bloom berg
Ġf k
Ġde il
Ġprohib it
f m
Ġform ula
Ġli ability
mass ive
Ġe obot
Ġuas f
Ġexplicit ly
Ġref resh
Ġr age
Ġattract ing
Ġreview ed
w ater
Ġk s
Ġutil ized
Ġvulner abilities
Ġre form
eth ere
Ġc iting
Ġtry na
Ġdemocr at
Ġtriv ial
n ft
Ġgroc ery
Ġrep lying
ren ce
Ġnon etheless
Ġgover ment
Ġque en
Ġt ah
Ġimm une
Ġf ame
Ġfol k
Ġgr an
Ġspreadshe et
Ġthey d
Ġthist ance
Ġle ak
Ġstr anger
Ġhash flare
Ġbitch es
Ġk ap
Ġris king
Ġachieve ment
Ġbol iv
remind er
at om
el ine
build ing
Ġvib e
ven ing
Ġf is
Ġf ade
Ġh tml
Ġg on
Ġadvert ised
Ġag ents
Ġskyrocket ed
Ġattor ney
b ag
Ġm kt
Ġav alanche
Ġmir acle
fly er
Ġzeal and
Ġand rew
Ġthisapp oint
Ġro cks
Ġire land
Ġm ens
Ġocc up
Ġr ah
oth e
Ġtem per
Ġinfluenc er
Ġexplo ded
Ġcommission er
Ġneutral ity
Ġvib es
Ġwell s
Ġtrace able
Ġfocus es
Ġspan ish
Ġpow ell
p oints
Ġto ss
focus ed
Ġshould er
Ġcontrovers y
Ġbr uh
ud a
Ġu y
Ġmig ration
Ġjer sey
Ġv ays
Ġsmall est
Ġhamm er
Ġneigh b
Ġreg ain
Ġsubject ive
Ġinc ur
Ġreject s
Ġal ike
Ġqu art
Ġresil ient
Ġsl am
Ġfoot print
h ong
Ġproduc ers
r d
Ġcirc les
Ġec b
m ot
Ġcontent ious
inc re
ip h
Ġback end
Ġsen ator
Ġple bs
t it
at ar
u ating
Ġint act
Ġhar vest
Ġw ine
Ġrevol ut
Ġstand point
m etr
Ġcomplet ing
p ad
Ġol ur
Ġtr apped
Ġrevers ed
Ġh od
Ġh ive
Ġr ude
vis a
b g
s ent
Ġit aly
Ġhighlight ed
v x
Ġno bel
ac a
Ġnon profit
Ġn od
Ġpl ag
Ġaf fair
b pay
r ip
Ġfr ied
os is
Ġposs ess
Ġdiff er
Ġprogram mers
reg ul
Ġf ond
dou ble
w p
Ġstr ikes
g un
ll ll
Ġban cor
Ġrec ording
Ġassist ant
Ġeuphor ia
Ġco ast
Ġofc ourse
Ġr ay
Ġbeh ave
Ġen em
lo ved
Ġhypothet ical
Ġle aked
Ġsc ares
Ġproject ed
Ġsubstant ially
Ġar rog
Ġadjust ed
Ġan gle
Ġap es
Ġbox es
ress ion
bin i
be yond
Ġswe at
Ġn ach
ab c
Ġprim er
Ġkaz an
Ġk wh
Ġcloth es
Ġnot ifications
Ġprop ri
Ġvalid ating
Ġthisrupt ion
Ġtre es
Ġre ass
Ġfar go
Ġsuck ers
p red
Ġyour selves
Ġstim ulus
Ġcash back
l if
Ġgood bye
Ġshut s
Ġmix ing
Ġsucceed s
Ġie o
Ġmotiv ated
Ġwoz niak
Ġo ls
Ġdes de
Ġpriv ately
os hi
n umber
Ġd all
Ġstraight forward
Ġmanufacture rs
Ġs izes
Ġmatch es
Ġunderstand able
ou bt
Ġmess ed
Ġher d
Ġn est
f ather
Ġwell known
Ġpoke mon
op in
and ut
c x
Ġs au
ĠĠĠĠ ĠĠĠĠĊ
Ġbitcoin crypto
th y
be at
m x
wh enever
s r
reg arding
Ġext rem
Ġinfer ior
i coin
Ġg ad
h ur
Ġp ix
Ġn ba
Ġhes he
Ġsignal ing
Ġdec imal
Ġrad ical
Ġpl acing
Ġper m
f lo
ll s
Ġback bone
Ġco aster
Ġs ie
g ged
Ġgr ain
Ġwat ers
c ause
w g
r amp
Ġr ail
Ġal ar
Ġste pping
Ġaf aik
Ġparticip ant
Ġp st
air s
Ġtat too
Ġexerc ise
q p
aw a
Ġquestion able
umm ies
Ġtack le
Ġun prof
Ġfab ric
d et
Ġrelig ious
cre ate
Ġj axx
Ġnot ification
est amp
need s
Ġremark able
Ġclass ified
Ġevol ved
Ġref ers
Ġentertain ing
z ant
r ipp
Ġmast ering
Ġnot ing
lo re
Ġdr ain
h oles
regard less
Ġd na
trans fer
Ġres olution
Ġo le
n u
Ġb or
Ġsp ots
Ġm x
Ġnever theless
is ers
Ġindirect ly
Ġm cc
Ġwhite papers
Ġglad ly
w art
Ġgroc eries
Ġs essions
Ġre ign
Ġfr iction
Ġtransaction al
Ġbr ick
Ġboom ers
Ġsuspect ed
Ġamend ment
Ġoper ated
Ġeg g
Ġfif th
char lie
Ġm l
Ġmess enger
Ġvast ly
o ch
Ġass ured
Ġyoutu ber
Ġcrack s
Ġjose ph
u ber
Ġass ert
Ġsc rypt
im s
Ġp ou
Ġsurprising ly
Ġbelie fs
Ġmer its
Ġsho ots
Ġpow r
Ġy ep
Ġview ers
am er
Ġobserv ation
Ġman ual
do or
Ġinfl ate
Ġboom er
Ġforecast s
follow back
Ġanticip ation
ink s
are st
where s
Ġrs k
pl s
Ġth ief
Ġsm ith
Ġi andm
Ġz ks
aus ible
Ġrac ist
Ġimpat ient
Ġpen al
e w
ile mma
Ġav en
Ġsevere ly
n p
Ġx by
Ġmon eda
Ġpur su
u yor
Ġth umb
Ġe ine
Ġimp ose
u to
Ġbrand ing
Ġw are
v h
Ġprom otes
as co
austral ian
d ie
Ġre sem
wr ite
lib ra
Ġant if
Ġer ic
Ġcommun ist
er on
Ġtal e
Ġexplos ive
Ġinterv ention
Ġse min
Ġmand atory
em pl
Ġleg s
Ġfact ory
Ġw iz
Ġexceed s
q t
Ġinput s
Ġchap ter
lo st
Ġcr um
Ġinc on
Ġart work
Ġpr ic
Ġcow ork
ens us
Ġver ifying
Ġin accur
Ġfail ures
at ics
Ġha bit
Ġtradem ark
g ate
l on
bur g
Ġv cs
Ġd eth
w ent
ch t
Ġrf id
Ġk ings
sp ot
Ġa uss
Ġth ier
Ġo tr
Ġhed ging
f k
Ġfin ney
bt ct
Ġpercent ages
Ġw er
Ġmar ried
Ġirrespons ible
Ġwr it
un like
Ġtr aced
Ġpart ly
los ing
Ġc ia
Ġsh iny
Ġgr at
Ġsink s
or gh
ig en
he he
b orn
venezue la
ition ally
Ġrob ber
Ġdesper ately
Ġunderest im
Ġsu ite
Ġeth ere
rx ymarketcomments
Ġsatos h
Ġpodcast s
Ġsa ves
ret urn
m z
se en
Ġso o
Ġmiddle man
Ġunivers ities
b ac
is ons
Ġthreat ening
Ġcompell ing
f ty
Ġt and
n l
Ġh ede
comput er
Ġsh ark
Ġwebin ar
Ġunf old
ient ed
h ours
Ġz illiqa
Ġmelt down
al go
Ġhum or
Ġele v
sur pr
Ġl t
to fixed
ut ive
Ġgr atis
Ġcurrency s
Ġbrows ing
Ġexecut ives
Ġunus able
gr ade
Ġpb oc
Ġthis honest
Ġhand les
und a
Ġtouch es
Ġdivers ity
Ġcollaps ed
Ġbitcoin mining
Ġsc ott
Ġpand emic
nn nn
li hood
Ġweak er
Ġdlvrit q
Ġc ot
f omo
Ġadd icted
Ġtrib al
jam ie
Ġin i
Ġcal end
Ġprior it
Ġeast ern
month s
Ġcode base
v k
Ġspir al
Ġdemonstr ated
reg ulation
Ġt g
Ġaccompl ished
Ġlast s
anc er
pro blem
Ġbase ment
Ġa qu
se x
Ġcomm issions
Ġy uk
Ġpro xy
x bt
Ġgre g
Ġhot els
hist ory
Ġh ors
Ġexplo des
Ġcent ers
ad vert
Ġbr as
av ail
Ġdeb ating
Ġg f
bal ance
Ġl on
Ġrespect ively
Ġcomplain t
op ping
Ġprep ar
bil ir
Ġauth ors
w ave
i u
w itter
Ġas sem
in ated
Ġexplo ding
f al
Ġnews paper
Ġsovere ignty
Ġhonest y
e as
Ġv de
Ġthisc losure
Ġcr ab
Ġz cl
Ġch il
Ġab o
Ġbre ed
Ġinde fin
Ġdemonstr ate
s amsung
priv acy
lic ense
Ġmot ion
Ġp oc
Ġint ense
Ġip fs
Ġbur ger
it r
Ġal ien
Ġimp lying
Ġpart ial
w is
Ġy ard
Ġbail out
Ġs id
Ġpenn ant
Ġcon ce
Ġscrip ts
g ans
Ġhow s
c irc
h ab
all ing
Ġunus ual
Ġapolog ize
Ġobt ained
Ġkrypt ow
Ġunder ground
Ġorph an
Ġl au
Ġbit con
Ġw ie
can ad
Ġg az
ig a
ut ch
Ġgur u
Ġsing ular
Ġbl n
Ġir l
some body
inter net
Ġprototy pe
Ġdut y
q y
Ġsmart phones
Ġcl iff
Ġm lm
Ġp und
Ġje wel
Ġshock ing
Ġdiv or
Ġi and
Ġemp ower
Ġsky rockets
Ġthist ingu
Ġcl icks
Ġcur ated
Ġic p
f ung
Ġimpro ves
Ġiot as
Ġuns ustainable
Ġlamb orgh
in side
Ġintermedi ary
dem and
Ġcontin ually
Ġf aire
Ġw oo
Ġapart ments
p el
ou n
Ġunt ill
Ġlight s
Ġpra ise
luck y
er to
bit connect
Ġcoup on
Ġandgt andgt
Ġb az
Ġreason ably
m ich
Ġcr appy
Ġborrow ing
Ġide ally
Ġi v
Ġmy space
Ġpresent ing
Ġxt z
Ġint u
Ġmarket places
Ġtrig gers
Ġpr one
re v
Ġpu ede
start ed
fe w
how s
ug g
Ġtechnical s
Ġtor onto
introd ucing
Ġpurs ue
Ġenem ies
Ġun educated
ost ic
c orn
Ġanx iety
ish er
Ġperson ality
Ġmen u
Ġchart ing
en z
Ġst on
Ġj s
Ġport ug
Ġn ar
Ġsh ots
Ġrelationship s
gu y
Ġban co
Ġcomp onents
app ro
Ġder ived
hy ped
Ġconsult ant
en ess
Ġtra ject
it ative
add ed
m is
Ġdeli vers
c losed
Ġlike lihood
Ġimag ination
ish es
gh an
Ġcomp onent
ent a
Ġemp ow
Ġbean ie
Ġinfin itely
Ġti ene
yout ube
Ġaddress ing
Ġdet er
Ġspl its
Ġthisc ip
Ġsu ited
Ġfu dd
Ġinno cent
Ġst a
Ġv ai
Ġrep o
Ġha ber
Ġacqu iring
fe els
Ġde er
x mr
cas m
oen ix
Ġj ordan
Ġm mm
Ġg m
Ġex hib
Ġexp ort
Ġn omin
Ġexplo ited
Ġmerc ato
Ġfomo ing
Ġcred ential
j ab
Ġed ited
Ġequ il
Ġfue led
op es
Ġfirm ly
Ġadvertise ments
Ġrh et
Ġthis pos
Ġv or
Ġhunt er
Ġh ier
ig r
Ġprep ares
Ġplug in
Ġun related
Ġdumb est
yw ood
Ġwood s
m ike
Ġrep ay
Ġbless ed
Ġkod ak
p th
q w
ab e
Ġsw eden
Ġc ure
Ġpl astic
Ġrepresent ed
Ġw ages
Ġhy ping
Ġincentiv ized
Ġl ing
Ġtu ition
Ġe cl
ass et
Ġpermission ed
Ġam er
Ġparam eters
Ġsw im
Ġnight s
o ck
Ġsend er
un u
ir able
Ġreven ues
Ġcounterfe it
Ġremitt ances
Ġfa q
Ġtalent ed
b ount
o i
po ly
Ġdestr uction
nd an
Ġth ir
Ġspecial ized
Ġparano id
Ġr vn
Ġfi asco
Ġve lo
le ep
Ġb ien
Ġposs ession
an ies
Ġoppos ition
to ld
Ġmonop ol
Ġsw apped
ir us
cur ious
Ġprogramm able
Ġh un
Ġte ar
Ġuseful ness
Ġcore s
or gan
ens ay
che ers
u do
Ġd istr
Ġty ping
eeee eeee
Ġc ough
Ġj ed
h d
Ġrisk ier
Ġthisp ute
Ġz ones
Ġste als
Ġb mw
Ġab road
Ġvirt ue
Ġsupp lies
Ġtrip led
cr ip
Ġn ets
Ġstack s
cf tc
Ġanc ient
ch ron
Ġsubsequ ent
ia h
Ġcomplet es
Ġstake holders
Ġak in
Ġrestaur ants
Ġt id
Ġcertific ate
Ġchamp ions
oubt edly
au g
ban king
Ġthiscuss es
Ġtv trading
Ġjohn son
Ġsink ing
bro ke
Ġinspir ation
econom ic
w ich
Ġco o
Ġda ve
Ġde emed
Ġameric as
Ġgr ass
Ġpc s
Ġtvtrading ideas
Ġhal ts
Ġprep aid
Ġf ak
Ġadvance ment
Ġr ated
Ġconnect s
Ġd ress
Ġextr act
gu ard
Ġadvoc ates
te zos
Ġprogress ive
Ġgambl ers
Ġdomin ated
Ġbe zos
ost er
gr oup
bit co
ilt on
ic ion
Ġsecret ary
tes la
al i
Ġit d
de fi
on ia
Ġvis iting
Ġc ul
Ġfr u
Ġis ol
Ġruss ians
nt s
Ġass urance
j our
Ġanticip ate
call ing
ar re
Ġsoci et
Ġram en
bu bble
Ġrul ed
al m
Ġcapital ize
Ġthisc lose
Ġwalton chain
u er
Ġdo se
Ġpair ings
Ġfun n
Ġlog ged
Ġst om
Ġdeb ates
Ġmar sh
Ġpre cedent
Ġpay ed
Ġclown s
Ġprod uces
sol id
cy ber
Ġbrief ing
Ġpuss y
Ġm ask
Ġoutput s
ibr ium
u v
Ġn ur
Ġneg oti
Ġab t
Ġteen agers
ink ing
Ġnecess ity
um in
cl ays
c at
Ġn ik
Ġun aware
Ġx p
Ġcy r
Ġli ed
Ġenv ision
Ġmess ing
Ġr cc
Ġtim estamp
f it
t ur
Ġthisapp ointing
em e
Ġill usion
Ġwe aken
Ġspecul ations
z illa
Ġsup erm
vol at
Ġi lem
Ġjudge ment
Ġhal vening
Ġbe ef
Ġelectron ics
m ill
Ġd uck
Ġat e
Ġfle e
nd e
b z
us ually
c red
ament o
Ġanaly se
Ġat lant
ut a
Ġsug ar
Ġremind ed
Ġemot ionally
Ġprofit ing
Ġstructure s
Ġpolitic ian
in in
Ġoptim al
f ear
Ġant ic
Ġn ed
gr ab
itt e
li um
Ġed iyor
Ġintegr ates
friend s
Ġass holes
j er
can not
resist ant
Ġtr av
Ġshib es
Ġriv als
Ġresp onds
Ġmem o
Ġdict ate
Ġjud ging
Ġprin ts
Ġtoken ization
j im
Ġm ile
Ġh ater
Ġland ing
Ġv it
de al
li ano
Ġtraject ory
Ġoff s
Ġevent ual
w t
g erman
q g
Ġli k
Ġdesign er
ent ry
tr oll
Ġchamp ion
Ġh ol
av o
Ġad ults
Ġover look
Ġsl ave
Ġembarrass ing
bel ow
alt ies
Ġsp ain
Ġobsc ure
Ġres ur
Ġho y
Ġaward ed
Ġsmooth ly
Ġniger ian
in em
d one
gr ow
n ik
we alth
Ġfavor able
Ġrou bini
Ġw abi
ch i
Ġaccus ations
Ġvde o
c od
Ġf art
Ġg mo
tr ash
Ġpur se
Ġhuge ly
Ġproph ec
ile aks
Ġel astos
Ġmag ically
ci ence
Ġrich es
Ġconsequ ence
Ġo yster
Ġmilest ones
Ġg vt
market ing
inter view
Ġtod os
Ġgentle men
Ġhus band
Ġdetect ed
q k
Ġthe ta
Ġfr ames
ut y
Ġoff ense
Ġrele v
Ġarr ives
Ġconstr uction
Ġtermin al
Ġer ik
thr ow
Ġe z
Ġtak ip
Ġlow ering
oc aly
Ġpres idential
Ġrasp berry
ps a
Ġne xo
Ġtax i
Ġelect ed
Ġapart ment
im iz
us er
Ġreflect s
Ġbitcoin the
Ġdo l
Ġmis er
Ġattack ers
Ġindic ating
Ġba it
Ġens uring
h ive
br ain
Ġresc ue
w inklevoss
Ġshe er
Ġoffsh ore
Ġte k
be gin
Ġref erences
Ġmid night
Ġlever aging
Ġsh ield
Ġby zant
Ġge o
Ġsettle ments
Ġthere by
k ers
el i
Ġhurd les
Ġo x
j g
Ġwhich ever
Ġe ld
Ġoutperform ing
Ġv lad
ac ies
Ġident ities
warn ing
f n
ane ous
Ġbuilt in
Ġa a
Ġp are
Ġtw enty
Ġb am
b azaar
f ive
Ġsu isse
Ġx xx
Ġcons cious
Ġd s
Ġg ust
Ġcr own
u ated
om ing
iff s
Ġin vers
Ġq ash
Ġplat inum
Ġcatch es
th o
Ġlo bby
Ġcompet ent
Ġtr ave
Ġma h
c boe
Ġw w
Ġbit license
Ġcollect ively
ou ve
res hing
b cc
g ue
ist ered
gen esis
Ġdownv oting
Ġha ft
p od
Ġpl ausible
ll i
f ans
r ating
Ġposition ed
ac iones
us a
Ġhesit ate
Ġsh ips
Ġsal aries
Ġspect ac
Ġtech crunch
r n
Ġeth ical
Ġincl usion
Ġhost s
Ġthird party
Ġthisgust ing
u ence
he iro
Ġthank fully
rop ol
Ġpo op
Ġimag inary
Ġe ea
ich ain
Ġd ms
Ġc able
Ġif b
Ġclar ification
s ave
med ium
Ġtai wan
Ġel igible
Ġtest im
Ġskept ics
Ġsl im
Ġcrypt or
Ġobs erved
Ġintermedi aries
m ate
Ġb one
Ġenthusi astic
Ġsecond ly
Ġround s
Ġprop onents
Ġcopy p
Ġqual ify
Ġannoy ed
Ġpropri etary
de pos
d rew
Ġem issions
Ġthorough ly
Ġdepress ed
Ġl ub
kind a
g os
u i
Ġreth trader
Ġfl ush
Ġloc ally
Ġexperiment al
f ia
Ġcon cluded
ib m
Ġn ont
Ġconf lic
Ġtoler ance
Ġaust rian
c ion
Ġhe arn
Ġd if
Ġbl a
Ġmatch ing
Ġstr ip
Ġmisunder stood
ain ted
Ġtr oj
Ġtrick y
Ġs ought
op p
m ac
Ġalloc ated
Ġment ally
Ġobliv ion
r ill
de ad
Ġgoog lf
Ġf etch
Ġcollaps ing
z l
Ġp df
Ġcomput ational
Ġview ing
Ġst ark
Ġencour aged
Ġcriptomo edas
Ġbar ter
Ġlast ed
iven ess
Ġmaint ains
Ġg tf
Ġsh itt
ch ester
Ġange l
Ġt us
Ġbit p
lar ge
m ess
Ġu top
Ġgr t
Ġfeed ing
Ġsimilar ities
Ġp wc
Ġfound ing
Ġbe acon
Ġdistrib ution
Ġmed i
Ġto pped
Ġsc um
c m
Ġar ise
Ġhind i
Ġpak istan
Ġst akers
Ġlegal ity
Ġsecure s
Ġequil ibrium
Ġpar as
Ġstabil izes
mak er
Ġvend or
Ġun informed
Ġk ik
Ġblat ant
bear ish
cc er
Ġrepl aces
Ġmultim illion
Ġspot ify
Ġv ous
Ġdown wards
Ġthe blog
Ġincentiv ize
sh itcoin
Ġclick ba
cryp tom
en i
es i
leg al
Ġt ldr
Ġcred ited
Ġtheblog web
s un
Ġrally ing
belie ve
Ġred d
Ġap is
Ġsen ators
Ġalg os
Ġcoinst okens
Ġo ve
Ġve z
ost rate
Ġrep lic
Ġexpand ed
Ġsar casm
Ġear liest
pay ing
Ġph oenix
Ġbitco i
Ġg it
Ġt ay
wor st
Ġel ites
u j
p se
cr aft
Ġinnov ate
wh ale
Ġincon ven
Ġadd ict
Ġbreak fast
Ġsuck ed
Ġf ath
Ġbitcoin and
Ġfight s
n ament
co hol
you d
Ġp ond
Ġalt season
Ġrequest ed
Ġsw arm
Ġref lection
n orr
Ġcr u
Ġsz abo
Ġant im
Ġfish y
Ġre all
Ġsumm ar
ad an
Ġcon clude
Ġcomment ary
Ġsy nd
Ġard or
ific ant
Ġso ared
Ġscand al
Ġbitstamp btcusd
Ġlaugh able
Ġsor os
Ġc k
Ġresearch er
aaaa aaaa
Ġah ora
k at
ag a
Ġfortun ately
Ġcount down
Ġret ards
Ġi lk
Ġinde pth
Ġcorrect s
Ġit unes
erm ine
l ash
Ġupload ed
Ġco ke
Ġreli ability
Ġcryptocurrency news
Ġme jor
Ġanim als
ar us
Ġint ends
Ġcont ained
or igin
Ġ ought
Ġquestion ing
Ġner d
Ġfig uring
Ġout comes
Ġh tt
Ġl to
Ġap w
Ġtec nolo
de ce
Ġper t
Ġgener ic
st or
Ġstr angers
Ġword press
Ġrepe ats
Ġcredential s
Ġde utsche
Ġsl ip
Ġman a
Ġbust ed
Ġstick er
Ġre e
Ġz ar
l ers
ann ou
Ġhoriz ont
Ġplat a
Ġrall ied
ch ed
Ġmer ry
Ġstick ers
Ġlou is
Ġf f
Ġr od
Ġsupport ive
Ġhijack ed
y z
Ġhand y
Ġlic enses
am as
Ġsl ap
Ġinst ability
sw ing
Ġutil ities
Ġsignific ance
Ġcand lest
Ġmonet ize
Ġexcess ive
n ets
could nt
Ġburst s
Ġb ak
Ġcomm its
Ġp ad
Ġaggreg ated
em or
ie ved
bs v
Ġze bpay
Ġfrau ds
Ġas leep
Ġlay ing
Ġw ired
Ġgu i
Ġpo lo
bi ased
Ġsimpl est
Ġgere k
Ġecosystem s
Ġd t
Ġdi et
Ġpon z
Ġidiot ic
Ġpir ate
iter ate
Ġret ired
Ġnot ably
Ġdeterm ines
q j
qu ite
ethereum s
Ġlegal ization
omm od
Ġmath s
Ġpack ages
Ġdev ast
ant miner
b io
Ġborrow ed
Ġbaghold ers
Ġwh is
wa ves
Ġext ortion
Ġstor j
tar get
Ġliber al
Ġhmm m
Ġdesign s
hop ing
d irect
Ġaud its
strat um
Ġwel com
m om
Ġenlight en
Ġvelo city
Ġno se
sl ow
p op
Ġamate ur
ped ia
Ġemer ged
Ġincom p
Ġinst ances
Ġpre view
hal f
Ġce x
Ġspect rum
c mon
Ġm f
Ġgr in
Ġhard core
b k
Ġhu bs
Ġchar ities
ph rase
Ġdin heiro
c ertain
t ips
Ġyatr m
Ġc ig
pr a
Ġden ying
Ġaccur acy
ans actions
res ent
Ġs igh
Ġunder rated
r ise
Ġastr onom
our iel
Ġsl ots
Ġconsum ed
Ġdec rypt
Ġy an
for bes
Ġbus d
Ġwork er
g ia
Ġrob ots
Ġmit igate
on ion
ment ed
Ġviol ent
techn ically
Ġcontrib utor
t rend
Ġrout ine
Ġha hahah
Ġfeed s
btcusd t
ad am
ok ie
Ġcert ified
Ġmom s
Ġconsider ably
load ing
Ġthiscount ed
Ġh ats
ere r
li ver
h ands
p rep
Ġcar ing
Ġcollect ors
Ġstat ic
Ġprin ter
Ġcop ying
Ġi yi
Ġcl ash
Ġstud io
Ġsimpl icity
Ġinteract ive
w ont
ell e
ays ay
Ġnue vo
Ġwed ding
Ġthist ur
Ġoccas ionally
om et
Ġr ar
Ġincorpor ate
Ġcous in
Ġrel atives
Ġinher it
Ġplun ged
Ġsur f
w oj
Ġcle ars
comp anies
Ġtravel ing
at en
Ġbo i
Ġutter ly
Ġded uct
Ġcolle agues
de ep
ff ff
Ġsp ite
ener gy
Ġk cs
s an
ab ased
mo il
was nt
ight ed
Ġdou che
st en
Ġdes c
inst itutional
Ġdes erved
Ġimpact s
Ġc ope
t or
Ġal an
Ġiniti atives
Ġcompreh end
Ġp aired
f our
Ġsurpr ises
Ġranking s
er ce
Ġal tr
Ġprogram med
Ġcod ed
d ow
Ġd ating
Ġstr aw
Ġma j
Ġincl ined
Ġme h
co vered
sh out
Ġsto od
Ġshill er
Ġg ender
Ġlu ke
ar lo
Ġtechnolog ically
Ġby k
Ġair bnb
Ġsort ed
Ġprotect s
Ġvari able
Ġbrain er
h are
p arent
Ġtor rent
Ġfac to
clus ive
Ġshould ve
Ġcour ts
Ġc unt
bet ween
Ġto dd
Ġst unt
Ġref reshing
connect ed
Ġbr ow
qu ality
Ġju icy
est r
Ġquarter ly
Ġsimpl ified
qu it
dom inance
f old
Ġau ch
l ittle
ost on
lay er
Ġauthentic ator
k im
bount y
as ia
Ġmult ib
lar a
Ġpour ing
cle arly
Ġforesee able
Ġgr ave
ij n
Ġreg ions
red ited
Ġskeptic ism
Ġcalend ar
Ġtag ged
Ġr acing
Ġsun ny
Ġcr aw
Ġarg ues
Ġanaly zing
fall s
Ġm vp
Ġhack athon
omod o
Ġcar ries
sad ly
a very
Ġname ly
Ġruss ias
Ġcr ushing
Ġdeploy ment
Ġcour age
Ġcongest ed
Ġn s
Ġy td
Ġass ign
Ġw btc
Ġexp ire
Ġdis ney
Ġbit fury
en as
Ġj k
y t
Ġgoog les
Ġcomp ute
Ġfort nite
on ing
Ġatt ach
cust od
o ops
Ġund oubtedly
Ġmart in
he art
con tract
l ab
r h
Ġthis e
min t
Ġdemocr ats
Ġo st
Ġour s
ser ious
Ġguard ian
n av
Ġk ull
Ġg ab
Ġdall as
t ip
wan na
Ġman kind
Ġtur moil
Ġm d
Ġar izona
Ġpay day
br uh
Ġsw an
Ġmoder ate
not es
Ġn ce
Ġe ars
Ġs d
Ġl sk
Ġdirect ions
Ġsym path
st yle
Ġcompens ation
canad ian
od ay
Ġdr ove
Ġjer k
et o
d av
Ġc mo
Ġencour ages
Ġm im
Ġdeg rees
Ġanti bitcoin
e on
Ġf oss
Ġcrack ed
Ġd ny
ed ia
Ġob ama
Ġcatastr oph
in er
em o
Ġhesit ant
Ġw ird
Ġsuck ing
Ġm p
g c
Ġnone x
Ġensure s
it rade
Ġcriptomoned a
Ġharm ful
ro ot
Ġcandid ates
Ġsatisf y
Ġd ns
we igh
Ġd h
Ġru ining
Ġshif ts
Ġz k
Ġstream s
st one
Ġinv itation
Ġscroll tofixed
Ġperpet ual
su bs
b is
qu art
hodl ing
exc ited
it ure
un ic
Ġback log
ite ch
be ware
Ġn it
Ġsh aking
Ġul tr
Ġmiddle men
Ġb x
Ġcrypt oin
t in
Ġa os
Ġare na
Ġupgr ading
Ġzks n
avail able
un o
Ġmed ian
Ġh k
Ġli ar
Ġcons ists
te xt
Ġeval uation
Ġsli pp
r p
Ġmedic ine
Ġoccur ring
Ġr ust
Ġcontact ed
Ġha w
cept ions
Ġbod ies
Ġin ner
comp any
b p
j n
Ġr iver
Ġusage coin
Ġll eg
com news
Ġsl ips
Ġpap a
e i
Ġst ub
Ġn aysay
Ġadmin s
Ġin n
Ġwith drew
Ġback ers
Ġjournal ism
p orts
Ġl ump
Ġmater ials
au x
Ġreddit ors
Ġva ults
Ġr ico
Ġz a
Ġemp res
ah aha
on et
Ġr x
head s
Ġcbd c
Ġthist inct
Ġz omb
Ġty ler
Ġkore ans
Ġdecl ares
Ġtrou bles
Ġt t
Ġst aring
Ġspot ted
Ġlun o
Ġimag ined
h tml
ol as
ul ates
Ġann ually
Ġdan iel
Ġcryptocur ren
Ġprophec y
ind ias
Ġst icks
Ġextr ad
Ġstress ful
Ġproced ure
Ġloop ring
Ġvacc ine
Ġs cept
Ġass es
av oid
Ġbyte coin
z v
Ġtrad able
Ġreact s
Ġmercato x
Ġl ud
erv ices
nc ia
go es
Ġunre ason
chr ist
americ an
Ġc er
Ġs ane
Ġreddit or
Ġjack pot
Ġnegl igible
te x
fung ible
m ca
f an
Ġr ipped
mag azine
Ġmoon ed
Ġnews bitcoin
woj ak
ad i
Ġcont aining
Ġk b
Ġtrans f
g ames
Ġp ounds
Ġal cohol
Ġmon key
pu bl
Ġadvent ure
as er
Ġsex ual
Ġes per
Ġlow ered
Ġda wn
Ġtax ing
Ġtrust ee
g les
Ġm sm
Ġjust ified
Ġk oin
Ġmalays ia
Ġpers u
b ie
Ġa ur
Ġes cap
Ġreflect ions
Ġso ccer
Ġcomplet ion
is ions
ch es
Ġagree ments
Ġan ger
Ġarch ive
Ġsp ur
Ġmeet ings
ac ias
oooo oo
w x
Ġreddit btc
Ġsp v
Ġur ges
Ġge org
Ġjewel ry
Ġunder mine
Ġphr ases
post ing
Ġd nt
Ġo gs
Ġq e
ac cess
az z
Ġblo gs
Ġinsight ful
ar l
Ġpers ist
crib e
Ġesp orts
Ġb oll
Ġen rich
Ġaccount ant
Ġdatab ases
Ġvig il
Ġpresum ably
gr and
Ġfant om
Ġeth ics
Ġhall ow
Ġdild o
ur p
ag en
Ġiniti ated
Ġcapt ain
Ġdrink s
d ark
che ap
Ġblock fi
str ate
Ġda os
Ġgodd amn
et f
Ġmir r
Ġtur kish
Ġa kt
at us
ss ss
Ġt aps
gy pt
ing en
Ġscreens hots
Ġbre ached
Ġmax well
Ġp ause
Ġcl ones
Ġins pect
Ġretr ieve
Ġjournal ist
Ġmo sc
Ġbit flyer
ster dam
Ġnak ed
Ġr oman
Ġyk sel
Ġh oles
Ġcr unch
Ġju ice
h ost
Ġthr iving
Ġident ification
ok u
Ġm ily
Ġarr ange
Ġpo ore
sing apore
Ġoutrage ous
cept ible
Ġproduc er
Ġindefin itely
Ġrest art
Ġtroj an
j m
id ade
Ġpass ively
Ġb are
Ġk fc
Ġburst ing
Ġabstr act
Ġor an
Ġacc ommod
Ġcon sec
Ġcr uz
Ġmu h
Ġshift ed
Ġf s
Ġcl int
Ġmix er
Ġsc ores
Ġgr ip
Ġdict ators
Ġso oo
andg ts
Ġincre ment
Ġalloc ate
Ġup bit
Ġsa at
ig ent
Ġarbitr um
Ġproblem atic
Ġfood s
Ġd ummies
Ġab ra
Ġgift ed
Ġjournal ists
btct n
Ġche ating
th ur
Ġse v
Ġgl ory
Ġdestro ys
Ġtes las
Ġonboard ing
Ġm btc
Ġbr ighter
Ġbo is
at ter
Ġhash tag
ij ing
Ġad equ
Ġcustod ian
in ity
Ġt all
re pl
Ġg s
Ġembed ded
Ġstom ach
es se
Ġmechan ics
Ġclimb ed
Ġm ong
li ers
pat ience
t imes
Ġes c
Ġok coin
tl ene
Ġsincere ly
Ġan l
Ġn ada
Ġmete oric
Ġg nt
Ġimp osed
Ġco found
Ġsh ard
Ġpass port
pot ential
corre ction
kore an
Ġgood ness
Ġpers pect
ien ced
Ġfil thy
Ġcorre l
b ug
Ġsett ling
ed es
Ġmon it
Ġd it
Ġg ary
li able
p ack
Ġb ands
Ġc n
lo gical
Ġgraf ik
est a
Ġbit ty
Ġtit led
Ġendorse ment
Ġver ifiable
ad ores
Ġmu y
Ġsub po
Ġchange lly
Ġgath ered
Ġst er
ge mini
Ġeconom ical
Ġacceler ator
Ġants hares
in it
Ġcorrupt ed
Ġrum ours
bit pay
Ġpig gy
ass uming
Ġfall acy
Ġgl ance
Ġciv ic
re on
Ġbrain w
Ġch ocol
Ġgre ens
Ġvot ers
q m
ostrate gy
Ġr os
q z
Ġapp et
crimin als
Ġwill iam
Ġthist ant
or able
Ġe e
Ġmus ks
Ġk l
Ġencount er
u gh
ra ft
post ed
Ġlicens ing
Ġfore st
andg tc
i ott
Ġur gent
Ġdraw s
v ille
Ġdam aging
f il
Ġcho oses
Ġtele com
Ġiron ically
Ġrecip ient
Ġmill ones
inst ant
Ġenfor ced
Ġi am
Ġso ck
Ġow ly
Ġac ct
Ġs dk
Ġr ack
st orm
Ġnig ga
Ġgoog l
am ount
d as
Ġstr ipe
Ġramp ant
r ading
Ġvis ited
Ġdeliber ately
Ġran ges
b ots
Ġout weigh
fin ity
Ġdild os
im an
Ġcryptos phere
Ġw i
iz a
Ġfan boys
rad er
and om
Ġrelev ance
Ġpl ants
Ġins ign
Ġon ramp
Ġsurv iving
Ġapp l
reth ereum
Ġmer ged
under standing
Ġfi ats
Ġworks hop
ig t
ess ional
Ġbot tlene
Ġconst it
wall ets
Ġmillenn ial
Ġk or
Ġcom bo
oll y
Ġrin se
Ġover hyped
Ġalleg ations
Ġatt ending
Ġi irc
ote ch
Ġanth ony
q c
cc mc
Ġcontact s
Ġn p
Ġis lands
Ġsil bert
h uh
l ans
Ġbe loved
Ġmill er
Ġobject ively
Ġadop ts
Ġdur um
jx zj
Ġw ager
Ġban ano
Ġfl op
Ġsn ake
Ġpre f
arch y
Ġcom oh
ja ja
Ġsetup s
Ġtour nament
mits jxzj
aby tes
baf jab
dece mber
ccmc bafjab
Ġcomoh ccmcbafjab
mitsjxzj gf
Ġcomohccmcbafjab mitsjxzjgf
com o
Ġcitizens hip
be ll
Ġc ere
Ġsp okes
Ġun biased
Ġdis cover
Ġs ap
Ġint ensive
Ġdedic ation
Ġsurpass ing
Ġlamborgh ini
Ġlast ly
Ġun le
Ġpo e
Ġha cer
Ġcons ent
Ġvalid ated
Ġpot ato
Ġgov ts
Ġbat tery
Ġreg ime
Ġfund strat
Ġgtf o
Ġt xt
Ġc ared
au f
Ġban ner
Ġsw ay
w at
Ġhapp ier
Ġchil thish
Ġraven coin
Ġh isher
Ġk end
supp ly
custod ial
Ġdoc s
Ġslight est
Ġacad em
tal king
Ġcomp at
Ġc ir
Ġk ard
Ġsc ot
invest or
Ġdeleg ate
Ġrein vent
Ġfar mer
sure ly
Ġamb ass
Ġn am
Ġtact ic
Ġlub in
Ġthis par
learn ing
sh ill
Ġcomp lement
sil ver
ar o
Ġelectr ical
lo lo
Ġykse li
Ġcoc aine
Ġbel ive
Ġorgan ize
Ġag n
Ġcool ing
Ġautom ation
Ġpresent ly
Ġmoder ators
Ġcou pled
Ġhop ed
j c
Ġk itties
Ġbl asts
Ġr r
b ud
v z
um bs
Ġquant ities
Ġcol umn
Ġj in
Ġsh irts
Ġassist ance
Ġolymp ics
Ġv m
ol s
Ġqual ities
Ġhorr or
Ġle v
un popular
Ġstress ed
event ually
Ġin r
Ġsucceed ed
Ġing ame
bu zz
att ention
Ġsearch ed
Ġbut th
eth ey
Ġopp ose
Ġviol ation
be e
Ġmargin s
Ġid le
app s
Ġeat en
Ġpor que
Ġmicr os
Ġha z
Ġk om
Ġpat rick
Ġre vel
Ġcr ude
add ing
Ġlike wise
Ġc ited
ripp les
Ġde xs
Ġimp lements
pro gram
w u
Ġal igned
Ġpotential s
Ġrout ing
Ġis is
me ye
Ġboot str
Ġcount ed
Ġk t
Ġfl are
Ġachie ves
Ġinterpret ation
Ġm h
Ġexc uses
run ning
Ġant iv
st here
v irt
t weet
Ġholl ywood
Ġe ats
c ry
Ġand re
chan ged
Ġreal izes
Ġsl ice
Ġdest ek
Ġmosc ow
Ġhe he
Ġroll out
Ġfd ic
Ġrece iver
Ġclickba it
Ġpost ers
Ġsocial ist
ch ing
eth ish
Ġrec ieve
Ġsl avery
Ġd y
st ick
char ge
Ġfront ier
Ġconcent rated
Ġthiscour age
Ġt is
Ġbiz arre
be aut
Ġsus ceptible
pl ing
who ever
Ġpax ful
Ġaf ghan
Ġred undant
Ġne arest
opin ion
Ġr ic
Ġcash out
Ġdep lo
Ġdev con
pro v
Ġath let
Ġy t
Ġsch norr
Ġb ind
Ġol ig
Ġbitcoin in
Ġgl orious
c ut
z cash
Ġhallow een
Ġme xic
Ġground breaking
Ġseman a
Ġes pec
Ġgau ge
b ish
Ġdem ise
Ġthistr action
Ġroad s
Ġacad emy
dis claimer
Ġabo ard
Ġlin ear
Ġarm strong
Ġbund le
Ġper mit
Ġaw ake
sh orts
Ġt orn
Ġbase ball
Ġin vert
Ġmortg ages
Ġmathemat ics
Ġcl in
Ġsurve ys
Ġb ible
Ġbad ger
Ġtr ac
bt ce
Ġcomm emor
Ġhal ted
Ġkey board
Ġul br
it ar
Ġcl othing
Ġmet ropol
Ġinteract ing
count er
p ick
p aid
me h
Ġfutur o
Ġaffair s
Ġassum es
Ġbo o
Ġlawsu its
Ġp ity
ien ces
Ġdomin ating
Ġor ch
Ġmeme coin
Ġthist inction
Ġte eth
mich ael
Ġboy friend
Ġexplan ations
Ġd ots
Ġinc ub
feel ing
j y
Ġap ro
Ġsay in
Ġwal ked
miss ions
fund ed
refer ral
Ġcomp os
Ġfin est
sp end
Ġwel comes
Ġve ctor
un uz
Ġprof iles
Ġmi ota
Ġcollect ibles
Ġlibertar ians
a unch
Ġp ode
Ġpre ced
we ather
Ġmother board
Ġv ested
spe aking
Ġcle arer
Ġilleg ally
Ġr iot
Ġcircum vent
Ġroot stock
Ġin equ
Ġcoin omi
Ġcentral isation
Ġast on
v u
Ġcr os
andgt if
Ġsar cast
Ġbitcoin related
Ġagree ing
Ġdiv isible
Ġaccount able
Ġrobber y
Ġhou ston
g k
Ġbull ion
Ġgun na
q n
az e
an to
Ġcar to
play ing
ll o
Ġh n
am ine
Ġgr o
Ġtutor ials
Ġp ipe
Ġn r
Ġdemand ed
Ġr ushing
Ġmicr otr
Ġwithdraw s
Ġpip eline
Ġwitness ing
v f
Ġclick ed
ling house
Ġrug pull
Ġs well
Ġadvert isers
Ġenh anced
Ġd rew
Ġe book
Ġmot or
on th
Ġo o
mm mm
Ġbrow se
Ġdeal t
Ġap ocaly
Ġst arter
Ġporn hub
Ġcompens ate
Ġsand box
Ġhat red
thr iller
Ġph arm
Ġn k
Ġwe chat
Ġag ed
et a
Ġexchan gers
Ġbin ances
Ġpanc ake
Ġgot o
cons ider
l ists
w ake
Ġgu ll
pe aker
Ġuser friendly
Ġgrab s
Ġc i
Ġv oid
Ġadvoc ating
q f
or al
ro y
Ġnon fungible
Ġres umes
ria ge
Ġdef ensive
att ack
bu ilt
om a
Ġshib as
Ġz ur
Ġpiv x
Ġtele graph
Ġvar iant
Ġfl avor
Ġfulfill ing
Ġtempl ate
Ġsnow den
e ment
Ġbc d
Ġpr ide
Ġcu ando
an gh
po or
h ang
Ġantim oney
Ġact ed
Ġy acht
l ord
n em
iment o
mind ed
z p
Ġy u
Ġone coin
Ġvalid ity
Ġsusp ends
Ġpray ing
a ith
hum an
Ġflour ish
ort ed
m options
europe an
c ou
Ġdr astic
Ġfu ds
Ġref uge
n fts
Ġovert akes
Ġinf am
uff le
Ġawa iting
Ġlean ing
actual idad
k ts
Ġgr ace
Ġprohib ited
pres ident
Ġst agger
um a
Ġmargin al
Ġbank sters
Ġlag ging
Ġfest ival
Ġvari ables
ig ation
Ġbudd ies
Ġback lash
Ġdistr ict
Ġwe iss
ult ure
Ġseg reg
st arter
Ġcould ve
Ġhorizont al
c lose
or ation
Ġam sterdam
Ġrel ent
b ang
Ġtyp o
Ġsimpl ify
Ġm ild
Ġso cks
Ġdigit ally
Ġl ure
el er
q b
Ġcard anos
Ġsent iments
Ġg zel
l ondon
bu ff
cc n
Ġday trading
comp et
Ġtraff icking
ne ys
Ġloom ing
Ġplata form
Ġf id
Ġme al
pol it
jan uary
Ġimm ature
Ġphenomen al
metr ical
um ar
Ġreveal ing
Ġunlock ed
Ġsno op
Ġmarket ed
Ġinv iting
Ġflex ibility
Ġpor no
Ġexceed ed
Ġthr illed
uk rain
Ġcompar isons
p en
Ġmus lim
Ġcategor ies
Ġs ind
Ġi ds
we eks
Ġvolunt ary
Ġinsan ity
ast ed
Ġvis ibility
Ġproport ional
Ġr az
Ġcash s
Ġconfl uence
Ġc ath
Ġmeetup s
d iv
Ġse vi
Ġpu b
Ġtempt ing
Ġf om
Ġbr ace
br os
n in
as ian
Ġsubst itute
Ġsam ple
Ġthisplay ed
lic ious
health y
ens ed
Ġge le
Ġro ots
Ġrevis it
u ch
Ġgr s
Ġsurv ives
inform ation
d ancing
Ġvan ish
m ast
Ġpar ath
d ivers
Ġth ai
Ġvoc al
h in
Ġh ires
Ġt ant
Ġmoney gram
Ġnav igate
Ġmult ic
Ġvo ices
enc er
Ġse as
Ġinsign ificant
f us
p urch
th em
Ġx dai
Ġtax pay
Ġstack ed
Ġt cp
al ysis
Ġk urs
Ġsu pr
Ġr c
Ġhand ing
ast ing
Ġexp osing
Ġref using
le e
Ġrig ged
miss ed
Ġn anos
w ood
Ġestabl ishing
at iv
Ġpop corn
Ġcryp ts
Ġmoney s
Ġseam less
Ġd ives
Ġco ach
Ġref uses
Ġmerc y
Ġg est
app reci
Ġnot icias
Ġpro g
Ġmight y
Ġawa its
Ġout lined
Ġpat reon
Ġbo a
ret ail
Ġgrand pa
it ate
Ġste ven
Ġtit les
launch es
pro ven
v ada
Ġb oston
Ġboard s
Ġa le
ren der
ee z
Ġhash graph
trans actions
Ġrhet oric
Ġpur ple
Ġgr ounds
Ġnaysay ers
a wei
Ġcol omb
Ġbek li
Ġd angers
Ġcy cl
in as
Ġb ile
Ġres erv
Ġinf ect
ex ec
Ġou nce
Ġblack mail
Ġsuck er
Ġnyt imes
Ġmonit ored
Ġin ability
ger y
Ġdev il
Ġdomin ates
Ġcance led
Ġinter ference
Ġmathem atically
Ġacc ord
Ġres erved
Ġne on
Ġsu shi
Ġmun ger
Ġn ya
any ways
el f
Ġstop loss
Ġcatastroph ic
s uccess
Ġcar r
Ġnot icing
cr ime
Ġprevent ed
id os
Ġx i
Ġreg ional
Ġcritic ize
Ġu ae
Ġr ode
Ġscal ping
Ġtransform ation
ne ither
Ġw ip
gr owing
Ġrem arks
Ġinterview ed
Ġdinos aur
Ġemploy ment
Ġgard en
Ġfue ling
Ġfin es
Ġover head
Ġa ce
other wise
Ġmat urity
Ġwik ileaks
Ġattrib utes
Ġprepar ation
Ġin qu
Ġfor give
Ġj ug
Ġfortun ate
Ġrend er
Ġwal ks
Ġunreason able
Ġcop per
Ġdu h
Ġslump s
Ġdenomin ated
Ġin j
Ġacc r
Ġvert ical
Ġbinance us
Ġsnap chat
Ġjack son
Ġplummet ed
Ġpostp oned
p oss
Ġw ings
Ġsocial ism
the week
ero ids
Ġair line
Ġbar clays
t ies
Ġfin ality
Ġlar ges
Ġlight ening
c ot
Ġobs er
Ġperform s
r aud
Ġw p
Ġflood ed
Ġinsp iring
Ġrepublic an
volat ility
and gth
Ġfore most
Ġaust in
Ġgig antic
f ight
q v
d yor
Ġhed era
Ġchocol ate
om y
Ġrec ons
Ġgif s
Ġne bl
Ġkill ers
Ġbuy back
Ġsand wich
Ġtemper ature
Ġf are
Ġstabil ized
Ġsacr ific
Ġthis gu
aire s
Ġdel usion
Ġgrav ity
ou ver
Ġwr aith
g w
Ġp ens
f idelity
Ġde ck
h ed
Ġbr ack
he es
Ġinf ected
let te
ail ed
Ġn iet
Ġinstall ing
Ġvenezue las
Ġb ing
Ġagn ostic
Ġh en
Ġlong ing
Ġdest ined
Ġtend ency
rep resent
Ġth ick
want ed
Ġw itch
Ġtr ials
Ġd ah
Ġk am
Ġabs ence
Ġspectac ular
Ġlo ver
Ġcomp ra
Ġdownload s
al ph
Ġstuff s
Ġtim ed
cept ive
eth ical
s v
Ġimp lied
Ġcou n
Ġcol ors
Ġfue ls
fr ank
c ame
Ġs op
Ġc fo
Ġcyr pto
Ġcost ing
Ġsound ed
Ġd and
Ġem ission
Ġspo of
le re
uff y
Ġbuff ly
exper ienced
Ġl one
cl udes
Ġregret ting
Ġcoinbase btcusd
Ġpop ul
j uly
Ġins ure
Ġnarr atives
Ġcorrespond ing
a verage
est ing
v ard
Ġh m
Ġbras il
Ġthistrib uting
Ġken ya
Ġm others
Ġheart s
Ġap ologies
Ġm am
and reas
iz ar
Ġinst inct
ph il
Ġscal ed
Ġu bs
el t
may a
Ġchr on
yy y
ac ion
Ġchrist ian
Ġdefin es
Ġsky pe
Ġstre ak
h ate
Ġx box
Ġbrows ers
c li
Ġle m
Ġthis k
un ds
Ġopen bazaar
Ġpropos ing
Ġinteract ions
pred iction
Ġha ce
Ġfraud sters
c z
im er
Ġnew sof
Ġz am
Ġconsec utive
Ġe a
ind ic
Ġst fu
Ġsub stratum
Ġaccess ing
Ġb trash
Ġfl ips
cr oss
they ve
Ġmoder ator
ib a
Ġres ident
Ġcredit ors
Ġlas er
z ik
Ġmer chan
Ġal ice
j py
ec rypto
Ġsh aken
Ġbl amed
Ġhar ass
br it
og ue
Ġrec oup
Ġph p
Ġblack rock
chart s
ren s
Ġy up
Ġj us
w tc
Ġa uctions
man ager
r one
Ġaud iting
Ġkryptow hr
in ople
Ġk w
Ġdrag ging
Ġph d
ism o
Ġthisrupt ing
tr uth
Ġfavor ites
c amp
Ġf tm
Ġproject ion
m other
Ġph ases
Ġdefin ing
Ġbt fd
Ġemploy ed
Ġrain bow
Ġislam ic
Ġtech s
ade ce
Ġk udos
Ġm esh
Ġg arn
t ons
Ġinvo ice
ak y
Ġimp ulse
in tern
Ġi ou
bl ue
Ġreview ing
ic ting
ab itcoin
Ġhell a
Ġdo xx
Ġv ie
Ġsent enced
Ġflood ing
Ġpac ific
Ġfav ors
Ġcivil ization
Ġweakness es
Ġshel ter
t il
Ġl yn
Ġs ib
Ġper ce
put ting
Ġbrag ging
Ġf et
Ġdec im
so ver
g ian
resist ance
Ġtransact ed
Ġperspect ives
Ġs word
Ġma fia
ex clusive
Ġissu er
Ġdelist ed
Ġdi y
Ġind ices
Ġw ing
Ġor g
bl ess
Ġdeb un
Ġrbitcoin markets
Ġw ich
Ġne os
eth at
Ġes o
x d
Ġgar linghouse
ap a
te en
Ġmen os
Ġfis cal
Ġgo b
Ġlaunch pad
Ġsufficient ly
ic ian
Ġpse udo
Ġp amp
fort able
gr ayscale
m il
mca fee
Ġdep uty
Ġsurv iv
Ġto ys
Ġz classic
Ġshib e
Ġconduct ing
Ġinaccur ate
Ġmine able
st hey
Ġdo ll
Ġst ab
h its
Ġbit club
Ġhu g
Ġnuts hell
Ġneighbor hood
Ġbl ink
Ġun safe
Ġgrad ual
b bc
Ġs ust
ah hh
ert e
Ġsh en
ks hire
Ġpan icked
ste ve
Ġnocoin ers
pp ers
Ġfair ness
Ġdeep onion
Ġcompl iment
Ġsh am
Ġhead ache
Ġfa it
Ġgim m
Ġk as
Ġman chester
Ġposit ivity
Ġspecial ists
Ġappet ite
Ġbe ijing
Ġcorrect ive
Ġell iot
an onymous
Ġthistr act
Ġf ence
Ġde gen
Ġk omodo
Ġque ue
Ġmo s
Ġrel uct
Ġdemonstr ates
Ġf omod
id ay
Ġorder ing
k ids
val id
Ġcoin n
Ġcoin token
ac om
Ġgam er
Ġencount ered
Ġl ul
Ġtr an
Ġcf ds
Ġpublish es
Ġrep licate
Ġhors es
g ment
u um
Ġd ilemma
Ġincompet ent
Ġetern al
i ye
Ġn ay
Ġdeterm ining
Ġsup rem
Ġbusiness man
Ġnewsof theweek
Ġre k
say ing
Ġim a
Ġlect ure
n en
Ġy z
Ġprosper ity
Ġpl ated
austral ia
p he
ar my
Ġfrequ ency
Ġunve iled
Ġpart e
Ġbur ied
d up
ades h
Ġn athan
af a
jack ing
m at
ard o
Ġshit load
ah ash
Ġcollabor ate
sh ares
Ġrel ating
Ġbook ing
Ġcelebr ation
Ġon ion
ear ning
pel es
b yst
ect ive
Ġaccount ability
Ġinfl ating
cript ions
Ġe ct
all e
ound ed
Ġspec ified
Ġemer gence
Ġdelet ing
Ġcl uster
Ġgover ning
Ġnakam otos
prot ocol
Ġdivor ce
in is
Ġcont empl
Ġg aps
Ġsustain ability
Ġrepublic ans
Ġbit go
Ġwhere in
Ġbrid ging
ic r
Ġg p
ul k
own ing
sim ply
Ġa pl
im iento
Ġgree ce
Ġvi ability
pl ays
Ġplun ging
Ġn un
uct ive
Ġasic boost
an l
Ġxrp s
c ul
Ġc us
Ġnon custodial
Ġany how
Ġcentral ize
Ġmet aph
for um
fr ames
angh ai
Ġfull time
Ġsmell s
saf emoon
dancing wojak
bitcoin news
Ġzksn arks
v w
Ġthis able
Ġbuck le
op ath
ang le
Ġiran ian
Ġpes o
Ġsarcast ic
Ġinc ase
Ġlabel ed
Ġh og
Ġwinning s
Ġa j
Ġhe ating
ĠĠĠĠ ĠĠĠĠĠĊ
Ġpeace ful
Ġfortun es
Ġim ma
Ġgent e
cust omer
Ġinfam ous
ace y
acc um
iz able
y ay
Ġs lp
al tern
not ice
r m
am ple
sp ent
Ġcas a
Ġa ument
Ġwh ining
Ġcryptos pace
Ġarrog ant
Ġres ign
Ġha bits
Ġacc omp
Ġfuck ers
cent ric
Ġbast ard
h ocam
s at
Ġcounter part
Ġi ost
Ġf red
Ġj ason
Ġcalc ulating
Ġcro oks
Ġd war
th ise
any e
oc urrency
Ġge opol
ci os
Ġsmartcontract s
Ġbu ry
Ġll oy
ag u
Ġn aming
Ġcon quer
akh stan
Ġemoj i
Ġk ir
Ġexcept ions
Ġthe or
lo itte
Ġacc redited
x c
Ġd ancing
Ġmoment o
Ġm w
Ġd iving
Ġform ally
Ġbenef ited
Ġdes irable
Ġmar riage
Ġprefer ably
h ear
most ly
Ġbuy in
sol ana
d iam
Ġreck less
p redict
Ġl ma
Ġinform ations
Ġbast ards
Ġacknowled ged
Ġas ym
Ġwaste ful
Ġtr ough
Ġmeas uring
Ġtransport ation
Ġre fr
Ġr ides
Ġrep air
Ġimp ending
i ams
Ġd ere
ic as
Ġban anas
h app
Ġa yn
ud ed
Ġcent uries
Ġg or
Ġre think
Ġho oked
Ġs und
Ġmod um
mont real
Ġclint on
Ġm ouse
Ġyell en
s up
Ġswitch es
Ġval ent
ull y
Ġplummet ing
Ġquadr up
Ġjurisd ictions
ous d
Ġthought ful
Ġappear ing
Ġse u
im os
bitcoin cash
Ġco lored
Ġmur d
Ġdup licate
at m
Ġk night
Ġcent rally
Ġbug gy
Ġemploy er
t ags
Ġw if
Ġcryptoc u
ĠĠĠĠĠĠĠĠĠĠĠĠĠĠĠĠ ĠĠĠĠĠĠĠĠĠĠĠĠĠĠĠĠ
Ġch ad
Ġpass phrase
Ġco gn
Ġinv ites
Ġpan els
Ġcompat ibility
Ġu b
Ġrum our
Ġrub bish
om s
Ġide x
tt tt
Ġexp ir
Ġgull ible
Ġcop yc
Ġpione ers
Ġtik tok
h unt
Ġre sell
Ġse pa
Ġinv isible
Ġmon ies
Ġgovern ed
Ġcryptoass et
Ġcryt po
the ast
fant astic
y er
Ġba ff
Ġsp arks
stud y
Ġp ent
Ġr doge
Ġrisk reward
Ġho ax
ici encies
z one
Ġw ag
Ġbitcoin but
Ġob v
Ġrecomm ending
Ġneg oc
Ġe gypt
Ġby bit
Ġiniti ate
crypt ow
sth at
in f
Ġunt uk
Ġmultib illion
a gh
f are
act iv
Ġteen ager
Ġag ric
Ġconst itution
Ġadvis er
Ġqu ar
Ġunre liable
Ġali ens
Ġb k
ric a
Ġcraig s
complete ly
Ġm ansion
Ġrec om
h k
Ġpe an
Ġmon aco
Ġmid term
Ġknock ing
Ġreflect ed
Ġcont ender
expl ain
Ġprivile ge
Ġw k
se ven
est e
iz ab
Ġpat ri
Ġtrust s
Ġweb ull
Ġportug al
Ġn air
Ġst y
bit mex
Ġinequ ality
Ġparath ise
Ġex iting
Ġenvironment ally
ment ion
Ġas c
Ġky ber
x m
Ġso ooo
Ġspr int
Ġh bar
Ġconver ts
ge l
Ġk ab
lm fao
Ġbrazil ian
Ġvision ary
Ġha il
Ġif when
Ġtap e
Ġfun fair
re ason
Ġstr uck
Ġt ien
Ġprov ably
fun ds
Ġpo le
jo b
Ġsmash ed
Ġwrit ers
Ġfirm ware
Ġpseud onymous
Ġstub born
Ġn ouve
Ġconfisc ated
Ġand res
Ġg g
Ġout p
Ġabsor b
Ġbyzant ine
p d
Ġpr ix
Ġser ial
f ood
i quid
Ġins ol
Ġpenal ty
hip s
q a
Ġt ong
Ġmon eros
an za
Ġauthor itarian
k ill
w alk
Ġmo e
Ġfire fox
Ġyell ing
Ġcomp ounding
Ġthr ows
s al
Ġdetr iment
Ġkar peles
Ġjp m
Ġr ak
Ġb ike
Ġw ir
Ġfr ag
Ġcy pto
Ġrou lette
Ġd oin
Ġintern ationally
Ġcombin es
Ġfas c
re r
fe ature
Ġweigh s
j ump
we ird
Ġkr ug
z u
is rael
Ġt n
Ġlo bb
Ġinv esto
Ġam ir
fe ll
Ġorgan isation
Ġbos ch
j f
Ġl ion
Ġch est
Ġsyn chron
Ġobst acles
Ġlarges cale
Ġfirst ly
Ġav atar
Ġn ouriel
Ġsim ps
Ġpol ar
Ġblack list
Ġp ago
Ġstagger ing
Ġab er
Ġimp erson
Ġsemin ar
circ le
Ġvill age
Ġno ch
Ġuncom fortable
in v
Ġmu g
Ġrec ipe
ars a
Ġell iott
Ġoppos ing
Ġchildren s
p k
Ġlot to
Ġexplo res
Ġp ains
Ġton y
ĠĠĠĠĠĠĠĠ Ġ
Ġphys ics
Ġmot ive
Ġcrowd ed
m atch
ip ay
Ġdeb acle
Ġdod gy
Ġax ie
r btc
Ġfrustr ation
com bitcoin
Ġexperiment ing
Ġb ent
ist o
Ġro okie
Ġr apper
hu obi
d isco
w en
they ll
Ġcatalyst s
e le
our ai
Ġhom ie
ad er
Ġandgt andgtandgt
Ġaggress ively
Ġch em
Ġcryptom ining
f ig
i at
iron ically
Ġdec lar
Ġpet r
Ġclay ton
Ġs ams
dd dd
Ġspons orship
Ġhost age
Ġcart els
and dump
Ġun ity
Ġadvis able
Ġappreci ating
Ġpr un
Ġhalf way
Ġinvent ory
over all
Ġgrab bed
Ġha hah
Ġpro j
Ġcritic isms
Ġth ou
Ġmiscon ception
Ġp ing
Ġst em
ce lium
ap ol
Ġbase less
Ġcod ers
Ġto oth
Ġab d
Ġsan ction
Ġmo eda
Ġhast a
Ġsuperm arket
Ġex ited
vers ion
Ġconstant inople
w m
end ers
eg g
fort une
Ġcandlest ick
Ġg ens
be an
Ġembr aces
char les
w oke
Ġr ipping
Ġch ia
ant i
d ip
Ġgo at
Ġrec ur
izab eth
Ġse oul
Ġsp awn
ly n
Ġmisinform ed
Ġcom ic
Ġle f
ist as
Ġa an
Ġdefin ite
Ġincl usive
Ġgear ing
de bit
Ġbas ing
Ġcombin ing
Ġbuzz words
Ġdowns ides
Ġgar age
Ġregist ry
hy per
Ġnonex istent
Ġstat ist
u ity
au to
asy on
Ġnail ed
Ġg es
Ġv tho
Ġfr ight
val ute
Ġele g
t em
Ġp ine
Ġbreach es
e ve
Ġl ining
ig ans
Ġbr ute
Ġoper a
Ġembr aced
j ava
n early
Ġo der
Ġmo vers
Ġqu iz
Ġprof ound
Ġrun up
Ġr oles
Ġmad uro
Ġshout out
Ġs ed
Ġbitcoin it
Ġind ians
Ġconcent ration
Ġun follow
Ġpos es
Ġli ver
Ġtomorrow s
c it
Ġcan andt
Ġpu erto
a it
Ġassoci ates
Ġj en
cons ensus
Ġadm ire
Ġlast ing
Ġbo yc
Ġinsp ire
Ġgate ways
Ġre but
is ations
to ff
Ġlimit ation
d ad
Ġfore front
bel ief
Ġobs ession
Ġw akes
se pt
ian a
Ġtrail er
ia o
Ġbyte ball
Ġspec ify
Ġsh rem
Ġimpact ed
Ġex cluding
Ġau x
Ġirre vers
Ġr i
all et
Ġpan tera
Ġtx n
ver ts
step s
me z
Ġshow case
iction ary
Ġveter ans
Ġdeterm in
Ġform a
byst ep
Ġbe y
Ġblock ers
Ġresil ience
Ġex clude
os phere
Ġtoken ize
ab et
Ġqu a
do c
Ġcher ry
Ġcryptomonna ies
j z
of c
Ġcapt ured
Ġvital iks
Ġlo ot
Ġun o
Ġmer ger
Ġap ollo
Ġleg ends
Ġexper iments
Ġtag s
r at
Ġp ok
Ġeas ing
Ġemphas is
Ġgr acias
Ġpow ering
Ġnon stop
Ġshout ing
Ġthistingu ish
Ġy g
Ġprofit ed
Ġbook mark
Ġprior ities
Ġcryptocurrency related
ne ll
Ġforb id
Ġpat ron
Ġc yn
Ġi b
Ġd ik
Ġatt ain
Ġwar r
Ġplag iar
Ġe ag
Ġmall e
comp aring
econom ics
Ġout age
contin ues
umer ium
Ġpay p
yn c
Ġsong s
Ġx s
Ġmisunder stand
Ġunt er
Ġwelcom ed
Ġd us
Ġnu est
expect ing
in n
ress ed
Ġpessim istic
ak an
Ġspec s
Ġu gh
Ġfold er
Ġresist ances
ly or
Ġtime frames
Ġthank you
Ġspons ors
Ġcontr a
Ġaccess ed
Ġindex es
re quest
Ġthe street
Ġacceler ating
f as
Ġbl u
Ġpark ing
w ol
tre zor
Ġnont ech
Ġadministr ator
Ġcertific ates
ib e
Ġp d
in al
ar ia
Ġmo oo
Ġmag az
Ġd ma
Ġl g
Ġclos ure
Ġcomfort ably
o of
Ġblo c
Ġaz ure
n ical
Ġi oh
Ġam pl
Ġsystem ic
Ġste ak
Ġpublish ers
t able
Ġen gin
Ġmin ec
chain link
ale x
Ġth ro
Ġde licious
Ġtime ly
Ġar thur
dav id
Ġcult ural
ere my
Ġcrypto related
ue m
Ġpay roll
Ġbir ds
Ġfell as
facebook s
Ġh w
Ġr m
Ġj osh
dr iven
Ġmanipul ators
Ġover time
Ġmon na
leg it
x os
Ġstep hen
Ġl ira
Ġr ation
Ġab und
Ġwin win
Ġgoog ling
Ġse mi
Ġnue va
j v
s weet
Ġbo bby
Ġintention al
Ġbom bs
Ġpro long
andgt you
are t
Ġill umin
Ġwatch es
Ġbill board
Ġliquid ations
imble w
Ġbre wing
Ġcongress man
Ġcritic ized
Ġisrael i
Ġcr aft
Ġbr ink
Ġdifferent iate
Ġrepos itory
Ġev ade
oc rypto
Ġshor tcom
Ġro gue
ort e
Ġste pped
Ġremo val
hur ry
Ġlo cks
tr ied
Ġconvenient ly
Ġh yster
don ald
d ream
ay an
ard an
Ġlive crypto
Ġnas l
anth rop
Ġrest ric
Ġconsolid ates
ck off
Ġno ble
Ġulbr icht
Ġinvestig ated
Ġr pc
Ġins uff
Ġref unds
Ġaccess ibility
start up
it as
Ġs es
Ġun ethical
Ġgain z
Ġlog ically
Ġb h
Ġgan ar
Ġborder less
Ġt amp
Ġall ot
g ul
Ġx yo
er ate
Ġpe ek
fin tech
Ġnig gas
Ġadmit ting
Ġmaker dao
r ates
Ġw ink
Ġdon uts
sim ilar
Ġmem ories
Ġantiv irus
Ġpen etr
Ġscr am
ain ts
Ġsl aves
Ġd orm
Ġn at
Ġte e
on o
arn ess
Ġst ations
Ġtreat s
Ġsav ior
Ġl ang
Ġwor ship
otic ias
Ġcont ents
Ġcool er
Ġpromot ers
Ġthis regard
Ġgr ay
Ġrece ipt
Ġst unning
au nt
wond ering
pr in
Ġbatt les
Ġadvance ments
pan ic
Ġha bl
Ġne far
is an
Ġsuper computer
k oin
Ġcooper ate
Ġdup lic
Ġf oc
ur ation
m n
Ġthis ingen
os ity
h ome
Ġlog ging
Ġast ro
Ġfoss il
Ġcom er
Ġneg lect
blockchain s
Ġpromot ional
pol ice
Ġth under
Ġh p
ch ool
Ġmar io
Ġelimin ating
Ġwel coming
Ġfl ies
Ġo oo
Ġbitcoin based
th x
Ġdefin itive
min ds
elect ric
Ġsegreg ated
ul ative
Ġu x
Ġla z
min es
Ġshe ets
Ġflag ship
Ġwond ers
sch ild
Ġfree zing
Ġnovel ty
Ġforb idden
wo ah
y cl
Ġtrans mission
h ous
ar gent
Ġthisc laim
post s
Ġolymp ic
Ġa qui
Ġyap t
p ark
Ġ ers
Ġa ol
reet bets
Ġvi abtc
Ġro oting
Ġrecogn izes
part ners
Ġexp end
Ġrecomm ends
Ġoccas ions
un ivers
Ġthat ands
lo ving
Ġfr agile
Ġinter val
drop s
j in
ce lebr
Ġsk im
Ġdesign ing
Ġmicrotr ansactions
Ġbitcoin magazine
act ical
Ġreal ization
fl ip
Ġfreel ance
and ll
gr ad
Ġsist ema
Ġill iquid
Ġmerchan thise
Ġbr icks
Ġo liver
Ġaustral ias
Ġauthentic ity
diff erent
Ġv b
Ġcrypto verse
Ġbeing s
Ġoptim ized
Ġf iction
qu al
Ġread er
Ġwiz ard
Ġamer itrade
sh ipping
Ġdirect ors
Ġsau ce
ad ors
Ġhe fty
ne g
Ġaggreg ate
k ward
Ġw ires
al o
Ġr ipe
Ġrel aunch
Ġnorth ern
mem e
jo bs
depos it
Ġbutth urt
Ġm ik
ass ets
Ġdoom s
Ġtam per
Ġk itch
p as
Ġm k
Ġdef raud
test ing
Ġoblig ation
am c
Ġsim p
lf are
fin al
Ġpen alties
Ġpack ed
Ġdepress ing
Ġi ii
Ġland ed
Ġso ber
Ġkey nes
fam ily
virt ual
anc arlo
Ġis e
Ġmod ify
hist reetbets
Ġguess es
Ġpen is
Ġbo oth
Ġissu ers
c up
Ġgood luck
Ġbeat en
Ġprop s
Ġmother fuck
Ġbuzz word
Ġsys coin
Ġcelebr ates
th ird
Ġtay lor
Ġe lix
Ġboost ing
Ġro gers
Ġstan ford
re qu
Ġwill iams
Ġguess ed
j l
Ġdo j
Ġdirect ory
Ġconc ur
Ġcontin ent
Ġdum my
Ġr ice
tr ig
Ġexpress ion
Ġslow s
Ġpet ty
imblew imble
Ġl opp
ut en
Ġsl ams
Ġhard forks
Ġcirc uit
Ġpc ie
Ġunreg istered
Ġl tf
can ada
Ġhook ers
Ġmanif est
j une
Ġd ang
Ġt c
Ġsp iking
Ġke yst
Ġw ished
Ġv u
Ġachieve ments
Ġthismiss ed
beaut iful
Ġus i
Ġund eni
Ġfun cion
Ġsub tle
Ġimplo de
Ġp ym
Ġch ess
Ġpre ca
Ġpump anddump
Ġexp oses
Ġde y
Ġsu pers
apr il
news btc
Ġincorpor ated
Ġpro lly
Ġno on
Ġairdrop ped
Ġsusp end
se ed
Ġvol um
Ġest n
Ġve get
Ġs ont
Ġun this
c ation
Ġis so
Ġtrade offs
Ġroll up
Ġtur b
Ġsh ipped
un ited
ient e
Ġchallen ged
Ġonto logy
Ġj ah
Ġfind ings
Ġdis claimer
r ising
Ġal um
Ġor o
em ot
ase ico
Ġemer ges
Ġspect re
in te
our ced
Ġet p
Ġcal vin
Ġrecogn izing
Ġspin ning
re uters
Ġto ast
Ġk un
Ġbureau cr
dup licate
Ġwan nab
Ġdeval uation
Ġcur b
Ġmot ives
Ġcontrad ict
Ġreact ions
Ġnefar ious
Ġsym metrical
Ġcoinmarketcap com
Ġminec raft
as ic
Ġst ir
Ġst if
op ro
Ġback ups
mic ro
Ġarab ia
Ġsyn cing
Ġexecut ing
Ġthistr ict
Ġk ool
Ġthisapp ears
Ġreject ing
Ġli able
Ġhead quart
Ġdur ation
Ġspell ing
quant um
Ġh ikes
Ġthisappoint ment
b w
Ġproject ions
Ġtrans acc
k id
Ġsh er
Ġawa it
Ġmon ument
Ġltc usd
it ating
Ġadv ancing
Ġin k
Ġexp o
Ġguest s
Ġp ets
Ġinvest ir
Ġshits how
Ġcripp led
Ġoverlook ed
Ġapocaly pse
an im
Ġuser base
Ġth i
Ġs ized
Ġalex ander
to f
rs i
set t
Ġtestim ony
Ġd ing
ar g
ton ight
att ered
Ġre imb
Ġv ending
Ġar ts
Ġadv ising
Ġdoubt ful
sec ret
Ġbreat he
Ġlad der
de l
Ġcl ubs
st upid
ton oticias
Ġboll inger
Ġambass ador
Ġcheap ly
any a
Ġtr u
Ġsh anghai
Ġhash tags
Ġgeorg ia
Ġor iented
Ġoran ges
Ġengin es
Ġt ng
Ġwreck ed
Ġther ap
it udes
Ġc g
em os
Ġtem p
Ġow ed
im ag
ia c
spec ial
pro ve
Ġcop s
Ġba j
prot ect
Ġscrip ting
Ġrecons ider
Ġc ny
Ġk ann
Ġden mark
d ar
ik i
ier a
Ġash amed
Ġgrab bing
Ġlift ed
Ġg art
ied er
every time
Ġk art
Ġide ological
Ġext ensions
Ġpromot ions
Ġosc ill
b ust
book s
Ġslow ed
Ġscr ap
Ġreact ing
Ġcriptomoned aseico
oc om
Ġed e
Ġelimin ates
Ġgur us
Ġsa ga
Ġvisit ors
Ġbrows ermine
Ġteach es
Ġsist ers
Ġl ane
ph ys
b our
Ġh ath
Ġtw ow
Ġpu nt
Ġshill ers
Ġdeplo ying
Ġthis respect
Ġma ver
Ġb ac
Ġto es
Ġthisc losed
Ġhodl ed
Ġterr ibly
Ġastronom ical
Ġcryto currency
un s
Ġab ys
Ġcypherp unks
d ang
Ġgovernment al
Ġgoog led
des ks
Ġline up
par a
analyst s
disc uss
Ġevol ves
p oll
re ate
ins ider
Ġboost s
Ġantif r
Ġa ay
Ġus ar
Ġwo of
Ġconsolid ated
Ġred irect
Ġk m
Ġcoins ph
br ief
Ġteach ers
Ġm kr
Ġorigin s
ur l
Ġrestr iction
olog ically
e ed
Ġcar los
Ġcf d
Ġwhe els
exper ts
Ġwe lfare
Ġrel ates
comm unic
Ġplataform a
m ir
ch air
up dated
Ġspec ies
Ġprotect ions
who a
Ġfire s
Ġintrig uing
Ġstum bled
Ġj ac
no vember
Ġcanad ians
Ġbranch es
v q
Ġha hahaha
Ġcryptoc r
Ġpes os
Ġf ought
Ġce le
Ġbottlene ck
Ġn ive
Ġcolor ado
Ġc in
Ġm ash
Ġdo able
Ġinnov ators
Ġcryptot rading
Ġv at
Ġtr im
Ġmu se
Ġpaypal rxymarketcomments
Ġcongr at
je ff
Ġcoing eek
b id
Ġs adece
Ġf tw
Ġbottom ing
Ġlog s
Ġgambl er
Ġbom ber
Ġdr one
hy pe
project s
Ġexhaust ed
Ġpar ody
Ġhapp end
Ġalgorithm ic
Ġneck line
Ġh ocam
Ġmis lead
se veral
Ġca fe
Ġwy oming
Ġafghan istan
Ġme hr
ne x
Ġgreen er
hodl ers
develop ers
c lock
Ġred es
op ed
Ġcan aan
Ġaw kward
Ġsw allow
Ġto pping
Ġbitcoin blockchain
Ġal c
Ġstep bystep
Ġthisingen uous
Ġc et
Ġg uts
Ġmy celium
Ġdam aged
Ġfin ed
Ġf ist
g ains
w i
Ġsw ethish
ac to
Ġm ary
ip se
ge v
Ġfact ual
Ġdat as
anal y
Ġpun ished
Ġun ified
fe b
Ġchill ing
p iv
Ġdef ends
Ġanticip ating
Ġalar ming
an igans
Ġpupp y
Ġredd coin
Ġh q
Ġfacilit ating
Ġunprof itable
c ia
Ġd k
Ġwh opping
wr iting
Ġsy d
Ġpet ers
luck ily
Ġst eroids
Ġse iz
Ġexplain er
Ġfa iry
Ġdub ious
b ia
Ġy ar
Ġz rx
in et
Ġto s
Ġin app
Ġex its
ak r
str ats
Ġhero es
Ġcrypto vest
Ġmess y
Ġr idd
Ġwe i
Ġbtc bch
iz acin
Ġz o
ye h
Ġre op
Ġbill y
Ġfan boy
Ġquant itative
Ġf g
ja ime
Ġbutt ons
j q
o ons
Ġsu es
Ġpre ach
Ġproced ures
ack ed
Ġob fus
g irl
p rem
Ġmult ichain
Ġcongress ional
repl icate
Ġto pp
re ct
Ġab used
Ġpand d
mem es
Ġk ios
lic ensed
Ġsc umb
Ġmiss es
give away
Ġcommemor ative
Ġwh im
Ġse attle
Ġcar ol
ac ent
Ġrep orter
Ġcur t
Ġmay er
Ġquestion ed
r io
Ġvis ions
y ess
Ġchar itable
Ġprop onent
Ġcon gl
ral tar
Ġint ere
Ġcomm e
az o
man n
comp are
Ġinvestig ations
ig an
Ġpix el
Ġthiscip line
r andom
Ġpro y
Ġlow ers
Ġre ct
th s
f its
ost o
invest ed
Ġup swing
d ivid
Ġentr ance
est ate
Ġb ark
ie v
Ġover taking
fr aud
Ġbir az
Ġaust ria
Ġblank et
Ġconcent rate
Ġts la
Ġdeth rone
Ġbr ush
Ġban ana
Ġstart ers
ign ature
len et
Ġsusp icion
th an
Ġconc ert
Ġexplo its
Ġident ifying
Ġexagger ated
Ġioh k
r ont
Ġdeval ue
Ġk nc
Ġbrainw ashed
f chain
w ear
Ġt read
Ġa pt
Ġb idding
Ġchat ting
s am
Ġt its
Ġd ictionary
st ory
Ġq sp
cr oll
ext reme
accept able
Ġnum b
a que
le ave
Ġsh arks
bon us
Ġc ache
Ġext ending
Ġand a
Ġint eres
Ġmar vel
Ġb d
Ġat tr
Ġfile coin
Ġmis ery
Ġslo ven
tit le
s ite
Ġcr ipple
Ġsil ently
Ġide als
ann ounce
z oom
Ġn ug
Ġprem ature
mus k
an et
Ġkey note
c atch
Ġn z
Ġpat ients
dep ending
Ġp ms
im m
Ġtrans lated
Ġvenezue lans
Ġsant ander
Ġin verted
r ah
Ġart k
jo e
Ġgrand e
ws j
Ġelimin ated
Ġfer r
Ġch ats
Ġmot ley
Ġpym nts
Ġt ire
Ġme i
Ġsqu ares
Ġcook ie
ur b
Ġut xos
Ġsepar ately
Ġcrypts y
g ium
Ġd ism
fr iday
Ġc st
Ġn x
ar ium
Ġqu orum
im f
Ġpath s
Ġbroad ly
Ġsent ences
Ġstructure d
Ġaw aken
br ian
Ġt ad
Ġhighlight ing
Ġam ass
Ġn osed
Ġsh ards
Ġover re
there fore
Ġenv y
Ġdownt ime
Ġcam bridge
Ġape x
Ġthiscour aged
ess o
it an
Ġtrans mit
Ġpar r
Ġregard ed
Ġbook ed
Ġt asty
Ġb ib
Ġp ts
pr ime
re wards
Ġe er
Ġexam ine
Ġvar ies
Ġrethistrib ution
Ġware house
l h
in nov
Ġl ake
Ġcl out
poly gon
Ġbit wise
Ġcongl omer
Ġimp uls
Ġbear ing
Ġnocoin er
br ave
ar se
Ġsur fing
Ġfoot age
Ġl ith
the w
en abled
im ple
Ġtour ism
od ed
Ġma iling
ado x
Ġcens oring
Ġorch est
f ish
ov o
Ġattrib uted
g aming
Ġoblig ations
se ction
Ġtcp ip
in ate
ap art
Ġsto ked
Ġcit adel
Ġbullet proof
Ġquar ry
Ġpr x
f rench
Ġprop ped
Ġom ni
Ġcree k
h ay
ou red
id ades
Ġdip l
segwit x
g ur
am en
el a
vent ure
Ġcommit ting
Ġbail ed
Ġag ora
Ġnas cent
Ġing en
Ġmagaz ines
l ining
Ġpupp et
Ġgrind ing
er as
Ġpl ague
Ġjud gment
Ġdoub ting
on ies
Ġz ijn
hack er
Ġukrain ian
Ġsist em
Ġtrave lling
de b
Ġcl ou
ler in
Ġdefe ats
Ġseam lessly
Ġsubpo ena
Ġcy pr
Ġyea rend
Ġcros sover
Ġy ine
Ġun used
per ate
Ġnu ke
Ġto e
Ġquadr illion
Ġnex us
Ġston ks
Ġinteroper able
ren a
pie ce
Ġarr ival
Ġremind ing
Ġupt ick
Ġc bs
norm al
Ġtxt x
Ġh ib
he x
Ġshortcom ings
Ġf ca
Ġdig ix
Ġtab les
Ġgener ational
Ġsequ ence
Ġhad nt
Ġrest ored
Ġbenef iting
so le
ha o
in str
Ġpre st
Ġcorre late
Ġmar athon
Ġgar zik
ul u
Ġhar vard
Ġsubsid y
wall street
Ġfat al
Ġb ats
Ġx yz
Ġdefin itions
Ġlegal izing
Ġl ender
Ġtremend ously
Ġandres en
Ġunder perform
Ġold s
ver ified
Ġrand d
ste em
Ġclean ing
Ġblat antly
Ġchar m
Ġf w
ll en
Ġmed ias
Ġair lines
Ġtar iffs
Ġathlet es
Ġa cept
it ands
pr ing
Ġauthor ized
Ġat l
Ġwho ve
under stand
j b
Ġb p
Ġl tim
Ġflex a
Ġha wk
Ġres h
Ġthisc redit
Ġatm osphere
s aid
Ġbefore hand
he ld
Ġkard ash
Ġatt ended
Ġbro ck
Ġt ort
id i
Ġdiv is
Ġshen anigans
Ġs re
Ġh tc
Ġcond em
Ġintu itive
Ġl b
Ġapp oint
erm ind
Ġsk ins
Ġsound ing
Ġexcept ional
Ġphil anthrop
Ġmut ually
l isk
x e
Ġcl ues
Ġfun nel
dr ive
Ġpleas ant
Ġlur king
diam ond
chain ed
Ġmid st
Ġbit r
Ġarr ow
Ġdis app
Ġve gan
Ġtrad ition
Ġalt a
Ġbro ok
ru le
Ġsab ot
Ġaffili ated
Ġpr ud
Ġwil son
ff ee
Ġloom s
val ent
Ġthis crimin
Ġad vers
Ġhur ric
Ġsky coin
Ġepis odes
Ġtr as
Ġsk rill
Ġexpir ation
Ġqu oting
Ġclamp down
Ġp unk
Ġd cr
Ġtribal ism
it os
Ġgre et
Ġber kshire
Ġbe ans
Ġfit ting
Ġshap ing
Ġtab s
Ġdo ctors
ant es
Ġcomm ence
Ġtak ers
Ġfire wall
Ġlend ers
decentral ization
if ier
Ġwo es
Ġcypherp unk
Ġsch olar
Ġpolit ically
ipp ers
Ġdecl aring
ch ip
Ġwh ol
Ġbr on
Ġnot ch
Ġbuying selling
Ġpo et
pres ale
Ġs ans
ty p
Ġclar ified
Ġsynth etic
Ġdecou pling
Ġy i
Ġte kr
prof ile
win ning
Ġsu a
x h
or us
Ġdr gn
Ġgain er
Ġzomb ie
th read
ii i
fal se
Ġr ings
reg ulated
pp l
Ġex cluded
Ġscrew ing
Ġadmitted ly
Ġgree k
Ġab ilities
Ġflight s
Ġsou theast
Ġdesp air
l ite
Ġn eden
Ġtech no
Ġtermin ology
m el
ed i
Ġdecentral izing
prof its
Ġsab er
Ġcru ise
Ġt k
Ġso y
Ġrun ner
Ġgrad uate
Ġcoun sel
or i
chan ger
w l
Ġindivid ually
Ġdict ator
Ġbrack et
mention ed
Ġthere ll
Ġsch w
Ġspecific s
g z
pr oud
Ġgenius es
Ġqu ot
Ġopport un
g pu
Ġfirst ever
Ġol abilir
link ed
certain ly
g reed
Ġup front
be come
bur gh
coin marketcap
Ġne ces
Ġbas es
Ġrevolution izing
Ġcrit ique
Ġfrid ays
mes i
q e
r ne
Ġfr on
ci as
Ġpre o
Ġlet ands
Ġponz is
Ġstick y
Ġele ph
Ġinstr uct
andlt andlt
Ġm und
iz ers
Ġss d
Ġeld er
p onsored
Ġma i
Ġstr ive
Ġaccount ed
Ġcu enta
jam in
rece ive
f v
Ġmill i
Ġhalving s
Ġthiscover ing
Ġun healthy
vel ope
ond a
Ġless en
ra it
Ġpol and
Ġpe arl
he av
Ġcontrib utes
Ġdraw backs
s atos
Ġrevers ing
gener ation
Ġinvert ir
Ġbel t
will ing
hahah aha
Ġu c
Ġpoore r
ipp er
Ġrefere ncing
Ġr ib
an onym
t coin
Ġco oking
Ġexplo iting
reth trader
Ġp aus
Ġan ime
Ġsw ipe
Ġg eri
Ġnor way
Ġd gd
Ġmon edas
Ġfacilit ates
Ġstall s
Ġsubsequ ently
o il
Ġass ault
anc ouver
Ġwan chain
Ġauss ie
Ġun changed
man ip
Ġd g
im press
Ġk es
Ġexp iry
be y
Ġgee ks
Ġsa if
Ġentire ty
Ġformer ly
Ġh ight
Ġoff ended
Ġste er
au gust
Ġpre aching
Ġnas a
met a
r ather
Ġn ad
Ġarr ay
in tell
Ġin experienced
al on
Ġcapital ists
Ġc uck
Ġm g
Ġh arness
Ġdifferent i
Ġkidna pped
Ġthise ase
n r
Ġfru ition
Ġoff ensive
Ġday today
Ġbinance btcusdt
Ġwire less
Ġz um
Ġcollect or
ab yte
Ġsm iling
Ġpersonal ities
Ġn c
Ġprogress ion
Ġutil izes
ff le
Ġdomin ation
d est
Ġs x
tf w
Ġnov a
Ġgo lf
Ġse ats
Ġsim ulation
Ġk lay
oo h
wr itten
Ġobst acle
Ġm co
Ġe aster
Ġr app
Ġmill en
Ġst al
Ġseg u
Ġsingular ity
Ġdest iny
oph er
Ġc es
Ġcommun ism
Ġprotest s
Ġintrig ued
Ġn uls
oll ars
month ly
ant onop
em bers
bel ensay
Ġten er
Ġmyth s
Ġmiser able
w ick
Ġlat ency
Ġmet er
Ġdevast ating
Ġtsh irts
regul atory
Ġsyd ney
Ġh orn
ay e
Ġhe m
Ġnew egg
Ġas p
Ġcr amer
Ġread ily
Ġsucceed ing
b ah
Ġcreat ivity
Ġdeleg ated
i ere
Ġconv o
Ġwright s
Ġdecou ple
Ġand amp
Ġg op
Ġsur gery
Ġblo at
ler de
Ġanx ious
Ġestim ation
Ġbound aries
publ ished
Ġlef to
Ġr dogecoin
n atur
Ġoptim ize
g ral
Ġm imblewimble
Ġshow er
Ġadequ ate
j as
Ġqu er
Ġcommunity s
Ġbar re
Ġetern ity
c entralized
Ġth y
Ġfin ishing
Ġel izabeth
Ġwy ckoff
Ġcowork ers
t ic
Ġins ults
main stream
Ġr ural
ra iblocks
zz zz
c odes
Ġf als
ct r
st ation
Ġramp s
Ġmetaph or
ar ith
Ġbre ake
Ġn fc
bitcoin ers
Ġscam coin
Ġa ap
ac ry
Ġkey words
disco ver
Ġd iz
Ġrecur ring
ls on
Ġjun ior
Ġwh ist
Ġspecul ated
creat ing
ans wer
aut om
f q
Ġproduct ivity
ball s
Ġloop hole
Ġroth schild
Ġass igned
Ġwa its
Ġspam mers
bit stamp
Ġign is
Ġhar ry
Ġlaugh s
accept ing
Ġsh in
Ġbeh old
Ġgeld i
t ick
Ġass ass
Ġfl av
hist or
Ġboost ed
Ġwire x
d umb
Ġcoin desks
g v
Ġw att
Ġcour s
Ġy oy
andgt and
Ġt icking
re cy
ere rs
Ġmiscon ceptions
Ġmarc us
Ġban gl
Ġkaz akhstan
Ġfck ing
w j
Ġliquid ating
Ġpag ar
Ġinde c
lo at
gr a
br azil
Ġcool est
Ġthr one
Ġtu be
le ft
Ġprice less
Ġti em
hard ware
high er
iss ue
Ġende av
x k
Ġw ieder
Ġde generate
Ġed er
pec ific
arr ow
Ġfill s
Ġsepar ation
Ġhypoth esis
u ase
Ġma ids
Ġthem ed
Ġtrade able
d j
Ġf sa
Ġun acceptable
Ġcontr arian
Ġur an
bur ger
Ġbrit ain
Ġsympath y
Ġp k
ha i
blo od
pra ise
z ze
just in
Ġserious ness
Ġto wer
im ir
Ġrent ing
fur thermore
Ġstoch astic
Ġols un
h em
Ġmn u
eng ine
Ġj ind
Ġcomm ing
Ġpress ing
Ġpier ce
Ġst ad
Ġsmash es
Ġstr uct
Ġweight ed
Ġb end
Ġpe as
Ġweb page
Ġbe le
Ġam using
Ġkick starter
ard ed
Ġque ens
Ġow es
Ġmod ule
Ġspam med
Ġle ash
Ġaven ue
Ġgo oo
il ot
Ġz or
Ġwom ens
ist e
ag ne
Ġco vert
d ire
Ġd ong
Ġcur se
Ġconf ront
Ġpeer coin
Ġdoxx ed
s umm
u ent
Ġh ic
Ġins ulting
yen i
Ġintens ifies
Ġpl ed
Ġpar adox
Ġkrug man
Ġde loitte
v on
Ġk anye
Ġutil ization
Ġcert ification
Ġsepar ated
Ġc io
Ġbase line
Ġeval uating
Ġde ceptive
Ġautom ate
Ġblockstream s
s ending
y an
ip her
Ġassem bly
Ġeng ul
inc red
Ġreli ant
rev olution
Ġc ual
Ġde i
Ġjan e
Ġprogress ing
qui ry
Ġand y
Ġinflu ences
Ġkyc aml
ich e
iss ued
Ġcare less
Ġdub bed
Ġvigil ant
Ġn int
Ġat andt
Ġlun ar
ri ad
Ġscream s
our cing
btc btc
Ġserv ic
gif emoteemopack
Ġmexic an
Ġhodl s
Ġlim bo
Ġg mail
ur se
Ġed iting
Ġindustry s
graph ics
master card
Ġu ks
Ġstabil izing
Ġprosec utors
Ġn chain
Ġreal y
Ġp ant
bitcoin ization
Ġonly fans
low er
Ġsam ourai
emon th
m medium
Ġanarch ist
Ġpymnts com
we ak
Ġroom s
Ġecl ipse
Ġaay ush
Ġmar ry
Ġblo kt
Ġtum bling
Ġovert aken
gg gg
Ġl is
Ġsqu ad
Ġdebun ked
Ġa es
Ġw ether
od a
ag rees
ind er
Ġvolunt e
Ġunderestim ated
ter ies
Ġpump ers
co very
Ġmag net
Ġtrain ed
Ġobject ives
Ġdimin ishing
as ide
Ġdrag ons
Ġcarto on
in able
pl enty
hy p
Ġl ads
go v
Ġinfl ows
Ġacceler ates
d ent
Ġde ll
ab ove
Ġmat ures
Ġsatell ites
gev ity
Ġnot orious
id ency
Ġupv oting
Ġkne e
Ġcom ers
Ġun proven
Ġalt lar
Ġrocket ing
short ing
Ġs ons
oh h
Ġev apor
Ġignore s
Ġpros pective
Ġi ous
Ġlif ting
Ġze it
d h
o e
Ġnot ified
sh ut
Ġobserv ations
a urs
Ġun load
Ġres um
add itionally
Ġrenew ed
Ġmnu chin
a es
Ġl anz
pro claimed
p on
Ġf ishing
en ough
Ġre write
Ġk us
Ġdeath s
Ġquit ting
u f
Ġp ave
Ġpres ume
Ġinte gral
put in
Ġkle iman
Ġm ow
Ġun int
ud ing
Ġtun nel
Ġoutlaw ed
Ġy l
igh th
Ġrad ically
poss ibly
g erm
Ġhead er
Ġisol ated
Ġirrevers ible
Ġr dd
Ġar as
Ġprofess ionally
Ġeth trader
pre c
Ġst ones
Ġfulfill ed
mean ing
k it
Ġd lar
Ġre ff
Ġmultip lied
Ġover due
Ġrevers es
Ġv ids
Ġb ps
th us
ans on
andgt this
Ġbitch ing
high ly
Ġree val
Ġtransf ered
d ling
angu ard
Ġh tf
Ġfr anch
Ġmuch o
Ġbitmain s
Ġglass es
ust ry
Ġam big
Ġel a
Ġb f
nt u
fed eral
pe ed
Ġshare holder
Ġcritic izing
Ġbtc price
Ġte h
Ġwar ri
Ġfan atics
intern ational
re minds
Ġdefin it
liquid ity
d utch
Ġsupp liers
Ġop ort
Ġbit es
Ġl ind
Ġj eremy
Ġoutperform s
gam bling
c ond
d ub
on aut
Ġc net
er ting
Ġj ung
Ġthey mos
Ġaf loat
Ġemploy ers
n ic
top ic
out ing
d l
Ġdef a
Ġm ue
Ġgo o
ci us
remind me
Ġdooms day
g reet
ck er
r ome
Ġo ops
Ġtr inity
Ġpod ra
Ġbreake ven
Ġt iger
Ġb ij
se ly
Ġch ile
found ed
Ġkitch en
Ġad block
Ġthisclaim er
Ġr aces
Ġcon form
Ġsafe guard
person al
d im
Ġcoins peaker
Ġty ped
Ġant es
fact s
Ġcam eron
ill s
Ġoccas ion
Ġendors ed
Ġgimm ick
andgt it
Ġperce ive
Ġban cos
Ġeur opes
Ġneighb ors
Ġf oster
Ġmu ito
Ġque bec
Ġattend ees
ry an
ep ic
Ġcoll usion
mon day
Ġobject s
Ġmalle ability
s and
Ġd ated
rcryptocurrency comments
Ġa aron
Ġqu ery
Ġview point
Ġfath ers
Ġreluct ant
Ġer g
Ġmirr ors
Ġl ays
Ġbtc d
ff e
sc al
Ġth umbs
Ġprogram me
Ġmonet ization
Ġlud icr
a ver
de vs
Ġapp ointed
part icip
Ġl ined
ar an
pe g
w ild
Ġe w
Ġword ing
Ġphotos hop
Ġcbd cs
we lp
fre edom
v b
id as
Ġsupp lier
Ġshort ers
Ġinfl ow
Ġstrugg led
Ġc ay
eff icient
Ġsight s
Ġjind al
c ad
Ġfree bitcoin
con firmed
Ġmis gu
Ġlobb ying
Ġint im
Ġproy ec
h ind
Ġdev ils
Ġmily on
n vidia
Ġr ails
irs iniz
Ġwif es
Ġwarri ors
now ledge
americ a
f arm
p ots
Ġd ic
im ho
Ġwe ir
Ġar med
Ġequ ate
Ġlon gevity
f tc
Ġse aled
Ġpre fers
br ows
Ġstrength s
crypt ot
Ġsatisf ying
Ġinch es
f ac
i em
Ġus o
Ġbern ie
Ġund o
exp ensive
Ġpe e
Ġretweet ing
m arch
Ġd wind
it utions
ke ll
Ġbrand ed
Ġnov ice
Ġbu en
Ġfb me
Ġb ree
Ġsubject s
Ġbreat her
Ġarrest s
Ġanarch y
Ġgee k
Ġw and
Ġfe l
Ġutop ia
Ġslipp age
Ġcolomb ia
Ġmaver icks
ian o
n m
Ġf uss
Ġnew bs
verse ly
Ġdocument ed
g ang
Ġsl ope
Ġuna ff
Ġfor fe
Ġnow i
Ġd ari
Ġh ut
Ġle o
Ġab sol
Ġgen e
Ġt ainted
Ġtr aps
Ġsp oon
Ġsho e
al gor
Ġen roll
check out
off ic
Ġorgan isations
m ix
s us
Ġy um
Ġins ur
rr r
Ġo re
with in
Ġgad gets
Ġaccommod ate
ot ero
Ġtur no
Ġcol our
Ġadap ted
Ġevange list
ant ed
Ġautom od
Ġfaith ful
Ġthiss ap
n ational
Ġun happy
Ġsl ash
Ġed ward
Ġcrypt ic
major ity
Ġn t
st age
Ġr v
Ġrebrand ed
Ġsour ced
Ġabund ance
ar ma
as is
oc tober
Ġlimit less
Ġbasket ball
s ed
Ġe b
od o
Ġes se
Ġposition ing
Ġperform ers
Ġru bles
jour nal
trig ger
Ġs nd
graph ical
Ġtur d
Ġcryptocurren y
Ġtekr ar
Ġout lines
man age
Ġant pool
Ġintern ets
Ġblockchain powered
e pt
Ġh oc
Ġcopyp aste
init ial
Ġmay weather
Ġthisagree ment
exc iting
Ġorgan ically
Ġm one
Ġhands ome
att an
Ġunivers ally
btc s
Ġest ar
Ġoffic ers
Ġaud itor
Ġhe ated
Ġinf act
room s
j ay
Ġde me
Ġgi ancarlo
un no
track ing
Ġcar a
atos histreetbets
mo ved
Ġmig rating
Ġcyber crime
Ġf ilt
Ġthis gr
Ġlong time
up d
per cent
Ġrat ios
Ġadjust ments
Ġdent acoin
Ġpomp liano
z ar
Ġj os
every ones
Ġmetropol is
l ent
Ġd icks
il tr
el ed
Ġapproach ed
Ġfudd ing
t ec
Ġbet ray
bre aks
Ġvoor hees
cont act
Ġincorrect ly
Ġswim ming
Ġbo on
Ġbank notes
aw k
Ġc pus
Ġpro c
Ġdecentral and
Ġfo i
Ġk md
ab lo
Ġcir ca
Ġball oon
Ġmoder ation
ty pe
Ġcoordin ate
n iger
Ġon wards
Ġim di
Ġel it
Ġbo e
Ġoccas ional
Ġfunn iest
Ġgeopol itical
Ġchop py
Ġpast ed
jaime otero
sh ad
Ġshr ug
igr oup
d w
Ġb m
Ġho e
Ġle aps
Ġteth ered
Ġrend ering
Ġhospital s
Ġaston ishing
Ġk ol
cap s
coll ect
jun ction
Ġrush ed
Ġacceler ated
child ren
t as
Ġyuk ar
Ġc av
Ġmon a
Ġlog os
wal ton
Ġf aked
Ġas hes
Ġtr aged
og a
Ġsou ls
n ick
Ġple b
ur i
Ġsl op
Ġbs apr
j ames
Ġsign alling
ores ize
Ġbsapr oresize
Ġd ame
Ġo y
Ġor bit
Ġmicr ostrategy
Ġmit ig
Ġphilosoph ical
Ġar sen
Ġbitcoing old
Ġsl iding
origin al
g im
sh op
ess en
Ġbec uase
pol oniex
Ġg z
Ġit the
Ġpro st
ec om
Ġsuspect s
Ġdia gon
Ġthis connect
Ġacc use
Ġinf iltr
fl ation
Ġdest abil
Ġbitc orn
Ġm ou
Ġch unks
Ġun chained
Ġsoc ially
Ġneg atives
Ġsle pt
Ġhay es
Ġshibas wap
Ġbre w
Ġcryptomonna ie
i eren
Ġbitcoin if
Ġsusp ension
Ġporno graphy
f auc
ap ital
Ġdam ages
Ġpurpose ly
Ġmant ra
Ġn l
Ġpol ish
Ġrep rod
Ġz uck
Ġlog arith
card s
Ġconflic ts
Ġst acey
Ġlook in
Ġwilling ness
Ġwhol esome
ern ity
Ġsn ip
Ġhealth ier
Ġhigh way
Ġrob bing
b uster
Ġus based
Ġboth ers
Ġanaly zed
Ġnons ens
Ġhon ored
Ġcon vey
ach ine
fl ows
Ġdil uted
Ġpursu ing
an ia
Ġy or
Ġripp lenet
Ġcree ping
Ġpunish ment
y k
Ġalt ered
Ġstock p
com mon
Ġmis represent
fund ament
Ġfutur os
appreci ate
Ġwor m
Ġsim on
cong ress
Ġcripto valute
g ree
or os
Ġdis p
Ġpr ag
fr ance
fur ther
Ġtrans m
Ġdoes nandt
Ġbeh aves
Ġvolunt eer
Ġcol umb
Ġun if
Ġback ward
no x
ac an
res erve
ign ore
Ġamazing ly
Ġdrag ged
yah oo
Ġkull an
Ġha mp
check ing
Ġdam ned
Ġobt aining
Ġvalent ines
b ene
Ġli qu
ack ing
Ġfall out
Ġsevi yes
g art
Ġmy crypto
Ġven ue
Ġretest ing
Ġtransform ing
Ġquart z
Ġblind ed
Ġse al
Ġsouth ern
Ġcogn itive
r us
Ġtr k
Ġval e
Ġho vers
Ġreli ably
Ġc pi
Ġsp it
Ġinter rupt
Ġpo v
Ġher kes
v iet
app lic
Ġwish ful
Ġmaids afe
Ġboom s
Ġbitcoin prices
Ġexpl oration
yor uz
Ġip ad
Ġtrigger ing
Ġgifemoteemopack dancingwojak
Ġcook ies
Ġcon sole
Ġbc ore
Ġtight ening
Ġmu d
Ġfil ip
Ġn ord
Ġy ada
op ard
sc aling
at u
Ġcon se
Ġappreci ates
Ġbe ers
Ġeven ly
Ġbank roll
Ġeach other
Ġshitpost s
Ġdecim als
Ġf ml
Ġcnbc s
Ġpal m
Ġcryptoc urrenc
Ġbel arus
over stock
Ġcharacter istic
Ġcowork er
st ars
Ġj ama
ac am
head ed
Ġinfluenc ing
Ġpseud onym
Ġre build
Ġsh ining
Ġmain frame
Ġtrib ute
Ġtecnolo ga
sh ine
zze ology
sh ire
Ġprov ision
Ġrecogn ise
Ġnear by
c ycle
Ġboliv ar
Ġg t
Ġcor da
Ġrefere nced
Ġw iser
own ers
Ġpu edes
ath y
Ġunder pin
li ked
Ġsuper b
greet ings
Ġbel gium
Ġlock down
Ġincomp atible
Ġmaj ors
h ence
Ġp f
Ġpack s
Ġmes es
Ġvary ing
Ġration ale
Ġqu int
Ġthistr acted
Ġotr as
Ġmonna ie
g q
Ġre vert
Ġamaz ons
Ġtrick ed
e in
Ġback door
Ġhal ved
Ġess ay
Ġvac uum
b os
l to
Ġpl edge
Ġfl ed
w ik
fall ing
Ġster ling
Ġcypr us
m all
y ard
Ġj ab
sh ips
Ġbal ad
Ġpullback s
v or
ud ge
Ġest onia
Ġemail ed
Ġrock ing
Ġal tc
Ġsm ug
every day
ic an
r ound
ce ls
ĠĠĠĠĠĠĠĠ ĠĠ
Ġmast ermind
in cent
Ġsal ute
Ġadap ting
Ġlaptop s
Ġbtct ousd
Ġb eth
Ġclo gged
subs cribe
Ġt ighter
Ġto ll
Ġg y
Ġimpr actical
yst op
Ġi a
all a
ite x
Ġtrust nodes
Ġvers at
Ġcere mony
bet ting
Ġcanad as
pl aced
Ġtak er
Ġwrite up
gen eral
Ġvin ny
prep are
Ġbitcoin cryptocurrency
anc ers
Ġav ax
Ġpar ade
Ġinherit ance
et erm
news flash
Ġhede f
Ġinstant aneous
andut mmedium
p x
ut t
Ġz coin
Ġlawmak er
Ġgr up
Ġcirc ular
ĠĠĠĠĠĠĠĠ ĠĠĊ
Ġpione ering
Ġit but
Ġsh akes
ans as
Ġt nx
Ġill iterate
bu ntu
ss s
Ġspell ed
sp read
Ġb ic
Ġal p
Ġman h
like ly
Ġdav os
Ġinc o
g is
Ġu btc
im um
Ġtr ons
Ġby le
Ġminer a
Ġterr ified
turn s
Ġincub ator
Ġinsuff icient
Ġt ge
Ġch i
Ġbr uce
Ġinnov ating
Ġafric as
Ġy ol
Ġmat thew
Ġmca fees
Ġlag arde
ig s
ah l
com bin
Ġsev iy
Ġprog pow
et oshi
ice f
ste am
Ġinvesto pedia
Ġbangl adesh
Ġper p
Ġxrp btc
ede an
Ġcon ced
Ġbitcoinprices stream
Ġban a
Ġbtcusd t
Ġhijack ing
ild e
Ġrecru iting
Ġlaund ered
Ġhs bc
Ġperm ab
Ġma ps
Ġinv es
Ġz hao
Ġspark ed
Ġcoin join
cl ar
Ġrs atoshistreetbets
bs c
oke x
Ġinc ap
ero id
rel ax
p ush
Ġjul ian
j av
man ia
Ġein en
Ġv ender
Ġtake off
ult imately
pr ise
Ġbuild ings
Ġden gan
first ly
Ġimmense ly
Ġatlant a
Ġsmash ing
break out
as a
Ġwh oles
gener ally
Ġu pp
th or
own er
Ġdon de
Ġconver ter
Ġdinos aurs
inte gr
b ies
t ired
Ġchain alysis
Ġvan ished
develop ment
c our
om ination
Ġtr s
oc ash
Ġtext book
Ġaver aged
in ations
Ġde em
ap at
c ents
v re
Ġdedic ate
Ġbors a
Ġx current
Ġgram mar
Ġrup ee
Ġf ont
Ġis p
Ġun licensed
Ġte ens
ec d
ex ample
Ġdraw down
s ale
Ġf ading
f est
Ġcent ered
Ġintermedi ate
Ġwer den
ulk umar
t akes
Ġto bac
Ġn im
Ġdump ster
Ġsubscrib ed
Ġdead ly
ins ert
Ġende avor
Ġc v
Ġk idd
Ġmu lls
Ġaccord ance
s ix
Ġche ering
Ġfront end
second ly
Ġnot ices
ok nowledge
Ġbit mart
Ġclo g
Ġpop per
Ġsuper vis
Ġintern ally
Ġdiff ers
Ġau top
cel ona
Ġmultip lier
surpr ising
t one
qu ery
Ġbo ats
por n
Ġcam bi
Ġemoj is
sept ember
Ġtw itters
nn n
Ġconfisc ate
on i
Ġd zel
Ġpl uto
Ġgl imp
Ġproud ly
at oken
ing ing
Ġthis belief
Ġbeh aving
Ġport ray
Ġdemonstr ating
loc ation
Ġpine apple
Ġin quiry
Ġdon ates
Ġhind er
k c
Ġbenef ici
h ou
Ġse o
Ġfin cen
g one
Ġsh aky
Ġvolat il
scam mers
n ig
u ar
Ġc af
Ġcapital s
Ġclar ifies
Ġme u
Ġunt ouch
Ġshake out
ue go
ro ke
fol ks
Ġjail ed
Ġbitc ion
Ġglimp se
Ġposit ives
h et
Ġcent ra
er k
Ġwallet dat
Ġchat ter
Ġanalys es
ress ive
ow ed
Ġfuck er
cho ose
coin ers
em er
andgt but
Ġbog us
Ġscept ical
Ġexec s
Ġfinal ized
Ġrequest ing
Ġrebound ed
ran ny
Ġam en
Ġobs erving
econom y
le ver
Ġdetriment al
Ġf urn
im oku
v j
st a
Ġdism iss
Ġf ct
Ġadd icts
Ġhu awei
Ġdead lines
Ġlab our
ic ated
Ġsuppress ed
Ġbind ing
Ġunaff ected
Ġex uber
Ġdream ed
kore a
ant ics
Ġacc ent
co founder
sw itch
Ġsw ag
aus d
Ġsp ree
Ġgr ail
Ġinc umb
sh ap
Ġfire works
Ġunreal ized
z lo
at he
Ġgr iff
Ġper ks
Ġups ides
n j
tr x
Ġshould a
Ġsn iff
Ġwan n
mess age
h aven
Ġusd ollar
instr uctions
Ġall i
Ġstr ings
exp ert
s y
act ing
de utsche
Ġpod er
Ġun se
Ġve ctors
Ġattr action
Ġname coin
Ġcapt cha
Ġsens ational
Ġj son
con cept
ze ch
Ġi van
Ġun author
Ġrep et
Ġwa x
Ġw icks
crypto coins
reg istr
Ġrespect able
l ings
Ġr aging
ind o
Ġl rc
Ġex cell
Ġeth ash
Ġcomp ass
Ġpick up
Ġom n
Ġspons oring
Ġsiz in
incre asing
Ġpou red
v ir
in to
Ġle ase
Ġblack jack
grow th
r il
Ġrem embers
Ġhear ings
m am
Ġth om
Ġperiod ically
Ġdeleg ates
Ġboyc ott
ulkumar x
ear lier
Ġmorning s
pa ul
Ġprivile ged
d ir
no ob
inst itutions
Ġcommunic ating
Ġphoto graph
as king
is ode
Ġre bel
Ġs b
Ġf usion
st y
Ġun hack
Ġbal d
crypt onet
Ġjet zt
Ġ vel
Ġfinancial s
Ġquart ers
in ian
oin s
Ġcon ting
Ġexp ired
bl in
Ġplan ets
ai i
Ġdeterm ination
Ġeleg ant
Ġwh it
Ġthis se
Ġab rupt
ro ads
Ġconnect ivity
Ġthistur bing
Ġthe dao
Ġd p
Ġno g
ib an
don ate
Ġoverwhel med
Ġhe l
Ġcirc ulate
Ġretweet ed
ne ath
Ġtrade off
Ġroll back
Ġseason ed
Ġtap root
count ries
Ġbtc ltc
k yc
Ġdo ged
Ġde pt
Ġmy riad
co on
Ġben jamin
Ġsav age
Ġtaxpay ers
Ġludicr ous
Ġgo ooo
Ġte asing
Ġinc ons
Ġexist ential
Ġdie go
Ġfin land
Ġbr oth
Ġcod er
cust om
j on
d p
Ġst are
Ġprop el
Ġcart e
Ġsar ah
Ġcoin payments
Ġch el
il en
Ġir ish
Ġfaz la
Ġconscious ness
Ġi an
Ġn n
Ġbl ames
Ġpropag ation
Ġhypocr isy
u en
om ed
Ġit and
Ġus u
Ġachie vable
Ġevery bodys
Ġflo gm
Ġprolong ed
ap t
Ġallow ance
Ġdelay ing
Ġicon omi
Ġempow ering
Ġcraigs list
Ġmoney i
Ġacc using
sur vey
arn a
star bucks
dou bt
Ġre it
ch ief
Ġred empt
pl ug
Ġflag ged
Ġinterv als
re ach
Ġsh ith
Ġlo lli
ast a
Ġprev ention
k urs
this c
Ġpow der
Ġfil ings
Ġna ar
Ġunder water
mak ers
Ġcofound ers
ab d
ins ane
Ġcryptograph ically
Ġintim id
i andm
Ġk omm
p ia
Ġnem li
Ġay re
Ġd read
lo op
Ġthisrupt ed
Ġli fts
Ġun available
cap t
Ġremain der
Ġsig ue
Ġove rest
Ġcoin ag
Ġer ase
Ġmisgu ided
Ġu fc
Ġadv ises
Ġlar ry
l una
ic ulous
Ġj i
h q
Ġt au
Ġcoin ers
Ġbo ating
Ġpers istent
min utes
comp li
Ġnair a
own s
Ġsy bil
Ġren ame
Ġregul ates
Ġrespons ive
Ġsu ing
Ġover rated
Ġind ict
Ġframe works
brit ish
Ġit e
ad alar
Ġdial ogue
Ġn v
Ġev an
Ġsy ner
Ġbless ings
h b
Ġfuture i
Ġj yw
know ing
Ġsight ed
Ġnic kel
Ġaddict ive
Ġu f
am iento
Ġvan ity
Ġtout ed
Ġdictators hip
Ġp iling
Ġr bf
Ġle aks
ident ally
Ġcamp s
Ġdn v
Ġhurric ane
ce x
Ġstr iking
Ġconfident ly
Ġbreat hing
Ġunprof essional
Ġw ack
Ġsold iers
des cending
Ġalex a
Ġned ir
Ġs ak
Ġp bl
Ġal ch
az ed
Ġsort a
Ġbc n
Ġeleph ant
t les
un do
Ġmanip ulations
Ġpatent ed
Ġflogm all
r ide
r ail
r ug
Ġg ag
d le
g j
Ġbe z
Ġtiem po
l ma
Ġt ou
Ġby rne
Ġrap e
Ġvolunt arily
wal a
Ġarsen al
l b
Ġwhat not
pr os
Ġbad ass
Ġmad rid
Ġillumin ati
Ġbul bs
Ġv ancouver
Ġjo es
list ening
cont ent
Ġspin ner
Ġstupid ly
Ġseiz ure
g me
Ġn ag
Ġn ave
if ully
ac er
Ġpain ted
Ġnewcom er
Ġpriorit ize
eth btc
if ty
iyor um
Ġs lock
Ġcrypto jacking
Ġlonger term
Ġhom ies
Ġadapt ation
Ġhill ary
Ġtam bin
Ġheadquart ers
u w
gold en
Ġp end
Ġd ug
am id
Ġunder neath
s ia
ur g
Ġbe am
bas ic
Ġclou ds
Ġtraged y
Ġo ok
ess a
Ġcustom s
Ġsh ade
Ġdeal ings
sa ving
Ġjyw akr
Ġc ng
im age
Ġty ranny
Ġreven ge
Ġgif tc
cont inent
Ġlou der
Ġstall ed
Ġlaund ry
Ġk er
Ġpower house
Ġtens ions
contr ol
h os
Ġk g
Ġad here
ick ers
av an
Ġfre em
Ġunc ens
l ass
Ġbitcoin so
Ġetc usd
Ġport able
Ġmult if
Ġtx ns
Ġdim ons
Ġzer oknowledge
Ġdiagon al
and y
list ing
Ġo ch
Ġcas ually
Ġdash s
Ġshr ink
Ġun ocoin
con vert
Ġmat ured
tw its
Ġbootstr ap
Ġa e
ic ians
ny se
Ġequ ality
Ġretr o
Ġextrad ition
Ġf n
Ġre use
Ġwith stand
vert chain
sim pl
research ers
Ġse in
ut ter
ene w
Ġdou g
Ġre balance
Ġcopyc at
do gs
Ġsund ays
Ġdev oted
Ġmis inter
Ġhill s
f resh
Ġin bound
Ġson o
Ġmatch ed
Ġdelist ing
o is
Ġc ater
Ġsw ind
Ġspo il
f ico
m ah
it ated
art e
you ng
Ġtransl ates
Ġt ension
Ġre now
tc s
Ġz y
Ġsl ick
Ġsing ing
Ġmar co
Ġchrist opher
Ġresem bles
Ġi pos
Ġh fs
ass y
Ġsubmit ting
Ġspokes person
Ġtw in
Ġcoord ination
Ġdragon chain
Ġh oo
Ġnorm ie
Ġreli ance
Ġpoll ution
Ġmagn ates
Ġcompens ated
Ġallin one
v oted
Ġrev ival
Ġed ges
Ġtim er
Ġpo co
kkkk kkkk
m illions
r are
Ġs na
Ġp data
ot ive
s ystem
en cial
Ġpoly math
Ġmount ains
Ġanim ation
Ġit eration
bit m
Ġeco friendly
t n
Ġjust ification
Ġad verts
ail ing
Ġled ge
Ġenvision ed
annou ncing
Ġm ama
Ġn erve
ort ing
Ġhar i
Ġe j
un fixed
under ing
Ġc tr
Ġd ystop
Ġlight weight
wal mart
s qu
Ġm io
Ġd arn
Ġdo ji
Ġtechn ician
Ġhome page
r os
Ġc mes
Ġz ap
Ġist an
Ġscroll ing
Ġincompet ence
we gian
Ġattrib ute
Ġnonsens ical
r l
Ġscan ning
z ec
Ġ itcoin
Ġde ception
Ġhor a
Ġbrig ading
Ġs aint
Ġcou ch
Ġempres a
Ġ ouch
fo ot
k ok
Ġenjo ys
Ġindic ative
Ġflu id
Ġle mon
ps i
thriller crypto
Ġmult in
Ġhar am
Ġlibr aries
Ġdolar a
p unk
ge y
Ġsm ack
Ġint rest
Ġinstall ation
Ġvir uses
q tum
le verage
Ġhard working
k as
n os
Ġc dc
Ġfalse ly
Ġdil ution
Ġmanipul ative
Ġunhack able
Ġbitcoin litecoin
Ġass ange
s itting
Ġsp ank
Ġimag ining
Ġpag os
Ġshor tc
Ġpro claim
Ġper se
co z
Ġpriv at
Ġterr ifying
Ġvot er
Ġc pa
Ġgo of
ac ional
Ġmel ting
Ġhypothet ically
Ġcol on
Ġan k
Ġgreat ness
Ġtobac co
Ġind ie
Ġsun k
Ġunderestim ating
pod cast
Ġhe ars
Ġdad s
Ġlite pay
Ġcripp ling
or ia
Ġdo e
onom i
Ġsuprem acy
or bit
Ġpre cios
Ġko ers
Ġoccup y
o a
r ie
Ġd ud
ul ators
Ġmoons hots
Ġgib raltar
Ġb isa
Ġy orum
Ġapp c
pl z
Ġbump y
Ġma ar
Ġgr as
Ġrefund ed
Ġk il
Ġso re
Ġen ron
pe ak
Ġconv icted
Ġrebound ing
Ġinterf ere
Ġplay ground
Ġhal al
b be
h f
Ġb w
Ġd ak
ap ay
should nt
h on
w oman
Ġfar ther
Ġpo a
Ġq t
ient ras
pos itive
Ġconsist ency
Ġspo ok
Ġmock ing
Ġhun ger
Ġsacrific ing
Ġpean uts
Ġzero coin
Ġcolle ague
Ġjeff rey
v tc
re le
Ġcr py
Ġbl ur
los ses
rec ord
l abs
Ġv es
Ġtr acing
Ġwh ore
Ġsub way
Ġsa il
Ġris er
Ġaltr u
Ġteen age
af ts
Ġt ac
Ġcoin market
pl it
Ġhood ie
Ġcoinn ounce
Ġcomp ile
Ġem per
Ġp q
op port
Ġse perate
Ġde ed
Ġch ump
Ġfr og
pu pp
Ġs ow
ans w
Ġport ions
ph p
Ġcrimin ality
Ġforth coming
Ġf p
am o
Ġincre ments
Ġcor ps
Ġacr onym
Ġr ats
Ġv anguard
Ġsp ear
Ġmand ate
Ġm ates
Ġg nd
Ġson m
Ġimm ig
Ġarbitr arily
f li
Ġa er
Ġen sl
Ġlive coin
Ġpaper work
gu ide
r ond
Ġdr ones
Ġund e
Ġshorts ighted
defin ed
pes a
Ġtr ag
act er
Ġvis its
Ġcensorship resistant
Ġolig arch
t el
ed o
wonder ful
b ounce
d istrib
Ġm ush
Ġblock ch
go ver
Ġhar mon
Ġsho ok
j okes
Ġre iter
Ġcr op
Ġxr pl
Ġpos ible
Ġdou bl
Ġge en
Ġmultis ignature
Ġli ars
Ġpre valent
stand ard
but erin
Ġrestric ting
m ist
Ġfit ness
Ġad res
me ga
Ġdom ino
l ived
Ġf ades
Ġhe lm
Ġadv ices
Ġawa ited
u is
Ġre jo
Ġr ips
Ġf kn
up coming
Ġsn ag
Ġnathan iel
ib ilities
Ġbroadcast ing
Ġre org
Ġse k
mer c
Ġreal ising
Ġrem ix
Ġsn atch
Ġsym pt
Ġprohib its
Ġsatisf action
Ġth ng
Ġre open
Ġhal a
Ġo v
od ing
Ġha unt
Ġdemonstr ation
Ġrein for
Ġc ites
Ġo ak
Ġbe lly
Ġr av
hu a
Ġgrid coin
b ags
ash i
Ġamb ition
cryptow atch
Ġs oup
Ġwill y
de ath
br illiant
Ġant ith
k w
or ous
Ġbitcoin ands
Ġhow ard
Ġev id
Ġfron tr
Ġmat uring
Ġten x
Ġpre y
omp liano
Ġun law
Ġsomething s
cons olid
glo be
Ġhe e
ec b
Ġmn emon
Ġit if
Ġthis agrees
em otes
Ġglo ss
rep orts
Ġstress ing
Ġdefe ated
Ġcustod ians
state ment
unc ensored
li jk
in ho
est abl
art s
a jo
Ġy ikes
Ġpre order
Ġpass age
sp onsored
Ġrock y
Ġpiss ing
Ġis a
Ġpro x
Ġx c
Ġbus h
Ġappro ving
Ġrum ored
Ġhyper bitcoinization
Ġsams on
Ġt ic
Ġg st
Ġg ven
Ġk ish
Ġall en
han h
cred its
Ġgo oooo
Ġtr ong
Ġdiscuss es
year old
Ġdebut s
Ġnaz i
Ġdr ake
ik o
ban ned
Ġcell s
Ġli abilities
Ġexplo red
Ġfutur istic
Ġacadem ics
Ġantifr agile
z ie
so vere
Ġadjust ing
Ġfried man
f es
re it
Ġar se
Ġappe als
ben ch
develop er
Ġcontain er
al one
Ġrev ive
x v
Ġc ue
un idad
Ġfree zes
des ign
Ġnok ia
phil ipp
Ġf king
ar ak
Ġha ben
Ġmon days
Ġsecond largest
Ġje opard
week end
Ġdemo graphic
x f
act ic
Ġz ip
mar gin
Ġastr onaut
Ġnomin al
rypto currency
Ġcom ed
Ġpres idents
Ġer ased
Ġi ht
Ġp anda
Ġdem s
Ġperform er
Ġjohn s
at iva
Ġnative ly
Ġtransacc iones
Ġi inde
Ġbitcoin btc
iv able
lim it
lat form
Ġlegitim ize
Ġdoubles pend
Ġassert ion
is o
is che
ib lock
Ġrelent less
Ġk ald
Ġincur red
p our
Ġd ass
ight ing
leg end
Ġdeval ued
q o
Ġre h
Ġle wis
Ġwatch list
Ġn fa
Ġmo ot
Ġopt in
Ġdi as
Ġnation wide
gar ia
Ġcomp iled
Ġpra ising
Ġkit ty
h c
Ġd umber
Ġviol ate
continent al
reg ular
Ġcum rocket
ic ar
Ġcr ay
Ġoptim ization
Ġbrib e
ir i
Ġk apan
tr ap
Ġbene ath
Ġgan har
Ġbitcoin like
Ġpr i
Ġdim ension
ov a
Ġwid get
Ġbig data
Ġfi ver
uc in
Ġcompreh ension
Ġh dd
Ġole ary
Ġre bal
ec c
Ġviol ating
Ġtent h
Ġt ame
g ic
x l
ind ustry
tech nolo
Ġpara chain
Ġdisc losure
Ġtrail ing
u o
el ing
Ġder ive
Ġunf am
Ġnebl io
Ġlogarith mic
ale b
gu nt
Ġafric ans
Ġdestr uctive
Ġbors as
Ġt ails
Ġw rest
Ġswing ing
Ġambit ions
Ġu buntu
ig it
ens ible
Ġich imoku
Ġj ak
Ġgo ose
Ġv ps
ir ting
Ġal can
Ġser a
care ful
Ġthispos able
in come
Ġsur plus
br oker
Ġvalu ing
Ġthisappear ing
Ġbrig ade
Ġpursu it
Ġwannab e
fe in
Ġcas as
Ġlever ages
hal ving
Ġuntr ust
annou nces
ong o
Ġconsider ations
Ġimm oral
co ing
Ġfore sight
Ġrespons ibly
Ġinter change
Ġg w
ins p
Ġuncens orable
Ġd ys
Ġl itcoin
Ġus itech
Ġqu ando
Ġhot line
astr ous
Ġcan n
Ġb pi
th et
Ġmon keys
Ġmar ine
Ġcy bers
Ġhamm ered
regul ators
Ġhyster ia
c est
Ġpl c
Ġcompar atively
Ġretr aced
Ġtwist ed
Ġembarrass ed
Ġabys s
f ab
Ġlar imer
Ġmark t
Ġpe ep
Ġun lucky
cryptocoins news
last ly
Ġsem antics
Ġcr ises
x vg
Ġt ipp
Ġi h
Ġinv asion
Ġexpress ing
Ġstagn ation
Ġpot ent
Ġnear term
Ġmob il
Ġsubs et
og ical
w omen
Ġthe at
ic ia
Ġhas kell
Ġenviron ments
not iced
Ġinf os
Ġdes ert
l ack
Ġh bo
Ġgo sp
tom ine
Ġben im
elect r
Ġse ctions
idd y
Ġnotice able
v ault
re comm
Ġtr op
Ġso oooo
Ġsupp lement
andgt what
Ġdecis ive
all ah
ir ia
ol ine
bitcoin com
Ġday trade
Ġblo ated
Ġknock ed
b q
Ġth re
Ġun willing
Ġclass ical
announce ment
ay ing
Ġcl am
Ġspl ash
Ġprim era
Ġgd pr
Ġinvalid ated
Ġshad ows
Ġinconven ient
ukrain e
Ġyou andre
Ġpro lif
Ġle on
pr l
Ġcamp us
Ġimpact ing
Ġcancell ation
l arda
m aps
Ġbu gn
Ġha irc
Ġpo z
Ġsquee zed
Ġtong ue
Ġd ull
head ing
Ġbon kers
mal ays
Ġoverl ap
Ġv ida
Ġex h
ut ical
Ġtake away
bu zzeology
Ġlight ly
bow l
Ġpron ounced
Ġkool aid
re ality
Ġc ite
and roid
Ġis ps
Ġget rich
Ġher self
Ġall ev
bl own
Ġkne es
Ġunfam iliar
min ute
Ġlefto ver
l ux
s ug
u able
ig ue
Ġz aten
ug u
vert coin
Ġether uem
lad ies
creat or
r ung
Ġt ing
Ġco hen
Ġn j
Ġplace ment
Ġclean er
Ġvari ation
Ġpil ots
wc n
Ġzen cash
Ġcoinag enews
Ġover ha
Ġser t
Ġhard cap
ocr acy
Ġquadr ig
st atus
ors unuz
Ġincap able
c orpor
or iented
gr id
ang ible
Ġexcept ionally
Ġgreens pan
Ġthistr ust
Ġell en
Ġraid ed
Ġslo gan
Ġundeni able
k rypto
Ġand and
Ġfe ared
Ġprompt ed
Ġsociet ies
re k
Ġor t
ide a
Ġkey word
Ġho ff
Ġmuse um
Ġturno ver
i im
Ġvol t
comp ared
Ġnontech nical
Ġtrad itionally
Ġz ug
usd c
Ġhor ny
met ric
Ġa inda
eth ats
ac r
sc ale
Ġrespond ents
Ġil g
Ġolm as
bul as
Ġi do
Ġre read
Ġne ur
Ġmeas ly
set ting
Ġein stein
Ġts un
b ou
us al
tr ail
Ġar ac
ret ion
Ġadap ter
Ġlem me
b uck
Ġk hal
Ġfool ing
Ġcarn age
t an
Ġs nov
Ġget tin
Ġquadr iga
Ġp up
Ġur g
Ġrocket ed
Ġpra ises
Ġweigh ing
product ive
Ġm v
by tes
Ġcaut iously
z q
Ġv ap
Ġat r
Ġche ated
Ġtight ly
Ġgim me
Ġher ald
Ġrh y
Ġretr os
info il
Ġarc ade
Ġb ild
Ġm ul
Ġg il
Ġr ome
Ġho je
find ing
Ġbar celona
Ġrespect s
Ġsy ria
mill enn
Ġs eren
Ġi ced
ant a
Ġbright est
Ġar b
Ġho ops
Ġp ips
Ġshitcoin ers
Ġlab els
Ġuncon troll
parent s
Ġg um
reg ulations
ih ash
Ġuntr ue
Ġthis plays
il ation
Ġlow cost
Ġcit i
Ġcelebr ated
Ġunauthor ized
Ġb acon
all ed
Ġso ll
Ġcryptoc omp
Ġbun ny
Ġalternative ly
Ġmix ers
Ġmotiv ate
Ġendors ing
cli ent
Ġdeclar ation
la undering
Ġcar go
Ġin this
Ġpl ut
Ġdes central
Ġdigital currency
Ġfold ing
ch ill
Ġclass ify
Ġlegisl ative
b ases
s yn
Ġe coin
Ġtr aba
Ġdel hi
Ġvin nik
b j
Ġunder go
Ġreact ed
Ġdor u
Ġw enn
gd ax
contr oll
shitcoin s
Ġf ark
ber ts
Ġmillion th
Ġseg w
Ġdon ors
ste ch
Ġrenew ables
Ġlength y
br is
ino is
Ġbrook lyn
z f
eth ers
Ġbl ues
Ġtod as
er d
Ġu it
Ġic n
Ġbl unt
Ġeur usd
Ġgl or
Ġpromot er
Ġtoler ate
Ġsaif edean
Ġhop eless
Ġengul fing
an ing
fe bruary
Ġq q
Ġspend able
Ġmar x
Ġcam bio
Ġdict ates
Ġunexpect edly
Ġmanh attan
Ġfu k
Ġseg ur
str ange
Ġreeval uate
Ġd amp
iss ance
pe ek
pe gged
get ip
Ġistan bul
f at
l iving
Ġwhere by
Ġinf ighting
Ġsnow ball
b ts
ke by
Ġv om
be k
sw ire
Ġmethod ology
ahah aha
Ġkardash ian
Ġh st
iz ard
Ġsyn ced
Ġhe ats
Ġle es
Ġro bo
Ġs ql
ke le
Ġltc btc
Ġhor as
Ġuncom mon
opro ject
g ir
Ġsw amp
Ġglo om
b ane
Ġnot or
Ġbt u
Ġdog gy
Ġpin ch
Ġtransform ed
Ġcree p
n ation
et ly
et ts
as ers
Ġbitcoin core
ast ics
Ġmil ion
Ġflo yd
Ġpas ar
Ġtab let
Ġparam eter
Ġl or
Ġg and
to gether
Ġpo o
Ġped oph
Ġr ag
un i
Ġle x
Ġtonight s
Ġinvent ions
russ ias
oh io
doc ument
p g
Ġjp y
Ġhorr ibly
Ġhtt p
it ic
Ġbel fort
Ġspecul ator
ow itz
Ġtum bled
Ġre na
Ġconsequ ently
m ates
v ie
Ġin active
Ġconc ise
Ġsatur ated
Ġrecon c
Ġhath away
Ġal ipay
Ġup time
Ġblock buster
ff s
Ġreal estate
az i
ta i
ek a
satos his
Ġro gan
Ġdece ive
Ġdealers hip
Ġintu ition
Ġlone ly
ick er
Ġtext s
go go
Ġcontract ing
Ġequ ipped
Ġmeasure ment
Ġb ones
Ġp pt
Ġund ers
Ġem as
Ġinconven ience
Ġpref erences
Ġredempt ion
Ġsp encer
for got
Ġsubs criptions
Ġregret ted
Ġha h
Ġex ch
are tt
bu ys
christ mas
Ġkeyst ore
p ast
Ġdef icit
opt im
Ġauth y
Ġbt k
Ġconvers ions
Ġas ians
Ġv log
Ġor v
Ġtem ps
quest ions
Ġu trust
Ġab ol
Ġcoin exchange
Ġunt ested
pl ot
Ġenfor cing
andgt so
Ġlic ence
Ġpublish er
Ġaggreg ator
Ġthe bitcoinnews
act or
Ġbr ill
Ġthr ives
Ġclar ifying
Ġbail outs
Ġs q
Ġhard for
win ner
Ġdesper ation
west ern
Ġw ah
Ġmo as
Ġremember ing
Ġrenow ned
Ġg id
Ġintegr ations
Ġcast le
Ġbis q
Ġend ure
Ġnint endo
Ġb erm
Ġd v
Ġr ud
ine x
erm int
Ġnon ce
Ġkid ney
sun day
g io
r ans
re ject
Ġh istr
Ġk ent
Ġsymbol s
Ġbil ibit
Ġmultin ational
Ġso ap
ace utical
Ġinter im
ven cy
pos ition
d ens
in b
Ġred dits
Ġscrut in
phys ical
Ġla v
Ġtell er
Ġur ban
k od
m iles
Ġd ough
Ġinst a
Ġkind ness
Ġref ute
Ġcol a
Ġseas ons
Ġslock it
Ġh h
ust rate
Ġcs v
d ollars
p it
Ġf ict
Ġexp ires
Ġbull y
Ġtrend y
Ġfraud ster
Ġkr ip
Ġmonument al
c uz
Ġm rs
Ġse an
Ġwe ase
Ġnon mining
Ġbitfinex btcusd
Ġright ly
Ġrus sell
Ġappl aud
to ols
need ed
Ġcollabor ative
Ġpenetr ation
Ġferr ari
Ġc res
crypto com
amp aign
Ġtrue ly
Ġfake out
Ġanaliz i
Ġchampions hip
Ġb g
mod s
Ġgh ana
hol m
r k
Ġdo o
Ġeur op
Ġjohn ny
Ġnar c
omet ry
es o
de a
omm erce
kn ik
Ġn ht
om ise
ch ris
Ġcrypto friendly
us ds
Ġcyber criminals
kr ipto
Ġlyn ch
Ġf izz
ok ers
Ġed in
Ġjer ry
Ġd iss
Ġpe ut
Ġun ions
Ġsc aring
Ġmis use
trad ed
Ġbatch ing
Ġnaz is
wallstreet bets
Ġubi quit
sett led
Ġp ul
Ġup hill
Ġhop ping
Ġwon andt
Ġw th
op he
ir se
Ġde uts
Ġunder taking
eg en
Ġy at
Ġab using
Ġdr ift
Ġorder book
Ġfro ze
Ġsiz able
Ġl ions
Ġcr ing
Ġover the
Ġfree fall
mer ch
long term
Ġcryptocur r
Ġconflic ting
Ġu u
Ġsoft fork
erv ation
Ġdark web
u ates
Ġin expensive
Ġag ile
ang an
Ġdoubt ed
Ġgov s
urp ose
Ġk et
Ġgener osity
Ġan a
Ġamaz e
Ġtra its
crib ed
Ġpar al
oin e
Ġimp oss
Ġmiss pe
Ġmun icip
wol f
b org
Ġs j
if ax
Ġcontact ing
emp lo
Ġbutter fly
omet ric
hyp oth
os o
Ġmy st
Ġbel ensay
bo b
Ġnav coin
Ġast ounding
Ġsynd rome
Ġalum inum
ve m
Ġblock c
iz ado
Ġstock twits
ier ung
ask a
Ġstrength ens
c ke
Ġprud ent
Ġve ga
Ġstat istic
Ġindones ian
Ġunlaw ful
n an
p ure
Ġhigh risk
Ġwait list
Ġrev amp
Ġmer cant
Ġgentle man
Ġcave at
Ġgens ler
Ġwann acry
Ġgosp el
t p
w idth
Ġprefer able
Ġd ist
Ġsh at
Ġuse able
Ġhed ged
Ġthisp utes
sth ats
flo or
iz i
Ġlay man
Ġimplic ation
ep isode
Ġqu eries
Ġinteresting ly
Ġdel ighted
Ġec u
awa ited
Ġinsol vent
Ġf ighter
ad ata
ont in
Ġcomment er
Ġselect ing
Ġnic er
Ġp tc
Ġloc ate
Ġbo ots
Ġgame changer
Ġturn around
Ġk ern
Ġcon do
but tcoin
Ġge ared
Ġus her
Ġph arma
Ġpot coin
Ġcar l
sp ending
incred ible
Ġright fully
Ġbounty hive
Ġsucces ful
Ġsh ines
Ġcoins pot
m ember
Ġs ank
Ġh v
Ġimm ort
Ġgover ments
Ġflock ing
Ġout pace
ach el
Ġanim ated
Ġe cc
Ġv est
tr abytes
Ġadd itions
Ġstr atos
bt g
Ġinstr uction
Ġurg ently
us i
nam ents
Ġvouch ers
k ke
Ġha kk
jer k
Ġliver pool
h w
Ġcon cludes
now adays
Ġadjust s
Ġhed ges
v os
Ġin aug
ap i
Ġmet cal
Ġagric ulture
om ic
ib bean
Ġmot to
e yc
Ġem ir
Ġbl ip
arett es
Ġw ales
Ġp aved
Ġf m
Ġfin ex
Ġrev ised
Ġed en
Ġtri ump
o co
Ġy umerium
Ġorgan izing
trad itional
Ġbtce cho
re vol
Ġcas o
Ġmig rated
Ġl aud
nov ogratz
Ġfa ulty
Ġextr apol
cur ity
dom ain
Ġsalv adors
on ic
Ġexp ed
ĠĠĠĠĠĠĠĠ ĠĠĠ
Ġb arn
dd d
Ġdia gram
ff f
Ġmill et
gg ling
c ro
Ġm j
att ed
Ġrin keby
adv ice
Ġbitp anda
Ġobfus c
Ġnx py
on io
Ġcon junction
Ġsat an
Ġdimin ish
Ġh id
Ġl er
Ġmin ar
Ġproph et
Ġback kt
Ġsm ear
Ġbus s
Ġtv l
upp ort
Ġin house
un ct
Ġpro claimed
Ġwould a
sh ots
Ġshib s
phe w
Ġpok mon
Ġw cx
c et
m ys
Ġd w
Ġg le
is ch
aid u
Ġps y
Ġstamp s
Ġtsun ami
z g
Ġout line
Ġz ig
Ġrub y
Ġsneak y
Ġwarr ior
g ives
Ġcoin ex
Ġtrian gles
Ġpersu ade
Ġgob ier
Ġstatist ical
Ġf tc
Ġmark ing
Ġsho vel
Ġsqu ared
Ġuse full
ick y
Ġspo iler
Ġrac ism
hour ly
Ġpred omin
Ġmod ular
iler i
Ġdel uded
Ġweak est
b am
ur able
Ġbtc x
ian g
Ġbuild ers
Ġdepart ments
Ġrend ered
v aneck
ol ous
tr ace
Ġgel iyor
Ġvp ns
p ending
Ġj d
Ġorchest rated
Ġst ing
il ik
Ġpa wn
sub mitted
u lo
Ġafter math
Ġgame play
Ġwhis per
germ any
Ġp w
Ġre tract
Ġk sm
Ġsuccess es
rethtrader comments
Ġt ast
Ġnon crypto
c g
al ot
Ġdes ires
Ġkind le
Ġsk ull
h ain
j os
Ġsuc c
Ġcree py
d ips
Ġl itter
Ġsh eds
sch ool
oooooooo oooooooo
Ġamm ous
b ithumb
Ġun sol
Ġps a
Ġvari ations
Ġthisplay ing
Ġdorm ant
om onth
ut ur
ac s
k m
Ġn erves
Ġl itt
let on
Ġspace x
Ġthistrib utions
norm ally
if ts
Ġneed less
Ġgall ery
in ers
Ġb ios
Ġgn osis
i op
un ci
s ud
Ġn ike
Ġar ises
Ġunder going
Ġfascin ated
Ġi y
Ġme in
jt kx
Ġseren ity
Ġne ural
ie ls
Ġthr ott
Ġinter cam
aw at
load s
Ġover clock
not icias
found ation
nk wn
Ġd ense
Ġj ets
Ġche ek
Ġfaz er
ess entially
Ġco loss
mer ry
opt eyc
cf nkwn
Ġdik kat
hanh jtkx
wcn hanhjtkx
opteyc wcnhanhjtkx
cfnkwn opteycwcnhanhjtkx
cfnkwnopteycwcnhanhjtkx fj
Ġis nandt
Ġkus ama
and ve
Ġlive each
ik an
see king
Ġbat man
Ġpros hares
Ġrelax ed
Ġhaft a
Ġblock er
Ġqu its
Ġment or
gb p
p air
r bitcoins
Ġque m
Ġshap ed
ke ley
tr ades
ra vel
los es
Ġdownt own
Ġfut ile
dub ai
Ġt ub
nt e
Ġtravel s
pol kadot
begin ners
alph a
in x
ter r
Ġsl apped
sh ame
ipt ic
et ed
Ġtack ling
Ġaf ore
mult iple
access ible
ic x
Ġcare ers
Ġkryptowhr ungen
Ġschw ab
d addy
yi kes
b ond
Ġcredit debit
Ġmob ility
Ġinterf aces
b out
Ġw eth
Ġre enter
Ġqu eda
Ġsub missions
Ġprohib ition
Ġg aw
ay be
Ġbt m
Ġregist ers
Ġsaf u
Ġviol ated
Ġsam uel
Ġl isa
ir ies
gh t
ose c
Ġwilling ly
Ġunle ash
Ġthem i
Ġpayp als
Ġn b
Ġbitcoin you
Ġinc idents
Ġstr ap
Ġrec ourse
Ġeffect ed
Ġbal ancing
Ġlif toff
Ġcarol ina
k ong
Ġstr ain
zing a
Ġreplic ated
Ġpreca utions
m ons
Ġan kr
Ġj ag
Ġcan al
Ġdur ch
Ġwat ts
Ġcarn ey
Ġillustr ation
x on
Ġant is
Ġak an
Ġar agon
Ġbuild er
Ġcompet es
Ġubiquit ous
i in
Ġse mic
Ġpe pe
Ġfamily s
Ġpa ving
Ġcoing ape
g ary
Ġso li
Ġpublic ations
Ġmax ed
Ġforecast ing
Ġviol ations
Ġcell phone
Ġthe e
Ġsim ulator
who le
ob ian
Ġpivot al
Ġit it
Ġcirc ulated
Ġthe fts
Ġd ank
Ġautop ilot
tr uly
Ġsan ity
tra vel
est ry
Ġsh ite
Ġaccident al
extreme ly
Ġr b
am ong
au ry
Ġexchan g
Ġbus ines
Ġmeme coins
share retweet
Ġincomp lete
Ġrebut tal
re place
Ġnews papers
dot com
g ates
ig y
Ġover throw
andgt its
Ġreall ife
Ġtherap y
s ound
Ġt infoil
Ġm me
ad vis
Ġv ic
ib o
sh aring
Ġfuck ery
Ġcontroll er
aaaa a
Ġcomput ations
sp oken
f lex
less on
Ġtransfer able
Ġd ich
Ġan o
Ġg ul
Ġet t
Ġice berg
Ġfak etoshi
ent ia
Ġthr ones
Ġla zm
Ġche ems
Ġopt ed
Ġequ ihash
Ġbar rel
Ġsoc io
Ġreimb urse
Ġas cent
Ġover lay
Ġco opt
Ġbot net
Ġinvestig ates
Ġhypocr itical
Ġholo chain
Ġbitcoin crash
Ġcr uel
Ġlock up
ki ye
Ġbelong ing
Ġramp ing
Ġacknowled ging
n ak
Ġit bitcoin
Ġadd res
Ġra ffle
Ġbounty x
Ġsel ff
bour ne
Ġp om
Ġf ry
one mot
em ail
Ġdrop box
bit fury
Ġcc p
mi ami
Ġk ak
ro ots
Ġshop ify
slow ly
Ġcarr ier
Ġit c
Ġbitcoin yes
Ġrep s
Ġdef l
ho y
Ġtend ies
Ġsi em
Ġinvalid ate
Ġkidna pping
c ano
Ġun wanted
Ġmarsh all
btce cho
b iden
Ġo ce
Ġstr on
sel ess
et ooth
Ġv w
Ġsh ove
arket s
Ġqu and
Ġill ogical
hack ed
Ġcha otic
Ġfc il
Ġcl aw
Ġinter section
Ġdeb atable
sc rew
Ġgrand mother
Ġsli pped
ck ing
Ġadvantage ous
Ġpig s
Ġl ens
Ġcon oc
Ġtime i
Ġperson as
Ġprop ping
Ġreinvest ed
Ġdeliber ate
Ġyou i
Ġte aser
Ġtechnolog ys
Ġhypocr ite
Ġgo l
lock ed
Ġgu er
Ġsur render
Ġfoot steps
Ġcollateral ized
Ġdetect ion
Ġinvers in
Ġanl isis
Ġh ots
Ġnov o
Ġadapt ion
Ġelder ly
Ġbele ive
tr illion
Ġic oproject
Ġmnemon ic
c lear
Ġt cn
Ġpos ed
Ġjack obian
Ġfactor ies
Ġcow ard
max imal
m att
Ġun covered
augh ters
Ġess a
Ġawaken ing
ik er
Ġbother ing
Ġbum ps
Ġun install
Ġsold ier
m ant
Ġi phones
Ġis o
ig os
andgt in
Ġself ie
Ġemp ir
offic ially
Ġd ib
Ġl ighter
Ġse ver
Ġun cover
Ġfud ing
Ġwar fare
Ġden nis
Ġblog ger
Ġlas zlo
Ġinvent ing
ir im
Ġtal es
Ġsat byte
Ġprov ince
Ġinform ing
Ġblo k
Ġpan ama
might y
Ġinterpret ed
Ġdown hill
Ġdef ence
Ġuns uccess
gr af
Ġperson a
Ġl ance
Ġk auf
Ġbo ils
Ġhmm mm
Ġo bit
Ġes e
Ġcompet itions
Ġtur bo
cal m
Ġsix th
Ġcarn iv
Ġlul z
Ġmercant ile
Ġme er
Ġno x
ick et
Ġmulti coin
Ġwholes ale
lo an
Ġret iring
reddit btc
Ġ ets
Ġest ado
Ġsweep ing
Ġconglomer ate
Ġa antonop
Ġc ette
Ġself proclaimed
Ġbaghold er
Ġantic rypto
Ġcryptoin vest
Ġlloy ds
analy se
Ġun w
Ġbeaut ifully
r om
w end
Ġl ug
Ġj ury
ber gs
em and
Ġblack listed
Ġslam med
Ġcrpy to
Ġs ack
Ġs iph
Ġhe p
Ġpresent ations
Ġretr aces
Ġtrash ing
Ġafore mentioned
v oting
Ġmon itors
Ġx in
Ġbit core
Ġshall ow
b un
Ġum bre
Ġreflect ing
ear ned
Ġfl uffy
Ġfound ational
sec ur
Ġcapit ol
Ġbekli yorum
Ġperp etr
c ow
Ġw agon
Ġx m
Ġsl aught
x w
Ġmarket ers
Ġbur bu
bank ers
Ġcel est
Ġshr inking
Ġespec ial
Ġthisgu ise
Ġw t
Ġy le
Ġdes ist
umb ai
Ġupload ing
Ġnie u
Ġvolunte ers
ic om
eth usd
Ġda wg
Ġho ver
hand ed
Ġi is
Ġf pool
Ġsuperior ity
Ġentr ants
Ġhaz ard
h oo
h ops
coin board
am d
Ġhigh profile
Ġprim itive
Ġmas se
Ġsmartc ash
Ġcoins quare
Ġtxtx id
Ġan om
he a
Ġlearn s
Ġreport ers
Ġconcept ual
andgth ow
n ap
Ġf ent
art icles
Ġwa z
Ġdeep web
Ġson y
bet a
Ġmonopol ies
pres ent
Ġpron ounce
Ġs ip
Ġm ismo
Ġtoken pay
Ġfetch ed
Ġpharm aceutical
Ġf les
ab er
Ġimportant e
ij s
Ġpress ed
Ġslaught ered
p oker
Ġr se
Ġdel ight
que l
Ġru ins
bros us
Ġw end
de ki
Ġtight en
hous es
Ġn ous
Ġma u
Ġid ol
Ġsat ire
c ens
Ġf and
Ġcom fy
Ġbr az
av vy
Ġside bar
Ġbell s
Ġb day
Ġde base
ment al
Ġdr ained
Ġmed io
sc re
u its
Ġfif ty
Ġmistaken ly
Ġsuper vision
Ġdex es
mus ic
Ġs ic
if a
Ġestablish ments
Ġm ientras
Ġn ix
Ġem in
Ġatt est
sh ake
Ġselect ive
Ġspin off
Ġfinish es
Ġdup ed
Ġversat ile
m az
Ġt aco
Ġd well
Ġbtc peek
Ġer ad
Ġa aa
Ġs is
Ġst roke
az ione
Ġcentral izing
Ġorgan izers
Ġchick ens
Ġhairc ut
c oss
l ift
Ġtr ips
Ġbch s
Ġwease l
Ġtr n
Ġpol ite
Ġdesign ers
Ġengine ered
Ġfal con
Ġapr s
mine able
Ġhaw aii
Ġg ears
Ġj ong
Ġx l
Ġimp l
Ġru ble
Ġbath room
h ero
Ġli b
Ġx spec
fund ing
trend ing
Ġrefr ain
fas cin
upd ates
li o
drop ping
Ġarr iving
Ġexceed ing
Ġein er
Ġthisp on
i ors
Ġv as
Ġexp edia
ro it
Ġdepreci ating
Ġpre l
Ġvis as
po ke
enter prise
b v
ll oy
Ġthis astrous
Ġab u
Ġpast ing
Ġjud ges
Ġestablish es
ul um
Ġhe els
Ġro oted
Ġquick est
Ġautom ob
Ġcas c
Ġing red
Ġrar ity
Ġexuber ance
ors che
Ġop codes
Ġside line
Ġtransition ing
Ġvacc ines
Ġeuphor ic
Ġso s
Ġspec ification
Ġdeb ated
Ġfant as
Ġfir ing
oh hh
Ġcomprom ising
Ġthat i
Ġj enn
Ġroad maps
fill ing
Ġincentiv izes
Ġuz un
l ending
Ġv y
br u
Ġalltime high
Ġborder line
Ġblank fein
Ġcomm ons
Ġkeep key
Ġcost a
pay e
Ġcex io
Ġcryptocu rency
Ġstad ium
h p
Ġh l
ut ility
ire r
Ġstand alone
kr oll
hhhh h
Ġvacc inated
Ġu e
Ġpro jet
Ġad as
Ġcor d
Ġclass ification
keep er
Ġdetr act
r ow
et oro
Ġfin anz
Ġautom otive
Ġfle et
Ġaccus ation
bring ing
crip tonoticias
Ġapl ic
Ġt ern
Ġbitcoin only
Ġwe ath
ap ores
ort ex
Ġext inct
cc c
fl ag
ĠĠĠĠĠĠĠĠ ĠĠĠĊ
Ġsales man
Ġabandon ing
unc ia
Ġc nd
Ġdr agh
Ġinf ant
Ġmor ally
Ġmess i
Ġtele phone
Ġconver gence
Ġpra ised
Ġmathem atic
b anc
Ġthis i
Ġco bra
int el
is in
Ġthisc rep
Ġck b
e ge
Ġst ink
ds a
ced es
Ġhy dra
Ġtruth s
Ġgrand es
Ġgate io
Ġset back
Ġmult itude
bin ary
Ġmatt ress
creat ed
Ġfid uc
n est
Ġg ia
Ġcr us
Ġthisc retion
bit grail
Ġcollect s
fact or
aff ir
Ġhib ern
Ġon etime
Ġwh ack
Ġbr avo
andut mc
viet nam
Ġsu sh
Ġall y
we iss
Ġcomm ands
top s
Ġmod i
Ġdil ute
n ear
Ġt outs
Ġe ot
Ġhim her
Ġpartic l
Ġtem po
Ġtough er
at y
im ity
Ġpe aking
Ġover loaded
ac ious
Ġdes arr
Ġstock ing
Ġnum er
Ġmet adata
d ag
ad min
ere o
Ġdef ended
los ion
Ġtrace ability
Ġdny orum
ar bitr
Ġcon ceived
Ġhe al
Ġun official
Ġthisagree ing
Ġcapit ulate
Ġvisual ization
Ġamend ments
advert ise
Ġto da
al do
Ġcharge backs
Ġic ons
Ġtrib e
Ġextensive ly
Ġres on
Ġbun u
Ġlag i
Ġeager ly
c old
Ġal ab
Ġcoin pot
Ġbox ing
Ġprosper ous
Ġnin ja
ter ra
Ġpray ers
Ġgn lk
Ġbitcoin trade
bl owing
Ġusd btc
Ġcar ibbean
bull shit
Ġykse k
Ġcous ins
al ong
king s
Ġproject ing
Ġproject or
of ts
Ġprot on
enc rypt
Ġfo rens
Ġsyn onymous
Ġcs go
Ġmarsh als
ab b
uss ions
sw itzerland
Ġdent ist
Ġfreel ancers
Ġdetermin istic
n ue
en ow
augh ty
Ġrefuge es
n amed
Ġcon qu
Ġfrid ge
Ġsens or
Ġfoc uss
Ġcryptocr ash
Ġn gi
Ġmo oooo
Ġfomo ed
Ġvechain s
Ġtrou bled
Ġconstr aints
Ġpare ce
v oy
Ġcrypto land
Ġat las
ut il
Ġfl ux
Ġarbitr ation
z on
Ġg ist
ut able
ast ers
Ġbullish ness
Ġwick ed
Ġtoy ota
exc use
Ġpuss ies
bitco ing
re fill
ent o
Ġall ah
ig l
Ġet k
con c
Ġthisc ourse
Ġsf m
mag ic
Ġstrengthen ing
x n
Ġh unch
oc re
let ed
Ġbr ah
Ġel f
dig ibyte
Ġfranc is
Ġi on
Ġno bodys
Ġbreak er
orr upt
Ġwhitelist ed
Ġsociet al
Ġex orbit
zz y
Ġcit igroup
vol ent
Ġpiyas a
ofc ourse
bitcoin ist
Ġap ology
Ġtand em
Ġal r
com pass
Ġaug mented
Ġfol ow
mem bers
Ġre loc
ay er
Ġhard work
Ġsurr ounded
p ac
st at
is en
andgt ethereum
Ġpat r
af rica
Ġlocal bitcoin
Ġhor owitz
f ile
Ġd ine
itor ies
Ġbatt ling
Ġpaycheck s
s d
et z
Ġj ai
crypto pia
Ġdi ren
Ġcatastr ophe
Ġoverha ul
ir as
Ġar n
Ġthing y
Ġavoid s
mor gans
Ġcapt ures
Ġastro logy
Ġsloven ia
c losing
ow e
Ġmo ld
sh es
Ġenjoy able
Ġkr w
Ġbol ster
Ġdeth ron
Ġb ounds
Ġfr ig
Ġtour naments
Ġtoxic ity
Ġsabot age
Ġa eon
es cape
Ġgr im
form ing
Ġtur bul
Ġconfig uration
Ġdesc end
Ġsanction ed
Ġa ids
Ġfre er
Ġaut or
Ġbo asts
Ġes pa
Ġzero hedge
invest ments
sl ot
Ġhon our
Ġast eroid
Ġdav or
w z
Ġtr ains
Ġme ll
Ġpur ge
Ġcraz iness
Ġnav ig
Ġfx street
l ah
er ver
Ġfr ances
Ġnow s
ro b
he h
Ġcraz ier
Ġsens ors
comput ers
surpr ised
Ġcig arettes
ver ting
Ġint angible
Ġtw omonth
Ġpredict ive
Ġicon ic
Ġhint ed
Ġi ps
Ġm gt
Ġbitcoin a
am b
Ġcrit ically
Ġtur tle
Ġredeem able
Ġh ides
Ġpremium s
Ġbash es
Ġbe arer
Ġra j
Ġincom es
Ġbitcoin e
to fs
Ġwhist le
Ġnew ton
Ġjames on
wel ve
heav y
w age
ut ms
ak u
Ġfud sters
Ġmultip les
Ġdal io
a ic
Ġto w
Ġl nd
w ants
x z
Ġab undant
Ġfr an
Ġq c
Ġhar ris
link s
Ġflow ers
diff ic
shout out
Ġzur ich
Ġoverthe counter
Ġit u
Ġtrans cript
launch ing
Ġfreel ancer
Ġkh ng
Ġth c
Ġp ensions
Ġre investing
Ġdi ario
Ġty r
uu u
rich ard
Ġt apped
Ġdo get
res pective
Ġhin ting
od ium
Ġdis aster
c ule
Ġv od
more over
Ġcity s
Ġnap ster
Ġtien en
Ġw c
aw w
Ġcrypt ome
Ġrecogn ised
alle ged
Ġfiver r
ll l
Ġh erm
and r
Ġinter bank
m h
Ġu an
se es
and e
Ġsl ated
Ġbl az
big ger
Ġcol in
Ġimplic it
Ġblu etooth
y p
Ġb ence
an ged
Ġd finity
et work
Ġne pal
up vote
Ġeverything s
Ġopp onents
Ġimport ed
Ġmass ac
may n
Ġfru its
f ool
Ġbitcoin for
Ġr ts
Ġus china
Ġun avoid
Ġactiv ates
dra ft
Ġrah ulkumarx
Ġr uth
un er
Ġen gr
el en
el se
Ġjan et
Ġsl ush
Ġsuper bowl
Ġzer inde
Ġtah min
neg ative
Ġjung le
Ġy oro
Ġdo lp
Ġstr ic
Ġfollow back
bo le
Ġdefin ately
Ġpurpose fully
Ġrh ym
Ġanalog ous
d fs
l v
Ġem bar
Ġig aming
Ġecu ador
re lease
oth is
gen uine
educ ation
jun ior
Ġsp ill
andgt a
Ġher oin
fascin ating
Ġt zero
Ġword ed
business es
Ġchem ical
et op
Ġy ani
id ir
Ġde gr
anc ia
Ġro fl
Ġfi erce
Ġadvis ers
Ġpitch ing
v oc
Ġy n
Ġpr s
Ġk hi
ard en
Ġad ams
Ġpay er
Ġborrow ers
Ġren amed
Ġrecip ients
Ġarrog ance
ot ion
th ailand
ec z
pr im
Ġseat bel
Ġcot ton
Ġprun ing
Ġcele bs
Ġd ess
Ġnever mind
Ġcoup ons
Ġincorpor ating
Ġrot ation
Ġmiser ably
ter ior
unk y
Ġswe ating
t une
Ġsh un
Ġsa it
ph ia
ler ini
ann ounced
Ġcraw l
m ond
an on
Ġend lessly
Ġcollect ions
off ers
Ġec st
ap ult
Ġcharge back
fact ory
d in
Ġan lam
if moptions
Ġsl aughter
Ġfil ms
Ġmes mo
l ace
ay o
ell ed
s it
Ġb ore
Ġre install
Ġdef unct
Ġbad ge
Ġdev i
Ġbaby doge
Ġtend encia
Ġnas car
onom y
Ġb hi
Ġun anim
Ġel rond
Ġtag ging
tex as
Ġcryp ro
eeee e
Ġconstit utes
Ġt wh
st ates
Ġbrand on
Ġplug ins
ugg ling
k ver
Ġl ark
de flation
Ġbusiness finance
Ġfur ious
Ġfed eration
Ġnun ca
Ġdzel t
Ġk ryp
Ġwho lly
Ġph ant
Ġcomplain ed
c ient
p ins
Ġactiv ist
Ġclear ance
Ġgif emote
Ġlum en
Ġl uk
ot c
Ġtele communic
x j
Ġo tra
Ġun spent
Ġeurope ans
Ġf oul
Ġfl ame
Ġtalk in
g af
r ou
Ġv os
Ġmedi ocre
Ġdragh i
Ġpu eden
Ġind icted
Ġevange l
d unno
Ġpres erving
um mm
Ġamm ount
ar in
Ġno brain
ple as
Ġshow c
predict ions
Ġad mission
Ġneed y
its u
Ġwatch ers
Ġep och
ik t
Ġpeer review
Ġretest ed
y h
Ġst ap
Ġthis connected
Ġv ind
bo is
Ġden ver
Ġtravel er
Ġchuck le
c mc
Ġh ush
Ġdr ill
Ġrec uper
Ġdark ness
Ġyoro i
p ak
Ġwr apping
some how
Ġunicorn s
Ġl akh
Ġr ies
ie ving
b ird
Ġl vl
Ġwast es
Ġpsych ologically
adel phia
Ġg ps
Ġlong ed
Ġfre aks
Ġperform ances
Ġbi ases
Ġconsult ants
Ġnuest ro
Ġfl uff
f z
ung s
Ġpon y
Ġchild hood
Ġstream line
h tc
Ġt ld
Ġg ana
Ġpre market
bo ot
andgt im
Ġlol z
Ġstud ios
Ġcontempl ating
Ġet a
Ġround table
Ġbed room
Ġpill s
et ti
Ġdef acto
Ġclash ic
Ġh any
do ors
Ġz el
Ġmet ro
cons ens
Ġtai lored
Ġo xy
pr oper
og en
Ġemer gent
develop ed
eas iest
ke vin
Ġwe ary
int age
Ġmer ging
Ġstat istically
Ġtip o
fill ed
Ġn ab
Ġal as
ard on
Ġalt n
Ġb gold
Ġf akes
um o
out side
Ġcon descending
ah n
Ġpar alar
Ġden omination
Ġgar lic
y ak
en gers
Ġv ou
Ġtrans c
Ġico bench
Ġyok sa
Ġupto date
Ġfuncion a
is ite
Ġthis place
Ġma cr
so oo
Ġwe andre
Ġthere after
Ġte knik
Ġcr ied
Ġshort lived
af aik
Ġpess o
ank a
Ġsch on
Ġek ilde
iv as
gr ounds
Ġalc ista
Ġc vc
Ġl ak
Ġmin ts
gen ces
Ġaccomp an
l iness
ple x
Ġdes pus
Ġll ev
pat ient
Ġemphas ize
Ġp gp
Ġbe in
Ġfor ged
Ġpr ague
Ġinvo ices
Ġmurd ered
c ake
Ġg orge
Ġr blockchain
ach us
Ġproblem a
Ġrest ing
Ġhes ab
Ġmanufact ured
Ġparabol a
Ġtour ist
Ġmuslim s
Ġc zech
ch ten
Ġma id
Ġfin als
Ġtreas uries
Ġfif a
Ġstric ter
y ield
Ġp au
Ġbr is
Ġret ains
andgt we
Ġlock er
Ġsle eve
Ġdraw back
bur st
Ġkeynes ian
Ġfranch ise
Ġemper or
s ervice
Ġf ag
Ġban non
Ġgot cha
Ġfacilit ated
Ġcybers pace
Ġr k
Ġop ed
Ġrep erc
Ġlay out
Ġur ged
port folio
Ġunlock ing
Ġgaz ette
Ġcycl ical
typ ical
ind ones
br on
Ġspecific ations
Ġell iptic
launch ed
h int
Ġcr ore
Ġland mark
Ġarch iv
e at
p ax
Ġn ails
Ġv n
em in
ope z
Ġprofit ably
ete ch
Ġexhaust ion
de li
Ġhom inem
Ġout flow
Ġout flows
Ġlong awaited
Ġstock holm
pro cess
check ed
Ġcub a
Ġd ier
sh oot
Ġver se
Ġfur th
Ġelev ator
Ġne vada
Ġsh red
un it
omm unity
orre lated
Ġvirgin ia
Ġorphan ed
op ening
li kes
Ġco op
kt ir
Ġsubscrib er
Ġtan to
Ġgetrich quick
Ġd aughters
ol ic
Ġbang kok
austral ias
Ġthiss ent
d os
Ġs nt
Ġthat d
us u
Ġshop pers
f en
w q
Ġc app
Ġoverwhelming ly
ab it
Ġcirc us
Ġinj ury
Ġthistrib utes
Ġunc ensored
Ġrout er
Ġm ute
Ġy am
Ġst ale
Ġemb assy
bad ger
purch ase
st ated
Ġit er
ig ious
Ġtrick le
Ġspo iled
Ġtrag ic
ab ra
Ġms rp
Ġbol t
piv ot
Ġz kroll
Ġid c
Ġill inois
Ġhousehold s
Ġle af
dr iving
Ġbab e
Ġdol ares
Ġwh ip
out e
ter ium
Ġknow led
Ġag end
hit btc
Ġp ps
Ġsh erman
Ġpost al
Ġhen ry
k z
if er
iy ear
firm ation
Ġt ys
ch allen
Ġr ationally
Ġmo oon
Ġexist ent
Ġcloud mining
far ming
Ġnarc iss
ow a
Ġoff load
Ġtal ents
Ġwithdraw l
Ġswe pt
Ġretreat s
c ci
coin check
ere k
Ġeth lend
Ġbul b
id ian
we e
Ġwin ds
Ġpara chains
Ġca e
Ġjar gon
at least
Ġgo ss
un iswap
electr oneum
j en
Ġl ac
Ġg ona
Ġim mer
Ġflash ing
Ġmagn ific
Ġbell ow
millenn ials
h v
Ġdec ree
Ġattract ions
gp eng
l uc
r ough
Ġmo ore
de e
Ġover he
Ġbree ze
Ġsec recy
Ġsm oked
str aight
lk yc
Ġknock off
Ġprag matic
j ul
Ġj eez
Ġgrand father
greg or
Ġprompt ly
ll es
Ġl ords
Ġpos ing
sec ured
Ġcompr ised
Ġrdoge lore
Ġmillen ials
b ak
et ta
Ġpoin tofs
orm al
Ġphoto graphy
Ġfreak in
natur al
re ceived
Ġpe lo
Ġob nox
Ġske wed
Ġcam eras
Ġron nie
Ġmultic urrency
ab as
Ġgener als
Ġjav atoken
Ġgig gles
Ġmel hor
Ġan te
Ġtoken izing
Ġdi vert
wit ch
Ġbuff er
Ġsab e
Ġthumb n
Ġwe er
Ġfun eral
Ġpain fully
Ġimper ative
s igh
Ġj aw
Ġeth e
Ġmor gans
str uct
Ġdog g
sent iment
Ġgrass roots
Ġaccompan ied
th ous
Ġal on
Ġinf ring
Ġav alon
Ġant ib
xx xx
Ġtu do
Ġfath om
eterm ined
p omp
Ġk os
Ġpol k
Ġmind less
Ġsimilar ity
th ist
Ġr ade
Ġv ain
Ġfin ans
Ġgold silver
Ġbar ring
fed s
Ġsport ing
Ġexempt ion
om ething
th ed
Ġpro active
Ġac um
Ġtransfer ing
Ġticket ing
Ġfundra iser
Ġmotherfuck er
h l
Ġsu be
Ġthr ust
Ġwealth iest
Ġcryptot witter
Ġfriction less
t ap
Ġf ert
Ġh mu
Ġty coon
Ġcompound ed
Ġmund ial
Ġblock hain
bers ome
Ġsn ark
Ġmi xt
Ġouts iders
r ust
r av
y u
im g
Ġno stal
Ġbeginning s
Ġalph abet
Ġimpuls ive
Ġnobrain er
em oth
Ġsub ir
ian z
Ġfre ed
Ġexploit ation
Ġpuzz les
sovere ign
Ġal mighty
Ġhe aps
cryptocurrency comments
z imbabwe
Ġj tokens
Ġli p
Ġk anal
well s
Ġrein force
Ġal mak
Ġinvest imento
Ġabstr action
g ap
Ġt inder
Ġas f
Ġde ve
if ting
Ġar dr
Ġimper ial
compet ition
c ub
Ġi exec
Ġsu d
com pl
Ġsleep er
black rock
Ġadress es
Ġthir ty
Ġre affir
Ġj up
Ġch ime
Ġam ple
pt ic
Ġrece ip
Ġbutt coin
Ġcrum ble
Ġsatosh il
Ġthisgr ace
achus etts
Ġw ats
Ġcrypto bitcoin
indic ator
Ġunavoid able
y x
Ġf og
Ġeos io
st ant
Ġbr uno
Ġcor ners
Ġrede emed
Ġsuppress ion
Ġdepreci ation
g ro
er pt
Ġv icious
Ġsh ore
Ġac aba
fir ms
Ġtrav s
Ġprofess ors
don andt
spe ed
Ġflee ing
Ġun il
Ġcr ies
Ġpay za
el im
rem ove
Ġadministr ative
Ġh pb
Ġdepreci ate
Ġu v
th es
Ġpro ces
Ġmor als
Ġom i
xbt usd
w ife
Ġ ern
Ġg ents
Ġdo land
Ġalg un
Ġling ham
Ġnow add
Ġfe ather
Ġlook out
Ġpressure s
Ġapro x
ar izona
Ġfe min
Ġbinance com
Ġcapital isation
Ġthispos al
g age
q i
qu ier
Ġreg ains
Ġgam bled
Ġenc ore
keep ers
Ġhee ft
os a
Ġcoll ude
Ġunique ly
start s
Ġvari ants
Ġmort ar
Ġparall els
k om
Ġst iff
Ġno od
Ġround ed
Ġolm az
Ġont ario
Ġrar ible
m achine
Ġa we
ke i
Ġcrypto exchange
ol n
il ir
ert a
Ġhar ga
Ġpet e
Ġadvoc acy
wart z
Ġdeuts ch
as ity
Ġne bulas
bo i
Ġdam mit
fig ure
ry s
ah ead
Ġconf ido
real istically
Ġgib t
Ġverd ict
Ġexorbit ant
ay n
Ġbu nt
Ġv ien
Ġcryptocurrency blockchain
app les
Ġein em
Ġcum ulative
Ġwash ed
Ġhav nt
Ġtransl ations
Ġe ch
Ġv enez
Ġmon de
Ġav oc
Ġexc erpt
p icked
Ġb aidu
Ġc age
ce c
Ġde lla
Ġq a
Ġmult iyear
Ġbreakout s
Ġstaff ing
c and
Ġsafe gu
Ġir c
Ġhac im
od d
fore cast
Ġpot encial
Ġneg ot
Ġmis read
Ġbuffet ts
hmm mm
Ġthisp ens
Ġweaken ing
Ġquadrup le
t ail
Ġy as
Ġhe mp
Ġbr a
Ġcollabor ating
w v
light s
Ġmerc ury
Ġcum bersome
e ws
k p
Ġr lc
Ġpl a
Ġvalue less
af ting
ins urance
perform ance
ban ning
Ġplug ged
Ġr ica
Ġj esse
Ġpay off
Ġdr aining
he ight
Ġem oney
pl ane
ch as
ans action
Ġstr ides
Ġstupid est
Ġfell a
Ġtor ch
Ġtel coin
Ġaur ora
Ġn aga
um ers
Ġk sa
show ing
Ġcorrel ations
ab al
Ġoccur rence
rop y
Ġd ill
Ġn aughty
ont e
Ġimpact ful
Ġcooper ative
Ġrecom end
Ġburbu ja
y im
Ġe currency
Ġcoin star
Ġsand ers
Ġphilipp ine
Ġover flow
Ġrec ieved
con ference
ma is
aa ay
Ġcompl ains
Ġodd ly
Ġiftt te
Ġlit igation
c nn
n ip
Ġj est
Ġtest nets
Ġsafe haven
Ġsk ipped
Ġperfect ion
fin ished
Ġt apping
Ġand s
Ġre load
am oto
Ġim mers
Ġpre gn
co gn
Ġsens es
Ġcance ls
isy on
pon zi
Ġv ard
Ġk yle
Ġhop ped
Ġsize able
Ġconst itute
Ġpeop l
Ġcasas cius
Ġhe h
Ġtal iban
Ġmark er
Ġgrand kids
h iring
ks w
Ġes a
Ġdesp ise
sud den
Ġb ith
Ġlo af
sh ock
Ġhes ap
sign als
Ġpiss es
Ġinject ion
Ġnosed ive
Ġi x
Ġk ya
ab ad
Ġlife changing
Ġtek nolo
Ġhal ves
Ġdan ny
Ġstar ving
oper a
Ġminist ers
w aking
bo o
Ġber keley
Ġsli pping
s ources
Ġinst amine
Ġfact ually
Ġdev ote
Ġfashion ed
Ġn ing
Ġalt u
Ġext inction
Ġnote worthy
Ġas i
Ġas pir
ut er
Ġbel i
be hind
Ġbull ets
Ġchair s
Ġboss es
Ġxbt social
Ġlith uan
Ġw ert
Ġf ang
Ġper mitted
Ġsign ups
Ġfac et
Ġentrepreneur ship
Ġcyn ical
Ġretros pect
Ġb ourse
Ġchar lat
Ġorgan ised
Ġmoron ic
Ġresum ed
g ost
w es
Ġb our
Ġd xy
Ġent rench
Ġaw fully
Ġconf ess
ention al
abil idad
Ġflo ors
Ġproyec to
Ġnegot iate
j ose
p erm
Ġb ili
Ġe cash
Ġen qu
Ġper f
Ġbegin ing
Ġir respective
Ġliter acy
Ġsort ing
Ġfo il
Ġcand ies
Ġf aking
Ġtr ilemma
Ġalt na
Ġcos a
Ġthro at
fauc et
Ġturbul ence
u hh
Ġp loy
Ġh ng
all ows
Ġthem es
Ġoc n
emb our
d x
ens ity
Ġred und
c mo
Ġtr ucks
Ġus h
plan ning
cou ple
Ġhamp shire
m ount
act ively
Ġpl eth
Ġass im
Ġequ i
Ġground ed
lam bo
col or
Ġhany ecz
o cean
Ġn ere
kind ly
Ġcounterfe iting
Ġhuman itarian
Ġchamp agne
Ġtitan ic
Ġobser vers
Ġsleep s
Ġsepar ating
fa q
Ġdemon et
Ġappropri ately
mom ent
Ġreceip ts
r ange
Ġs ided
Ġand ere
ic in
Ġflaw less
Ġunif orm
t ow
on de
Ġli vel
Ġam lkyc
ors un
me ans
str atis
Ġtrack ers
Ġdan n
bd c
sn ap
Ġjon athan
kar ma
c iv
an se
al ah
ere ncia
Ġch en
Ġout ages
Ġshel f
Ġutop ian
j ones
Ġnext generation
Ġconsult ancy
Ġfle w
Ġinject ed
Ġarrange ment
Ġgele cek
k f
w ishing
Ġt av
Ġdec or
Ġilleg it
Ġchild s
t is
op ened
Ġar s
Ġrespons ibilities
comp atible
sth anks
Ġscot land
Ġp ans
Ġr ake
Ġal w
Ġle ve
Ġhigh quality
Ġq s
Ġtotal itarian
por ary
Ġnach rich
Ġten cent
Ġow ing
Ġpier re
Ġnumb ered
h ats
w b
Ġv ets
Ġco binhood
Ġcor rid
Ġglobal coin
Ġsun shine
cal iforn
Ġbitcointalk org
h und
Ġav a
Ġsynth et
l un
out er
Ġse ag
Ġimp lant
Ġdoubt ers
Ġfab ulous
Ġfruit ful
Ġn gl
im ma
ual s
Ġuni qu
Ġenc ryp
Ġmedium term
Ġsimpl istic
Ġgrad uated
Ġmultip lying
Ġmich igan
Ġpupp ets
manage ment
k az
Ġsto s
Ġsupp lant
Ġbo bs
any time
Ġmus ical
Ġrhym es
Ġmultimillion aire
Ġobser ver
on chain
est l
Ġwork force
cc a
Ġmob ius
Ġcommercial s
Ġram ifications
Ġrejo ice
Ġsc ur
Ġteam ed
Ġlat t
Ġcar ter
got cha
Ġexplore rs
f ue
Ġs ill
eth ub
ate gor
ac x
Ġvalid ates
Ġbab ys
Ġspell s
Ġstagn ate
Ġumbre lla
Ġpointofs ale
Ġon ward
Ġk ii
Ġout fit
btc c
Ġfair x
Ġbi otech
Ġkidna ppers
Ġph ill
Ġbi weekly
Ġsummar ize
b andgt
er se
ar c
ump s
Ġconf uses
Ġbear market
fr act
Ġcrip tos
Ġcoff in
Ġqual ifies
Ġconstruct ed
exper ience
atom ic
incre ase
Ġindict ment
w f
Ġe q
Ġr if
Ġimp art
Ġmas cot
en ot
Ġpe pper
Ġar bit
fe as
Ġpo of
Ġq nt
Ġec dsa
Ġvouch er
Ġgorge ous
Ġpleth ora
k ur
Ġt welve
Ġhe ge
Ġinf ura
Ġjud as
Ġdetect or
Ġconsult ation
Ġunve il
Ġc mt
Ġpro ver
ok o
Ġfl irting
Ġgrand children
Ġfl ames
Ġcoinc ides
Ġpir ates
f aster
Ġla wn
Ġtake aways
Ġda vis
Ġmed al
Ġamaz es
Ġmist er
tell ing
Ġy us
Ġout er
Ġtw it
any or
Ġtap estry
aunt ing
ol i
Ġten go
Ġvill ain
Ġresur gence
s bi
Ġs th
Ġy fi
Ġv ag
Ġk ash
Ġsw oop
Ġau nt
Ġbek le
Ġabsor bed
j ak
Ġw ound
Ġpay eer
et on
Ġj ap
Ġle h
Ġgr ap
att acks
Ġwitness es
Ġpostp ones
Ġgross ly
Ġempres as
consens ys
Ġl v
Ġg iz
Ġre ar
Ġsm o
Ġill ustrate
af c
ins ight
Ġge ht
withdraw al
t ill
it ty
Ġreg ression
Ġbl uff
Ġav ant
Ġearth s
u q
Ġv hs
Ġque l
Ġba ja
Ġaven ues
Ġkryptowhr ung
d ia
Ġn gy
Ġj ih
Ġrethistrib ute
ge m
Ġun imag
Ġproject i
ah am
pl ans
bit ch
Ġemphas ized
israel i
m agn
Ġv ra
Ġch u
Ġtest ament
Ġspo oked
Ġbul garia
Ġbitcoin friendly
just ice
Ġfund strats
Ġgrand parents
Ġtown s
Ġdal am
feature d
c ence
Ġd ipp
Ġfor ge
Ġac es
Ġsuper a
Ġdark coin
mal ta
u ren
ion i
Ġnot ify
Ġad ausd
Ġem c
Ġbusiness men
Ġperson nel
Ġspe wing
Ġaut umn
Ġspr ink
Ġvlad imir
l av
Ġtick ers
Ġfurn iture
b oss
Ġh onda
Ġdep ot
Ġslow down
Ġms g
to flow
Ġfr i
Ġte p
Ġgr ief
Ġsm th
Ġnegoti ations
Ġincrement al
Ġf cc
Ġd f
Ġbe ard
Ġclos et
Ġrob bers
Ġvib rant
s cr
Ġa ad
Ġover load
Ġacc uses
Ġimp osing
Ġreli ed
a ustr
t z
Ġl ent
Ġthis prop
qu ake
Ġcomp osed
Ġho bb
americ ans
c um
k on
ig ital
Ġfr inge
if s
Ġund ec
Ġaccount ants
ny c
Ġhar vey
Ġseason al
buff ett
Ġbris bane
Ġw ank
iz ada
Ġfav ored
Ġol urs
pot ato
Ġb if
ent hus
bre vi
ih il
Ġambig uous
registr ation
ment ation
Ġmon er
Ġpop up
Ġerc s
Ġr l
Ġde lle
ne ment
cc in
Ġdesign ated
Ġtrou bling
Ġdiver gences
gal axy
Ġendeav ors
Ġvol cano
Ġsch wartz
ix a
Ġauthor ization
Ġwh ine
ad ash
ice land
Ġgrup o
Ġbit cin
Ġpar sely
Ġhal ting
abil irsiniz
Ġfan atic
Ġinstall s
met ry
trump s
Ġcolumb ia
Ġs ang
Ġn igh
Ġbe ch
Ġon der
Ġste ering
Ġmac book
Ġbi coin
Ġelix ir
re ction
le aders
Ġde gener
Ġyear n
Ġun founded
Ġfin na
Ġend game
Ġfollow up
Ġbt ch
andg ty
Ġabs ent
Ġblast ing
expl ained
Ġpermab ull
it utes
ar ms
pp s
Ġbull sh
Ġrun down
Ġrevel ation
Ġscumb ag
m eth
Ġwe iter
Ġbeh emoth
Ġnor wegian
Ġtom my
Ġrefer al
Ġrevolution ise
know ledge
sign up
Ġnick name
Ġsp ed
pr it
Ġblog ging
Ġcolle ges
Ġdeval uing
Ġaccomplish ment
Ġdecou pled
Ġpiyas as
Ġsock pupp
Ġcr is
iff erent
Ġsystem atic
Ġmad enc
Ġsr c
Ġmue ller
h ort
at io
Ġv il
Ġcoin one
ro bert
Ġcare full
Ġdev ol
cl a
Ġchallen ger
bc d
Ġredes ign
Ġac id
Ġself s
Ġthisapp ro
Ġcontain ers
Ġmont real
Ġpund its
Ġsust aining
Ġnug gets
Ġst il
ug ging
ci q
Ġbog art
b ip
g ig
at ly
Ġe lo
ad ds
Ġha be
Ġk ij
Ġx trabytes
ep le
Ġaap l
g arian
Ġr op
ide al
Ġign ite
Ġmast urb
Ġmas ks
mi yor
ido ge
crypt onews
local bitcoins
compli ant
squ ares
Ġn udes
Ġg arant
Ġpert aining
Ġkios ks
cour t
h all
Ġb th
as so
Ġne l
Ġmin ha
Ġval eur
Ġbr anson
Ġqu ark
oph oles
Ġstum ble
Ġgrat uit
Ġdefa ults
c ert
e ys
r aw
et ernity
Ġpe u
Ġlo o
Ġdump ers
bu b
Ġpant ies
Ġthe ater
are l
Ġorigin ated
Ġflo ats
Ġrip off
Ġkno cks
Ġbail ing
sle ep
omise go
Ġv t
Ġlo os
Ġlloy d
Ġunsuccess ful
Ġus ur
pt on
Ġback er
Ġind i
Ġhit ler
pal m
Ġol uyor
Ġvan illa
blockchannel rt
Ġappoint ment
ke red
Ġne p
ec dot
oc y
Ġdef ies
ction al
Ġold uu
Ġequ ates
ahah ah
Ġnu anced
Ġacceler ation
Ġdur ante
Ġshame less
Ġmisinter pret
Ġbunt inx
n ge
re pe
Ġworld cryptonet
Ġwork out
Ġven ues
Ġarr ows
vo ir
ch am
ry or
Ġv l
Ġcap ac
Ġdi yor
main net
Ġbat teries
eur o
andlt li
Ġbek lent
sug gest
Ġsush iswap
d z
Ġha zr
Ġhe ed
Ġve ya
Ġdetail ing
jim my
Ġusu arios
x q
Ġd mm
one x
Ġstellar s
Ġtre von
Ġrespect ing
ba e
Ġanalyt ical
Ġineff iciencies
Ġs ath
Ġdev iation
buy ers
h im
Ġtr c
Ġso b
Ġam mo
bo es
ank ed
Ġur gency
Ġdab ble
Ġobnox ious
Ġs g
se lect
Ġex otic
Ġor ient
Ġwor s
Ġma ior
Ġkey log
Ġcustom ized
Ġcontest s
Ġshr ugs
Ġrevis ited
shap eshift
Ġrebal ancing
Ġc ess
ll z
Ġpr ope
Ġun chart
Ġdep uis
Ġa lyor
Ġi ki
Ġwe ars
Ġback fire
ult ural
sp o
Ġscratch ing
Ġpostp one
Ġnur se
kod ak
u ld
Ġc ass
Ġp is
Ġdef er
Ġcool s
iy et
jud ge
Ġrup ees
b ff
ge e
Ġsu l
Ġstr ippers
Ġlist ens
Ġfo oting
Ġsuff ice
Ġforb ids
Ġn urs
Ġl ull
lo lol
Ġad o
Ġright ful
Ġres id
Ġco le
Ġbill ing
Ġperiod ic
Ġstick ied
Ġdisrupt ion
k al
Ġst un
of value
Ġglobal ist
dec red
Ġbypass ing
Ġcomer cial
Ġwe h
Ġpro je
cr itical
Ġimport s
Ġinfl ates
Ġson ras
Ġacqu aint
Ġaltu cher
Ġc isco
ke ls
Ġr g
un ion
ab ling
show s
b art
b ars
j itsu
Ġab brevi
Ġcr a
mor ow
Ġshake pay
Ġditch ing
Ġimpr ison
Ġan os
Ġdid nandt
Ġrec ycl
anc ies
Ġple ads
Ġoligarch s
Ġoce ans
Ġtr ng
pe op
Ġes co
Ġutil ise
Ġselloff s
ag i
ci y
Ġed t
Ġproceed ings
appro ved
Ġth t
Ġb ough
Ġm ph
ll t
Ġbitcoin this
Ġre bell
Ġall ies
ac qu
Ġill ness
Ġimport ing
Ġhome land
Ġphil adelphia
feed back
Ġsimps on
Ġchel sea
or p
ist ol
Ġblock net
Ġav iv
Ġsale for
Ġflo ki
Ġpun ks
Ġtechnolog ie
Ġcriptomo eda
Ġamir ite
Ġo bey
Ġmoon boys
af d
algor and
Ġfilt ers
ur k
Ġlo opholes
Ġthem self
Ġdr um
andgt there
Ġib ms
revol ut
Ġb ix
or as
ak ens
Ġsecret ive
Ġpun to
Ġcontradict ory
Ġm uted
Ġmer cedes
Ġhar bor
c ott
x g
y in
Ġl btc
Ġroger kver
t ouch
Ġbu eno
ac ola
mm er
stable coins
Ġnets cape
Ġhoff man
Ġl ick
Ġse b
ant icip
Ġsub tract
Ġfront page
Ġvent a
Ġsum o
Ġfat f
Ġpit falls
n um
it en
Ġc ok
Ġal n
Ġlo ops
Ġam igo
sign al
op y
Ġthink ers
Ġsol vent
sp an
Ġnecess ities
Ġbee ing
Ġt ch
Ġh z
Ġg tx
Ġdu o
Ġcoal ition
Ġreperc ussions
os ystem
ab ay
Ġun verified
Ġdeb ajo
Ġsle w
Ġsoci opath
r ules
Ġb ode
Ġfe aring
Ġbas k
drop ped
Ġtout ing
Ġclin ic
manip ulation
m k
m v
th emed
Ġbch sv
Ġsing er
u ations
om etr
Ġthis sol
bitcoin in
[...]
