{"[UNK]":0,"[CLS]":1,"[SEP]":2,"[PAD]":3,"[MASK]":4,"!":5,"\"":6,"#":7,"$":8,"%":9,"&":10,"'":11,"(":12,")":13,"*":14,"+":15,",":16,"-":17,".":18,"/":19,"0":20,"1":21,"2":22,"3":23,"4":24,"5":25,"6":26,"7":27,"8":28,"9":29,":":30,";":31,"<":32,"=":33,">":34,"?":35,"@":36,"A":37,"B":38,"C":39,"D":40,"E":41,"F":42,"G":43,"H":44,"I":45,"J":46,"K":47,"L":48,"M":49,"N":50,"O":51,"P":52,"Q":53,"R":54,"S":55,"T":56,"U":57,"V":58,"W":59,"X":60,"Y":61,"Z":62,"[":63,"\\":64,"]":65,"^":66,"_":67,"`":68,"a":69,"b":70,"c":71,"d":72,"e":73,"f":74,"g":75,"h":76,"i":77,"j":78,"k":79,"l":80,"m":81,"n":82,"o":83,"p":84,"q":85,"r":86,"s":87,"t":88,"u":89,"v":90,"w":91,"x":92,"y":93,"z":94,"{":95,"|":96,"}":97,"~":98,"¡":99,"¢":100,"£":101,"¤":102,"¥":103,"¦":104,"§":105,"¨":106,"©":107,"ª":108,"«":109,"¬":110,"®":111,"¯":112,"°":113,"±":114,"²":115,"³":116,"´":117,"µ":118,"¶":119,"·":120,"¸":121,"¹":122,"º":123,"»":124,"¼":125,"½":126,"¾":127,"¿":128,"À":129,"Á":130,"Â":131,"Ã":132,"Ä":133,"Å":134,"Æ":135,"Ç":136,"È":137,"É":138,"Ê":139,"Ë":140,"Ì":141,"Í":142,"Î":143,"Ï":144,"Ð":145,"Ñ":146,"Ò":147,"Ó":148,"Ô":149,"Õ":150,"Ö":151,"×":152,"Ø":153,"Ù":154,"Ú":155,"Û":156,"Ü":157,"Ý":158,"Þ":159,"ß":160,"à":161,"á":162,"â":163,"ã":164,"ä":165,"å":166,"æ":167,"ç":168,"è":169,"é":170,"ê":171,"ë":172,"ì":173,"í":174,"î":175,"ï":176,"ð":177,"ñ":178,"ò":179,"ó":180,"ô":181,"õ":182,"ö":183,"÷":184,"ø":185,"ù":186,"ú":187,"û":188,"ü":189,"ý":190,"þ":191,"ÿ":192,"Ā":193,"ā":194,"Ă":195,"ă":196,"Ą":197,"ą":198,"Ć":199,"ć":200,"Ĉ":201,"ĉ":202,"Ċ":203,"ċ":204,"Č":205,"č":206,"Ď":207,"ď":208,"Đ":209,"đ":210,"Ē":211,"ē":212,"Ĕ":213,"ĕ":214,"Ė":215,"ė":216,"Ę":217,"ę":218,"Ě":219,"ě":220,"Ĝ":221,"ĝ":222,"Ğ":223,"ğ":224,"Ġ":225,"ġ":226,"Ģ":227,"ģ":228,"Ĥ":229,"ĥ":230,"Ħ":231,"ħ":232,"Ĩ":233,"ĩ":234,"Ī":235,"ī":236,"Ĭ":237,"ĭ":238,"Į":239,"į":240,"İ":241,"ı":242,"Ĳ":243,"ĳ":244,"Ĵ":245,"ĵ":246,"Ķ":247,"ķ":248,"ĸ":249,"Ĺ":250,"ĺ":251,"Ļ":252,"ļ":253,"Ľ":254,"ľ":255,"Ŀ":256,"ŀ":257,"Ł":258,"ł":259,"Ń":260,"Ġt":261,"in":262,"Ġa":263,"Ġth":264,"Ġb":265,"re":266,"it":267,"Ġs":268,"Ġw":269,"on":270,"Ġc":271,"Ġthe":272,"er":273,"ou":274,"Ġi":275,"Ġm":276,"Ġp":277,"at":278,"ing":279,"Ġf":280,"or":281,"an":282,"en":283,"Ġto":284,"Ġd":285,"ll":286,"es":287,"Ġh":288,"Ġan":289,"Ġn":290,"Ġo":291,"oin":292,"Ġin":293,"Ġl":294,"et":295,"ar":296,"ed":297,"st":298,"Ġand":299,"Ġis":300,"coin":301,"Ġg":302,"Ġy":303,"itcoin":304,"Ġof":305,"ot":306,"om":307,"as":308,"al":309,"Ġit":310,"is":311,"Ġyou":312,"Ġbitcoin":313,"Ġe":314,"Ġbe":315,"ic":316,"ow":317,"ve":318,"le":319,"Ġu":320,"Ġre":321,"Ġon":322,"ion":323,"ch":324,"ay":325,"Ġfor":326,"Ġwh":327,"ent":328,"Ġthat":329,"ill":330,"ld":331,"th":332,"Ġbu":333,"ly":334,"ver":335,"se":336,"Ġpr":337,"to":338,"ad":339,"ct":340,"Ġdo":341,"Ġnot":342,"ke":343,"ere":344,"ry":345,"ig":346,"ck":347,"ĠĊ":348,"Ġr":349,"Ġst":350,"ur":351,"ce":352,"all":353,"op":354,"id":355,"Ġha":356,"Ġthis":357,"ith":358,"ge":359,"Ġne":360,"im":361,"Ġare":362,"Ġmo":363,"est":364,"um":365,"out":366,"Ġgo":367,"Ġwith":368,"am":369,"Ġwill":370,"Ġas":371,"Ġse":372,"ryp":373,"Ġv":374,"ain":375,"Ġtr":376,"rypto":377,"Ġj":378,"Ġwe":379,"ir":380,"Ġde":381,"eth":382,"lo":383,"Ġli":384,"ust":385,"ould":386,"Ġcrypto":387,"pp":388,"Ġk":389,"Ġso":390,"Ġhave":391,"nt":392,"ers":393,"Ġcan":394,"one":395,"Ġex":396,"Ġat":397,"Ġbut":398,"Ġsh":399,"od":400,"Ġal":401,"ut":402,"Ġcom":403,"un":404,"Ġch":405,"os":406,"Ġpro":407,"Ġsu":408,"Ġab":409,"Ġcon":410,"igh":411,"ĠĠ":412,"Ġor":413,"Ġus":414,"Ġthey":415,"ally":416,"ren":417,"ate":418,"tc":419,"Ġfr":420,"ome":421,"Ġif":422,"Ġyour":423,"ol":424,"il":425,"and":426,"ation":427,"Ġall":428,"ment":429,"ter":430,"Ġme":431,"Ġeth":432,"ice":433,"ul":434,"Ġwor":435,"ab":436,"ant":437,"Ġmy":438,"art":439,"ess":440,"Ġjust":441,"Ġmore":442,"Ġlike":443,"Ġcoin":444,"Ġup":445,"Ġma":446,"renc":447,"very":448,"urrenc":449,"Ġhas":450,"Ġhe":451,"Ġpe":452,"ink":453,"ity":454,"Ġlo":455,"Ġabout":456,"ive":457,"ap":458,"ort":459,"if":460,"ect":461,"end":462,"Ġget":463,"ark":464,"Ġfrom":465,"act":466,"Ġim":467,"ue":468,"Ġbtc":469,"Ġinv":470,"gh":471,"ople":472,"Ġits":473,"ard":474,"Ġby":475,"Ġnow":476,"nd":477,"ight":478,"Ġwas":479,"au":480,"Ġwhat":481,"Ġnew":482,"Ġpeople":483,"Ġsome":484,"ure":485,"Ġbuy":486,"ough":487,"Ġwould":488,"Ġad":489,"arket":490,"us":491,"Ġle":492,"Ġinvest":493,"Ġfe":494,"Ġany":495,"urrency":496,"Ġthere":497,"ies":498,"our":499,"ast":500,"ok":501,"ans":502,"em":503,"Ġout":504,"ereum":505,"ack":506,"Ġbec":507,"Ġthink":508,"lock":509,"Ġtim":510,"Ġmarket":511,"Ġno":512,"Ġte":513,"Ġmin":514,"bitcoin":515,"qu":516,"Ġprice":517,"Ġdoge":518,"Ġpl":519,"ist":520,"ong":521,"now":522,"oney":523,"ie":524,"Ġethereum":525,"Ġsp":526,"are":527,"ash":528,"Ġmoney":529,"Ġblock":530,"ak":531,"ase":532,"ip":533,"Ġone":534,"ause":535,"iv":536,"so":537,"Ġthan":538,"Ġhow":539,"ost":540,"Ġam":541,"ays":542,"ore":543,"Ġtime":544,"Ġknow":545,"ount":546,"Ġcomp":547,"ear":548,"the":549,"Ġtrad":550,"ib":551,"Ġtheir":552,"Ġwhen":553,"ia":554,"Ġac":555,"wh":556,"ks":557,"iz":558,"chain":559,"ite":560,"Ġag":561,"Ġman":562,"Ġpre":563,"Ġbecause":564,"Ġev":565,"Ġcryptoc":566,"ich":567,"Ġevery":568,"Ġoth":569,"ions":570,"tr":571,"pt":572,"Ġsee":573,"ame":574,"Ġonly":575,"Ġgood":576,"Ġwho":577,"Ġar":578,"ĠĠĊ":579,"Ġyear":580,"ial":581,"Ġuse":582,"able":583,"we":584,"Ġexp":585,"ound":586,"ance":587,"Ġen":588,"for":589,"ide":590,"Ġun":591,"Ġtrans":592,"old":593,"Ġsa":594,"chan":595,"Ġneed":596,"ag":597,"Ġblockchain":598,"Ġother":599,"de":600,"Ġover":601,"own":602,"Ġfin":603,"Ġwant":604,"Ġthen":605,"reat":606,"ake":607,"Ġban":608,"Ġsc":609,"ous":610,"ens":611,"Ġthem":612,"ont":613,"king":614,"Ġcr":615,"Ġmake":616,"Ġpay":617,"Ġval":618,"Ġstill":619,"ree":620,"Ġbeen":621,"Ġexchan":622,"Ġbet":623,"Ġgr":624,"Ġgoing":625,"Ġx":626,"oll":627,"ine":628,"its":629,"Ġaf":630,"ep":631,"Ġcryptocurrency":632,"Ġinto":633,"oth":634,"Ġeven":635,"ire":636,"age":637,"Ġdoes":638,"Ġsto":639,"Ġlook":640,"ject":641,"Ġhere":642,"Ġbr":643,"Ġoff":644,"Ġback":645,"Ġmu":646,"Ġalso":647,"Ġwhich":648,"el":649,"Ġcould":650,"Ġinc":651,"Ġcoins":652,"Ġhigh":653,"Ġqu":654,"day":655,"ish":656,"Ġsell":657,"Ġdown":658,"Ġmuch":659,"Ġmon":660,"Ġdec":661,"Ġapp":662,"Ġke":663,"no":664,"Ġthing":665,"Ġhold":666,"Ġact":667,"Ġwall":668,"arn":669,"ber":670,"ace":671,"Ġway":672,"ting":673,"Ġstart":674,"Ġsupp":675,"Ġshould":676,"Ġvery":677,"oss":678,"Ġfir":679,"ose":680,"ump":681,"Ġlong":682,"Ġwhy":683,"vel":684,"Ġmost":685,"uture":686,"ac":687,"Ġgu":688,"Ġacc":689,"Ġbig":690,"Ġproject":691,"ys":692,"ets":693,"Ġfuture":694,"read":695,"Ġcl":696,"Ġmay":697,"Ġtech":698,"Ġhapp":699,"Ġsay":700,"Ġright":701,"Ġbel":702,"ff":703,"Ġreally":704,"Ġdr":705,"ated":706,"ile":707,"Ġworld":708,"Ġund":709,"form":710,"res":711,"Ġtransact":712,"Ġreal":713,"Ġcash":714,"Ġmany":715,"Ġvalue":716,"Ġpost":717,"be":718,"ors":719,"wor":720,"Ġfirst":721,"Ġsec":722,"Ġvia":723,"ought":724,"ral":725,"Ġtok":726,"ro":727,"ign":728,"Ġfun":729,"Ġper":730,"Ġop":731,"Ġdid":732,"wn":733,"Ġnews":734,"Ġpart":735,"Ġcurrency":736,"ds":737,"Ġfu":738,"Ġunder":739,"ass":740,"ne":741,"co":742,"Ġagain":743,"Ġimp":744,"Ġsm":745,"ach":746,"illion":747,"ail":748,"ble":749,"Ġint":750,"Ġlot":751,"Ġla":752,"Ġbit":753,"ick":754,"Ġtrading":755,"Ġtoo":756,"Ġadd":757,"Ġday":758,"Ġreg":759,"ving":760,"Ġour":761,"Ġown":762,"Ġres":763,"xt":764,"Ġcomm":765,"Ġwee":766,"Ġafter":767,"ise":768,"ments":769,"Ġdont":770,"Ġprof":771,"bl":772,"not":773,"thing":774,"ually":775,"ts":776,"gr":777,"fore":778,"Ġexchange":779,"gy":780,"Ġcontr":781,"ind":782,"Ġchan":783,"ec":784,"Ġtake":785,"ah":786,"Ġwallet":787,"cept":788,"Ġwell":789,"entral":790,"you":791,"Ġwere":792,"ital":793,"Ġnet":794,"Ġsom":795,"ade":796,"ious":797,"ning":798,"Ġstr":799,"this":800,"Ġche":801,"Ġbeing":802,"Ġthese":803,"yst":804,"iff":805,"ily":806,"Ġread":807,"Ġrep":808,"fe":809,"Ġgreat":810,"Ġmining":811,"Ġgot":812,"Ġmonth":813,"Ġcons":814,"Ġbefore":815,"ary":816,"ible":817,"Ġyears":818,"work":819,"red":820,"Ġwhere":821,"Ġlow":822,"Ġser":823,"Ġfree":824,"Ġbetter":825,"up":826,"Ġnext":827,"Ġsame":828,"Ġass":829,"Ġhad":830,"Ġtw":831,"Ġkeep":832,"Ġcap":833,"Ġbitcoins":834,"Ġdiff":835,"other":836,"Ġtry":837,"ond":838,"Ġhard":839,"ges":840,"ress":841,"Ġsupport":842,"Ġlast":843,"Ġrec":844,"Ġusing":845,"ince":846,"ty":847,"ons":848,"ations":849,"ence":850,"Ġsure":851,"anc":852,"Ġpu":853,"Ġbelie":854,"Ġwa":855,"ething":856,"Ġthose":857,"li":858,"Ġtoday":859,"ope":860,"Ġinst":861,"erest":862,"sel":863,"Ġbest":864,"urrencies":865,"unity":866,"Ġbull":867,"erm":868,"Ġcur":869,"Ġpoin":870,"what":871,"ready":872,"ple":873,"Ġsomething":874,"Ġcont":875,"Ġnever":876,"ized":877,"Ġro":878,"Ġel":879,"Ġweek":880,"Ġwork":881,"Ġcount":882,"Ġhappen":883,"llar":884,"Ġnetwork":885,"ystem":886,"ways":887,"ical":888,"ility":889,"ward":890,"lp":891,"cess":892,"he":893,"ger":894,"velop":895,"Ġalready":896,"Ġfew":897,"az":898,"Ġhis":899,"Ġent":900,"Ġrun":901,"ased":902,"Ġalt":903,"Ġthr":904,"Ġinter":905,"Ġdevelop":906,"Ġbo":907,"Ġfi":908,"Ġend":909,"ult":910,"Ġco":911,"Ġris":912,"do":913,"Ġda":914,"new":915,"atch":916,"Ġhelp":917,"Ġtop":918,"ollow":919,"rent":920,"Ġinf":921,"Ġsince":922,"Ġz":923,"Ġrem":924,"ft":925,"Ġworth":926,"Ġinterest":927,"Ġind":928,"Ġwr":929,"uct":930,"ud":931,"bs":932,"Ġcannot":933,"any":934,"Ġet":935,"ves":936,"ices":937,"me":938,"oc":939,"ipp":940,"ict":941,"Ġgold":942,"Ġaround":943,"stand":944,"Ġinvestment":945,"iss":946,"less":947,"Ġeas":948,"Ġyoure":949,"Ġtal":950,"itt":951,"ful":952,"vern":953,"ition":954,"Ġbank":955,"ath":956,"vers":957,"ating":958,"Ġsol":959,"Ġfollow":960,"Ġsign":961,"Ġused":962,"Ġsim":963,"ax":964,"Ġdig":965,"Ġmade":966,"Ġearn":967,"ory":968,"nolo":969,"gt":970,"Ġpoint":971,"con":972,"Ġem":973,"ative":974,"Ġdiffere":975,"Ġgovern":976,"Ġbelieve":977,"Ġbuying":978,"pr":979,"Ġcurrent":980,"Ġaccept":981,"Ġprofit":982,"Ġsaid":983,"Ġdef":984,"Ġaw":985,"Ġalways":986,"Ġaccount":987,"Ġwait":988,"Ġscam":989,"Ġput":990,"dr":991,"Ġdes":992,"Ġunderstand":993,"Ġwhile":994,"Ġtoken":995,"Ġcall":996,"Ġtechnolo":997,"ert":998,"Ġactually":999,"io":1000,"Ġplat":1001,"aking":1002,"Ġanother":1003,"av":1004,"how":1005,"Ġreas":1006,"Ġdays":1007,"fer":1008,"Ġpers":1009,"Ġconf":1010,"self":1011,"Ġthings":1012,"Ġvol":1013,"Ġincre":1014,"Ġsystem":1015,"ual":1016,"com":1017,"Ġcor":1018,"gest":1019,"Ġsoon":1020,"Ġbought":1021,"Ġret":1022,"Ġplatform":1023,"ved":1024,"arch":1025,"Ġatt":1026,"Ġlist":1027,"ĠĠĠĊ":1028,"Ġgive":1029,"Ġgrow":1030,"Ġeveryone":1031,"Ġlaun":1032,"go":1033,"btc":1034,"Ġpow":1035,"pe":1036,"Ġsur":1037,"Ġmillion":1038,"Ġgen":1039,"bo":1040,"Ġseem":1041,"Ġtransactions":1042,"ution":1043,"aw":1044,"ably":1045,"hing":1046,"Ġplay":1047,"Ġide":1048,"ically":1049,"Ġdrop":1050,"Ġadv":1051,"Ġdollar":1052,"ale":1053,"crypto":1054,"ates":1055,"Ġterm":1056,"Ġposs":1057,"Ġgain":1058,"Ġthrough":1059,"Ġxr":1060,"Ġregul":1061,"Ġbus":1062,"Ġtransaction":1063,"Ġshort":1064,"Ġhope":1065,"Ġfees":1066,"arly":1067,"Ġmight":1068,"get":1069,"let":1070,"Ġbre":1071,"Ġmean":1072,"Ġtrade":1073,"Ġfeel":1074,"Ġcommunity":1075,"ied":1076,"iness":1077,"urn":1078,"Ġusd":1079,"Ġid":1080,"base":1081,"Ġpubl":1082,"Ġdigital":1083,"les":1084,"ize":1085,"nce":1086,"Ġset":1087,"ild":1088,"Ġcheck":1089,"Ġpump":1090,"Ġcome":1091,"Ġgetting":1092,"der":1093,"Ġmove":1094,"Ġaltcoin":1095,"ether":1096,"na":1097,"Ġhu":1098,"ats":1099,"Ġfar":1100,"inance":1101,"Ġanal":1102,"ode":1103,"Ġdep":1104,"Ġph":1105,"blem":1106,"Ġshit":1107,"net":1108,"kes":1109,"Ġfiat":1110,"line":1111,"Ġred":1112,"Ġsub":1113,"Ġfl":1114,"Ġwithout":1115,"Ġsl":1116,"Ġmain":1117,"Ġcard":1118,"Ġdoing":1119,"Ġico":1120,"Ġproblem":1121,"Ġthats":1122,"Ġthough":1123,"Ġtechnology":1124,"entralized":1125,"Ġless":1126,"Ġshow":1127,"Ġanything":1128,"ye":1129,"Ġtokens":1130,"Ġamount":1131,"Ġlaunch":1132,"ents":1133,"Ġste":1134,"per":1135,"Ġexchanges":1136,"Ġbl":1137,"ian":1138,"Ġbusiness":1139,"Ġperson":1140,"Ġjoin":1141,"ĠĠĠĠ":1142,"Ġpos":1143,"Ġleg":1144,"lease":1145,"Ġfind":1146,"sh":1147,"Ġteam":1148,"andgt":1149,"Ġpur":1150,"Ġbad":1151,"Ġsuch":1152,"Ġspec":1153,"Ġdifferent":1154,"uck":1155,"iew":1156,"ially":1157,"ord":1158,"Ġfinanc":1159,"Ġprob":1160,"Ġstock":1161,"Ġyet":1162,"Ġever":1163,"Ġcontin":1164,"Ġill":1165,"als":1166,"Ġunt":1167,"Ġlet":1168,"Ġfact":1169,"Ġinvestors":1170,"Ġreason":1171,"Ġcryptocurrencies":1172,"iend":1173,"ities":1174,"Ġpo":1175,"Ġusers":1176,"Ġmaybe":1177,"Ġlearn":1178,"Ġholding":1179,"Ġpriv":1180,"Ġlooking":1181,"Ġlar":1182,"Ġsomeone":1183,"Ġsend":1184,"Ġnothing":1185,"Ġtax":1186,"ipple":1187,"Ġrisk":1188,"Ġsmart":1189,"pl":1190,"Ġjo":1191,"Ġclo":1192,"Ġiss":1193,"Ġchin":1194,"Ġart":1195,"Ġtell":1196,"ero":1197,"opt":1198,"ands":1199,"Ġmat":1200,"odl":1201,"ered":1202,"air":1203,"Ġxrp":1204,"Ġhour":1205,"ited":1206,"Ġfuck":1207,"Ġlol":1208,"Ġpres":1209,"Ġlink":1210,"Ġdip":1211,"Ġpot":1212,"Ġmaking":1213,"Ġtwo":1214,"Ġmoon":1215,"br":1216,"Ġcreat":1217,"Ġenough":1218,"Ġboth":1219,"ering":1220,"Ġcoming":1221,"Ġmonths":1222,"Ġgiv":1223,"Ġcoinbase":1224,"Ġsw":1225,"Ġq":1226,"uc":1227,"Ġfound":1228,"Ġcontract":1229,"of":1230,"ave":1231,"Ġtrying":1232,"Ġhit":1233,"Ġbanks":1234,"ential":1235,"Ġprobably":1236,"ific":1237,"my":1238,"Ġgener":1239,"Ġfast":1240,"aper":1241,"ues":1242,"Ġanyone":1243,"Ġfull":1244,"Ġuntil":1245,"Ġsat":1246,"Ġchart":1247,"Ġago":1248,"te":1249,"Ġtrust":1250,"uss":1251,"Ġlove":1252,"Ġeverything":1253,"Ġopen":1254,"Ġgovernment":1255,"Ġchange":1256,"Ġpret":1257,"Ġnum":1258,"most":1259,"Ġwatch":1260,"jor":1261,"Ġfinancial":1262,"ittle":1263,"Ġprov":1264,"just":1265,"Ġsays":1266,"Ġquest":1267,"ction":1268,"ug":1269,"Ġav":1270,"Ġchain":1271,"ention":1272,"ime":1273,"Ġins":1274,"Ġlat":1275,"Ġsmall":1276,"Ġmakes":1277,"Ġthought":1278,"Ġive":1279,"but":1280,"Ġbecome":1281,"ano":1282,"Ġidea":1283,"Ġvide":1284,"Ġserv":1285,"Ġlittle":1286,"Ġstop":1287,"Ġadopt":1288,"Ġpower":1289,"ream":1290,"Ġlevel":1291,"Ġbreak":1292,"Ġsuc":1293,"ared":1294,"ute":1295,"Ġaddress":1296,"Ġgoes":1297,"Ġhodl":1298,"Ġwin":1299,"itecoin":1300,"Ġbear":1301,"Ġes":1302,"ics":1303,"ody":1304,"ene":1305,"Ġeff":1306,"Ġexpect":1307,"ove":1308,"Ġfriend":1309,"Ġprop":1310,"Ġfall":1311,"Ġprod":1312,"Ġpayment":1313,"Ġfund":1314,"yes":1315,"Ġmajor":1316,"gin":1317,"Ġdat":1318,"ever":1319,"Ġecon":1320,"Ġhuge":1321,"Ġrel":1322,"ces":1323,"Ġopp":1324,"Ġlive":1325,"Ġcrash":1326,"ware":1327,"oo":1328,"Ġdump":1329,"Ġeconom":1330,"Ġpretty":1331,"ĠĠĠ":1332,"ume":1333,"Ġetc":1334,"Ġprot":1335,"Ġprom":1336,"Ġseems":1337,"Ġable":1338,"Ġsecur":1339,"Ġcompany":1340,"Ġpossible":1341,"app":1342,"Ġlife":1343,"there":1344,"Ġripple":1345,"Ġcase":1346,"Ġpop":1347,"Ġann":1348,"hi":1349,"Ġreach":1350,"Ġinvesting":1351,"Ġguys":1352,"Ġexper":1353,"Ġmiss":1354,"Ġmed":1355,"led":1356,"cr":1357,"Ġfork":1358,"ote":1359,"Ġexpl":1360,"Ġver":1361,"Ġopt":1362,"Ġcorre":1363,"Ġrev":1364,"Ġplan":1365,"ull":1366,"Ġdaily":1367,"Ġhim":1368,"Ġcare":1369,"Ġleast":1370,"amp":1371,"Ġcour":1372,"Ġcost":1373,"Ġonce":1374,"Ġair":1375,"Ġbinance":1376,"Ġbot":1377,"aid":1378,"Ġsaying":1379,"Ġthisc":1380,"Ġdou":1381,"Ġhack":1382,"Ġdem":1383,"ient":1384,"Ġprices":1385,"Ġplease":1386,"Ġagainst":1387,"Ġbillion":1388,"why":1389,"Ġallow":1390,"Ġprojects":1391,"Ġtrue":1392,"Ġselling":1393,"Ġcle":1394,"Ġlitecoin":1395,"Ġconsid":1396,"cos":1397,"Ġpred":1398,"ced":1399,"ysis":1400,"weet":1401,"Ġvideo":1402,"Ġpotential":1403,"Ġmeans":1404,"Ġgam":1405,"Ġce":1406,"Ġtimes":1407,"Ġdev":1408,"Ġform":1409,"ense":1410,"ature":1411,"dit":1412,"bit":1413,"Ġbas":1414,"Ġwrong":1415,"Ġbelow":1416,"search":1417,"Ġdecentralized":1418,"Ġagree":1419,"Ġcoll":1420,"Ġlead":1421,"Ġkind":1422,"Ġstrong":1423,"Ġeasy":1424,"Ġcomplet":1425,"Ġbch":1426,"pect":1427,"lect":1428,"Ġpol":1429,"ged":1430,"ci":1431,"Ġsold":1432,"ween":1433,"bt":1434,"Ġanalysis":1435,"Ġsit":1436,"aim":1437,"Ġstarted":1438,"Ġhigher":1439,"Ġgre":1440,"Ġmom":1441,"Ġcountry":1442,"Ġupd":1443,"gram":1444,"Ġaway":1445,"Ġglo":1446,"Ġpast":1447,"Ġdone":1448,"ular":1449,"Ġbetween":1450,"Ġeach":1451,"Ġabove":1452,"Ġthanks":1453,"wards":1454,"Ġsupply":1455,"Ġimport":1456,"onna":1457,"ished":1458,"ately":1459,"tom":1460,"Ġcre":1461,"Ġbased":1462,"where":1463,"ither":1464,"Ġelse":1465,"Ġsuccess":1466,"body":1467,"Ġminers":1468,"vert":1469,"Ġwhole":1470,"ging":1471,"Ġmass":1472,"Ġresearch":1473,"rend":1474,"Ġgame":1475,"Ġinternet":1476,"ries":1477,"Ġpar":1478,"Ġdefin":1479,"ember":1480,"Ġtak":1481,"Ġhaving":1482,"Ġcant":1483,"oup":1484,"sw":1485,"Ġold":1486,"ank":1487,"Ġmust":1488,"ma":1489,"ases":1490,"ised":1491,"Ġplace":1492,"Ġworking":1493,"Ġest":1494,"vious":1495,"uring":1496,"ik":1497,"Ġdata":1498,"bal":1499,"Ġrecent":1500,"Ġhal":1501,"Ġshare":1502,"Ġincrease":1503,"ee":1504,"Ġopin":1505,"Ġtot":1506,"Ġsch":1507,"Ġannou":1508,"Ġcho":1509,"ulation":1510,"Ġlose":1511,"Ġhy":1512,"Ġproduct":1513,"ead":1514,"ience":1515,"med":1516,"hip":1517,"Ġmarkets":1518,"Ġinform":1519,"Ġinfl":1520,"Ġsatos":1521,"Ġguess":1522,"Ġask":1523,"Ġalmost":1524,"Ġmine":1525,"Ġgonna":1526,"ertain":1527,"Ġrequ":1528,"Ġnumber":1529,"Ġrich":1530,"Ġearly":1531,"min":1532,"Ġbeh":1533,"Ġexist":1534,"ese":1535,"Ġdire":1536,"Ġbullish":1537,"alth":1538,"Ġreport":1539,"Ġed":1540,"itter":1541,"drop":1542,"Ġlim":1543,"Ġport":1544,"Ġpublic":1545,"Ġbuild":1546,"Ġsecurity":1547,"bu":1548,"Ġartic":1549,"Ġhand":1550,"ier":1551,"gn":1552,"Ġpass":1553,"cl":1554,"Ġothers":1555,"ings":1556,"istr":1557,"Ġspend":1558,"Ġquestion":1559,"Ġpurch":1560,"ex":1561,"Ġlost":1562,"Ġpat":1563,"fect":1564,"og":1565,"Ġpredict":1566,"Ġaltcoins":1567,"Ġstate":1568,"lic":1569,"ood":1570,"Ġonline":1571,"Ġtest":1572,"Ġtalking":1573,"Ġcurrently":1574,"Ġseen":1575,"Ġtransfer":1576,"ern":1577,"mber":1578,"well":1579,"ym":1580,"Ġgains":1581,"when":1582,"ang":1583,"Ġnice":1584,"Ġexplain":1585,"Ġcontrol":1586,"Ġneeds":1587,"Ġstore":1588,"Ġadoption":1589,"verage":1590,"Ġer":1591,"Ġrece":1592,"Ġyes":1593,"Ġincl":1594,"they":1595,"Ġcomplete":1596,"man":1597,"Ġlikely":1598,"Ġvis":1599,"ather":1600,"Ġrise":1601,"Ġinstead":1602,"Ġbub":1603,"Ġimportant":1604,"Ġprivate":1605,"Ġcompan":1606,"int":1607,"Ġhead":1608,"Ġmoment":1609,"Ġchar":1610,"Ġstay":1611,"Ġhours":1612,"Ġclaim":1613,"Ġopport":1614,"Ġfee":1615,"acy":1616,"Ġtalk":1617,"Ġsafe":1618,"Ġbegin":1619,"ret":1620,"Ġgroup":1621,"Ġdue":1622,"Ġchina":1623,"Ġdet":1624,"Ġnor":1625,"Ġreco":1626,"Ġvolume":1627,"Ġcurrencies":1628,"Ġfore":1629,"ner":1630,"Ġdi":1631,"ool":1632,"ub":1633,"aph":1634,"Ġkey":1635,"lt":1636,"Ġfunds":1637,"ethereum":1638,"Ġamaz":1639,"Ġvs":1640,"Ġglobal":1641,"ales":1642,"Ġcourse":1643,"itely":1644,"Ġworks":1645,"ability":1646,"Ġfutures":1647,"Ġlooks":1648,"Ġfail":1649,"Ġeither":1650,"Ġtwitter":1651,"Ġcryptos":1652,"Ġloss":1653,"Ġob":1654,"ium":1655,"yeah":1656,"iter":1657,"Ġcar":1658,"Ġwebs":1659,"Ġgets":1660,"Ġevent":1661,"book":1662,"uth":1663,"Ġspe":1664,"Ġturn":1665,"Ġasset":1666,"Ġlets":1667,"Ġquick":1668,"Ġlight":1669,"Ġclose":1670,"Ġtechn":1671,"Ġdollars":1672,"Ġweeks":1673,"Ġcode":1674,"ric":1675,"Ġopinion":1676,"doge":1677,"tern":1678,"Ġlos":1679,"ners":1680,"Ġguy":1681,"Ġspace":1682,"Ġcompanies":1683,"full":1684,"ides":1685,"Ġairdrop":1686,"Ġcentral":1687,"Ġindust":1688,"Ġhist":1689,"Ġpartic":1690,"Ġattack":1691,"Ġbur":1692,"ude":1693,"Ġsing":1694,"Ġcreate":1695,"Ġmatter":1696,"cash":1697,"Ġbubble":1698,"cent":1699,"ms":1700,"ization":1701,"Ġsk":1702,"ven":1703,"ying":1704,"usd":1705,"Ġalts":1706,"Ġname":1707,"Ġhowever":1708,"thats":1709,"Ġexam":1710,"Ġprocess":1711,"Ġmult":1712,"Ġside":1713,"Ġcapital":1714,"Ġface":1715,"Ġlarge":1716,"Ġrest":1717,"ny":1718,"Ġwent":1719,"Ġext":1720,"ising":1721,"Ġexact":1722,"aring":1723,"Ġcountries":1724,"Ġsecure":1725,"cial":1726,"Ġinteresting":1727,"ush":1728,"Ġcontinue":1729,"Ġorder":1730,"Ġcompet":1731,"Ġwhats":1732,"Ġvolat":1733,"Ġcred":1734,"Ġluck":1735,"fol":1736,"Ġinformation":1737,"here":1738,"ives":1739,"asing":1740,"Ġarg":1741,"Ġarticle":1742,"rt":1743,"Ġtaking":1744,"Ġcust":1745,"Ġcomes":1746,"fr":1747,"that":1748,"Ġdash":1749,"Ġlower":1750,"Ġdevelopment":1751,"can":1752,"Ġcore":1753,"ota":1754,"Ġcalled":1755,"Ġsecond":1756,"gan":1757,"lement":1758,"Ġansw":1759,"orr":1760,"pec":1761,"Ġsatoshi":1762,"Ġbene":1763,"Ġty":1764,"Ġtar":1765,"Ġchance":1766,"ational":1767,"Ġpayments":1768,"Ġdoesnt":1769,"Ġreturn":1770,"Ġappro":1771,"cc":1772,"Ġwouldnt":1773,"Ġelect":1774,"Ġprofits":1775,"Ġduring":1776,"Ġwallets":1777,"uff":1778,"Ġcomput":1779,"Ġfam":1780,"Ġexample":1781,"Ġdirect":1782,"look":1783,"Ġmor":1784,"Ġcertain":1785,"Ġtrend":1786,"Ġlaw":1787,"Ġready":1788,"nect":1789,"Ġstable":1790,"Ġinvested":1791,"und":1792,"Ġpaid":1793,"Ġthinking":1794,"Ġstand":1795,"Ġbenef":1796,"Ġrequire":1797,"Ġbehind":1798,"Ġmem":1799,"Ġwaiting":1800,"che":1801,"rypt":1802,"Ġsuper":1803,"Ġdefinitely":1804,"Ġir":1805,"ator":1806,"Ġmedia":1807,"Ġcomment":1808,"ource":1809,"Ġentire":1810,"Ġblo":1811,"time":1812,"Ġled":1813,"onest":1814,"Ġmax":1815,"Ġconfir":1816,"fully":1817,"Ġsent":1818,"dd":1819,"Ġcontracts":1820,"ix":1821,"Ġslow":1822,"Ġve":1823,"Ġpopular":1824,"Ġbiggest":1825,"folio":1826,"Ġequ":1827,"Ġmind":1828,"Ġra":1829,"Ġhappy":1830,"Ġether":1831,"Ġassets":1832,"Ġmet":1833,"Ġref":1834,"anks":1835,"Ġcou":1836,"bers":1837,"ph":1838,"ned":1839,"iting":1840,"Ġbill":1841,"currency":1842,"aire":1843,"Ġproof":1844,"Ġbro":1845,"side":1846,"Ġmer":1847,"la":1848,"more":1849,"Ġque":1850,"enc":1851,"Ġavail":1852,"Ġposit":1853,"ars":1854,"draw":1855,"ending":1856,"Ġmoons":1857,"Ġwants":1858,"Ġresist":1859,"Ġinde":1860,"Ġener":1861,"Ġpaper":1862,"Ġheard":1863,"Ġwhite":1864,"Ġbring":1865,"jo":1866,"Ġdemand":1867,"ued":1868,"ages":1869,"bin":1870,"ism":1871,"Ġindustry":1872,"dont":1873,"Ġbecom":1874,"Ġpan":1875,"sol":1876,"Ġdeal":1877,"Ġrather":1878,"Ġwond":1879,"back":1880,"Ġwebsite":1881,"Ġaccess":1882,"Ġseg":1883,"Ġdel":1884,"yc":1885,"Ġserious":1886,"igin":1887,"Ġopportunity":1888,"ilar":1889,"Ġltc":1890,"block":1891,"Ġshe":1892,"Ġeffect":1893,"af":1894,"Ġhappens":1895,"Ġut":1896,"Ġreddit":1897,"Ġcreated":1898,"Ġgrowth":1899,"Ġclass":1900,"Ġshill":1901,"Ġsound":1902,"nel":1903,"Ġquite":1904,"ten":1905,"Ġinfo":1906,"ines":1907,"Ġsense":1908,"Ġoper":1909,"Ġlater":1910,"ends":1911,"Ġwithdraw":1912,"Ġneo":1913,"Ġliter":1914,"Ġenergy":1915,"Ġap":1916,"Ġpublished":1917,"Ġsug":1918,"Ġavailable":1919,"pecially":1920,"Ġtotal":1921,"ocol":1922,"Ġservices":1923,"Ġmention":1924,"Ġorigin":1925,"Ġhash":1926,"Ġinclud":1927,"Ġbottom":1928,"Ġissue":1929,"Ġupdate":1930,"Ġshib":1931,"Ġservice":1932,"Ġexc":1933,"Ġant":1934,"Ġye":1935,"odes":1936,"Ġwithin":1937,"Ġdom":1938,"wit":1939,"Ġthiscuss":1940,"Ġremember":1941,"Ġrele":1942,"Ġrate":1943,"que":1944,"ply":1945,"Ġgoog":1946,"Ġyourself":1947,"way":1948,"Ġrepl":1949,"irt":1950,"Ġportfolio":1951,"Ġsimple":1952,"Ġsingle":1953,"quid":1954,"Ġoffic":1955,"Ġcheap":1956,"Ġeng":1957,"Ġresp":1958,"Ġscal":1959,"like":1960,"ior":1961,"Ġthank":1962,"utions":1963,"Ġtraders":1964,"Ġinterested":1965,"Ġcustom":1966,"Ġmassive":1967,"Ġstuff":1968,"Ġknows":1969,"uation":1970,"Ġhistory":1971,"Ġloc":1972,"Ġceo":1973,"Ġcraz":1974,"cap":1975,"Ġdon":1976,"Ġtechnical":1977,"Ġcorrect":1978,"Ġsuggest":1979,"Ġremain":1980,"istrib":1981,"come":1982,"Ġleft":1983,"Ġfud":1984,"Ġintr":1985,"Ġshitcoin":1986,"ators":1987,"Ġespecially":1988,"Ġstor":1989,"ify":1990,"Ġadded":1991,"Ġones":1992,"Ġiota":1993,"Ġstep":1994,"ouse":1995,"Ġitself":1996,"Ġprotocol":1997,"Ġnear":1998,"Ġmill":1999,"pro":2000,"Ġsocial":2001,"Ġhappened":2002,"Ġtakes":2003,"uly":2004,"Ġcouple":2005,"ange":2006,"ird":2007,"Ġjob":2008,"Ġlegal":2009,"Ġfollowing":2010,"Ġada":2011,"ca":2012,"Ġview":2013,"str":2014,"Ġcop":2015,"Ġtweet":2016,"Ġicos":2017,"Ġbount":2018,"Ġfriends":2019,"Ġuser":2020,"aps":2021,"Ġliterally":2022,"Ġok":2023,"Ġwish":2024,"Ġsite":2025,"Ġuni":2026,"oh":2027,"Ġstake":2028,"Ġher":2029,"stream":2030,"ping":2031,"Ġtheres":2032,"ester":2033,"Ġmess":2034,"orrow":2035,"Ġfeature":2036,"Ġmanip":2037,"graph":2038,"ident":2039,"Ġwont":2040,"Ġinstit":2041,"cryptocurrency":2042,"Ġetf":2043,"Ġexactly":2044,"Ġcredit":2045,"Ġhalf":2046,"agine":2047,"Ġkore":2048,"Ġliquid":2049,"ants":2050,"des":2051,"Ġclos":2052,"ording":2053,"vent":2054,"utes":2055,"Ġinvol":2056,"ivid":2057,"Ġsoft":2058,"Ġdecis":2059,"Ġdepos":2060,"eric":2061,"ones":2062,"every":2063,"irc":2064,"Ġinte":2065,"Ġjan":2066,"ocus":2067,"uary":2068,"Ġpull":2069,"Ġdiffic":2070,"view":2071,"Ġsimply":2072,"will":2073,"Ġtarget":2074,"Ġho":2075,"omm":2076,"Ġgreen":2077,"Ġisnt":2078,"Ġnano":2079,"Ġobvious":2080,"Ġhonest":2081,"Ġtom":2082,"Ġvers":2083,"Ġminer":2084,"augh":2085,"solute":2086,"Ġrunning":2087,"Ġimplement":2088,"Ġconsider":2089,"osed":2090,"Ġeasily":2091,"Ġcause":2092,"Ġsimilar":2093,"ĠĠĠĠĊ":2094,"Ġmoving":2095,"ped":2096,"Ġfav":2097,"Ġfre":2098,"Ġhum":2099,"Ġwar":2100,"Ġsegwit":2101,"Ġparticip":2102,"Ġline":2103,"upid":2104,"Ġblocks":2105,"lm":2106,"Ġcamp":2107,"Ġkill":2108,"Ġcompletely":2109,"Ġanswer":2110,"Ġannoun":2111,"Ġzero":2112,"Ġfur":2113,"Ġeur":2114,"Ġstocks":2115,"Ġath":2116,"head":2117,"outh":2118,"Ġtook":2119,"atever":2120,"Ġhop":2121,"Ġgl":2122,"ilt":2123,"Ġregard":2124,"aud":2125,"Ġsource":2126,"Ġledger":2127,"itch":2128,"Ġcomments":2129,"Ġprogram":2130,"Ġlate":2131,"Ġcool":2132,"market":2133,"Ġdevelopers":2134,"Ġpercent":2135,"Ġneg":2136,"sure":2137,"buy":2138,"ument":2139,"Ġsolution":2140,"Ġaverage":2141,"Ġdesign":2142,"Ġstellar":2143,"Ġstrate":2144,"eg":2145,"Ġlatest":2146,"ru":2147,"good":2148,"nb":2149,"Ġyoull":2150,"val":2151,"Ġpartners":2152,"Ġtele":2153,"Ġdidnt":2154,"Ġstupid":2155,"Ġsale":2156,"load":2157,"Ġissues":2158,"Ġspread":2159,"Ġresistance":2160,"ift":2161,"mm":2162,"ament":2163,"Ġchannel":2164,"olution":2165,"Ġfucking":2166,"Ġconc":2167,"Ġgoogle":2168,"lol":2169,"Ġgas":2170,"Ġincome":2171,"oud":2172,"Ġlightning":2173,"top":2174,"orry":2175,"nov":2176,"Ġactiv":2177,"ows":2178,"Ġlegit":2179,"Ġdogecoin":2180,"ther":2181,"Ġfocus":2182,"Ġtrack":2183,"Ġcrazy":2184,"Ġnon":2185,"ified":2186,"Ġexperience":2187,"Ġthread":2188,"Ġdecentral":2189,"Ġmonero":2190,"Ġlonger":2191,"une":2192,"Ġsaw":2193,"Ġactual":2194,"orts":2195,"Ġfix":2196,"Ġauth":2197,"thanks":2198,"arent":2199,"fl":2200,"ided":2201,"ists":2202,"Ġseeing":2203,"Ġmar":2204,"Ġear":2205,"Ġjump":2206,"iple":2207,"Ġfa":2208,"Ġclear":2209,"Ġinit":2210,"da":2211,"Ġpossib":2212,"umb":2213,"with":2214,"Ġbounty":2215,"Ġmode":2216,"Ġthistrib":2217,"ots":2218,"Ġdead":2219,"by":2220,"por":2221,"Ġstud":2222,"Ġcirc":2223,"ledge":2224,"Ġstarting":2225,"Ġamazing":2226,"ality":2227,"Ġtold":2228,"Ġbag":2229,"onym":2230,"Ġwhatever":2231,"ness":2232,"Ġapplic":2233,"Ġameric":2234,"fort":2235,"idd":2236,"imes":2237,"ane":2238,"ha":2239,"ins":2240,"ional":2241,"Ġnorm":2242,"Ġeconomy":2243,"gether":2244,"Ġrecently":2245,"Ġholders":2246,"antly":2247,"Ġpurchase":2248,"ta":2249,"ensive":2250,"Ġgiving":2251,"Ġpositive":2252,"Ġaut":2253,"aign":2254,"some":2255,"Ġwanted":2256,"Ġprotect":2257,"people":2258,"Ġpanic":2259,"Ġbt":2260,"Ġhear":2261,"Ġvar":2262,"Ġbon":2263,"pal":2264,"Ġabsolute":2265,"Ġinvestments":2266,"Ġrecomm":2267,"Ġimpro":2268,"news":2269,"Ġcal":2270,"Ġbasically":2271,"umm":2272,"Ġadvant":2273,"Ġuses":2274,"Ġpurp":2275,"may":2276,"Ġinflation":2277,"ler":2278,"Ġmyself":2279,"Ġyester":2280,"Ġprivacy":2281,"erve":2282,"Ġconnect":2283,"Ġpaying":2284,"Ġwealth":2285,"Ġhappening":2286,"Ġhype":2287,"Ġfurther":2288,"Ġsurpr":2289,"Ġdie":2290,"sp":2291,"ra":2292,"Ġadvice":2293,"Ġeos":2294,"Ġfair":2295,"hey":2296,"Ġexplo":2297,"Ġoffer":2298,"Ġcentralized":2299,"Ġaccounts":2300,"selves":2301,"reet":2302,"Ġecos":2303,"Ġposition":2304,"Ġbou":2305,"check":2306,"Ġcampaign":2307,"Ġways":2308,"edge":2309,"Ġgeneral":2310,"imin":2311,"Ġnode":2312,"cket":2313,"cast":2314,"Ġadvert":2315,"Ġcent":2316,"Ġweb":2317,"ps":2318,"ada":2319,"Ġtether":2320,"Ġposts":2321,"Ġfinally":2322,"ling":2323,"Ġbigger":2324,"Ġecosystem":2325,"Ġwhether":2326,"Ġreceive":2327,"Ġmanag":2328,"Ġgiven":2329,"Ġhouse":2330,"Ġdece":2331,"Ġmeet":2332,"Ġbuilt":2333,"Ġproblems":2334,"Ġsave":2335,"Ġstory":2336,"Ġhate":2337,"Ġminutes":2338,"Ġrul":2339,"Ġnodes":2340,"itional":2341,"Ġunless":2342,"Ġsoftware":2343,"Ġhits":2344,"ips":2345,"Ġinvestor":2346,"vest":2347,"Ġign":2348,"Ġbal":2349,"Ġrecord":2350,"ails":2351,"Ġoption":2352,"Ġgrowing":2353,"Ġfig":2354,"gress":2355,"Ġtogether":2356,"pay":2357,"Ġcardano":2358,"Ġinnov":2359,"reme":2360,"apan":2361,"Ġperfect":2362,"tu":2363,"mo":2364,"Ġfaster":2365,"Ġbanking":2366,"istic":2367,"Ġter":2368,"Ġfake":2369,"Ġrecommend":2370,"did":2371,"Ġfacebook":2372,"Ġpool":2373,"Ġvirt":2374,"Ġprovide":2375,"ming":2376,"Ġcollect":2377,"cks":2378,"Ġpush":2379,"aus":2380,"Ġwonder":2381,"Ġshows":2382,"erence":2383,"Ġdest":2384,"ived":2385,"Ġaccording":2386,"Ġword":2387,"Ġcame":2388,"Ġlisted":2389,"Ġvolatility":2390,"Ġknowledge":2391,"Ġreward":2392,"veral":2393,"esome":2394,"Ġsignific":2395,"Ġhome":2396,"Ġneeded":2397,"Ġforget":2398,"lf":2399,"Ġnight":2400,"Ġannounce":2401,"Ġmus":2402,"aces":2403,"Ġrefer":2404,"Ġproper":2405,"Ġhands":2406,"empt":2407,"Ġtaxes":2408,"Ġsal":2409,"Ġmis":2410,"Ġlimit":2411,"Ġmark":2412,"Ġdam":2413,"Ġenjo":2414,"also":2415,"ief":2416,"Ġfinance":2417,"Ġgives":2418,"Ġaccepting":2419,"Ġsuccessful":2420,"Ġfraud":2421,"Ġlog":2422,"Ġbar":2423,"Ġbook":2424,"Ġyesterday":2425,"Ġfed":2426,"Ġaffect":2427,"imate":2428,"ike":2429,"Ġchoose":2430,"Ġtomorrow":2431,"aa":2432,"Ġsolid":2433,"Ġcards":2434,"bec":2435,"Ġtowards":2436,"Ġseveral":2437,"Ġalong":2438,"Ġdoubt":2439,"bling":2440,"Ġreasons":2441,"Ġfine":2442,"Ġincreasing":2443,"term":2444,"Ġconsens":2445,"Ġstandard":2446,"Ġelon":2447,"Ġchinese":2448,"Ġofficial":2449,"Ġgovernments":2450,"ading":2451,"Ġhardware":2452,"Ġsil":2453,"Ġfigure":2454,"rupt":2455,"Ġschem":2456,"Ġgone":2457,"Ġmeme":2458,"Ġforward":2459,"Ġahead":2460,"Ġeventually":2461,"Ġvalid":2462,"ulate":2463,"Ġtelegram":2464,"Ġdecember":2465,"ai":2466,"iment":2467,"down":2468,"Ġton":2469,"Ġhell":2470,"kt":2471,"Ġaltern":2472,"ster":2473,"Ġanonym":2474,"oting":2475,"Ġroad":2476,"Ġoriginal":2477,"Ġsaving":2478,"Ġwhales":2479,"Ġlay":2480,"Ġdifference":2481,"orn":2482,"Ġconsum":2483,"Ġterms":2484,"lets":2485,"Ġdouble":2486,"Ġmorning":2487,"reg":2488,"Ġenc":2489,"Ġenter":2490,"Ġconv":2491,"Ġrelease":2492,"Ġanymore":2493,"oid":2494,"Ġthous":2495,"Ġthree":2496,"Ġperform":2497,"Ġimagine":2498,"Ġdis":2499,"Ġcharts":2500,"uted":2501,"ien":2502,"Ġattention":2503,"Ġcomputer":2504,"Ġwarn":2505,"Ġmeth":2506,"Ġincluding":2507,"Ġpaypal":2508,"Ġlargest":2509,"uce":2510,"Ġextr":2511,"ias":2512,"Ġlocal":2513,"Ġlisten":2514,"Ġconcern":2515,"Ġlots":2516,"Ġprofitable":2517,"Ġworlds":2518,"desk":2519,"sec":2520,"Ġcross":2521,"Ġcompared":2522,"Ġyoutu":2523,"Ġandgt":2524,"Ġbs":2525,"mon":2526,"Ġpair":2527,"ng":2528,"Ġach":2529,"Ġmil":2530,"ively":2531,"Ġmanage":2532,"Ġaction":2533,"Ġcrypt":2534,"Ġsaf":2535,"Ġyeah":2536,"Ġrevolution":2537,"ford":2538,"Ġconfirm":2539,"land":2540,"reci":2541,"Ġrally":2542,"Ġconvert":2543,"Ġautom":2544,"Ġreading":2545,"Ġruss":2546,"Ġworry":2547,"Ġilleg":2548,"Ġintrod":2549,"Ġbearish":2550,"hold":2551,"Ġmajority":2552,"Ġbir":2553,"Ġmillions":2554,"off":2555,"Ġcontinues":2556,"att":2557,"idence":2558,"Ġinvolved":2559,"Ġdecision":2560,"entially":2561,"Ġrid":2562,"fin":2563,"yn":2564,"Ġforum":2565,"ety":2566,"Ġfavor":2567,"who":2568,"Ġtool":2569,"Ġrules":2570,"iving":2571,"Ġfamily":2572,"Ġnobody":2573,"Ġsomet":2574,"ouch":2575,"list":2576,"Ġcorrection":2577,"Ġhur":2578,"Ġconsensus":2579,"Ġlosing":2580,"ceed":2581,"got":2582,"Ġstartup":2583,"Ġpick":2584,"use":2585,"Ġmarketing":2586,"Ġmist":2587,"Ġasking":2588,"hood":2589,"Ġfunction":2590,"Ġmaxim":2591,"Ġthemselves":2592,"based":2593,"Ġindic":2594,"iod":2595,"ids":2596,"Ġchr":2597,"because":2598,"Ġhes":2599,"Ġextreme":2600,"Ġshut":2601,"ield":2602,"Ġtried":2603,"Ġknown":2604,"ider":2605,"ucture":2606,"Ġleave":2607,"omo":2608,"ked":2609,"Ġbecomes":2610,"Ġrt":2611,"Ġhot":2612,"ls":2613,"Ġdifficult":2614,"Ġrewards":2615,"aha":2616,"Ġvalu":2617,"ater":2618,"Ġpresent":2619,"coins":2620,"Ġyoutube":2621,"Ġdrops":2622,"ister":2623,"Ġbeginning":2624,"Ġauthor":2625,"Ġmethod":2626,"Ġnegative":2627,"Ġcents":2628,"Ġdirectly":2629,"Ġroll":2630,"Ġplans":2631,"while":2632,"lar":2633,"Ġbuilding":2634,"verse":2635,"Ġsituation":2636,"Ġprevious":2637,"Ġelectric":2638,"Ġstrategy":2639,"ired":2640,"Ġdeep":2641,"Ġru":2642,"ob":2643,"Ġmob":2644,"days":2645,"Ġrealize":2646,"Ġreview":2647,"Ġdevs":2648,"medi":2649,"Ġquestions":2650,"Ġperiod":2651,"Ġthreat":2652,"Ġaug":2653,"Ġparty":2654,"Ġmultiple":2655,"tech":2656,"pu":2657,"wise":2658,"pite":2659,"fir":2660,"Ġden":2661,"action":2662,"blockchain":2663,"Ġacr":2664,"Ġposted":2665,"ung":2666,"ton":2667,"Ġexcept":2668,"post":2669,"Ġimpact":2670,"Ġeduc":2671,"Ġnecess":2672,"though":2673,"rem":2674,"Ġfundament":2675,"Ġregulation":2676,"Ġuseful":2677,"Ġwatching":2678,"Ġatm":2679,"Ġmainstream":2680,"Ġenjoy":2681,"olo":2682,"Ġreplace":2683,"Ġvirtual":2684,"Ġcas":2685,"Ġillegal":2686,"Ġcopy":2687,"gu":2688,"Ġeconomic":2689,"Ġkr":2690,"su":2691,"Ġident":2692,"Ġabsolutely":2693,"Ġpersonal":2694,"Ġeasier":2695,"Ġbrok":2696,"Ġplus":2697,"Ġpartnership":2698,"Ġpolit":2699,"Ġtx":2700,"Ġnormal":2701,"Ġavoid":2702,"Ġblack":2703,"ring":2704,"Ġusually":2705,"Ġkeys":2706,"Ġpie":2707,"Ġtrades":2708,"Ġjanuary":2709,"invest":2710,"Ġstreet":2711,"Ġconcept":2712,"Ġversion":2713,"Ġweekly":2714,"Ġindivid":2715,"Ġsurv":2716,"Ġappe":2717,"Ġimo":2718,"Ġbase":2719,"Ġheld":2720,"ission":2721,"Ġfully":2722,"Ġscale":2723,"Ġchoice":2724,"Ġself":2725,"Ġlimited":2726,"Ġhar":2727,"Ġacross":2728,"Ġjapan":2729,"ze":2730,"Ġpersonally":2731,"Ġclick":2732,"Ġsorry":2733,"ises":2734,"Ġcoindesk":2735,"Ġchanges":2736,"Ġmach":2737,"Ġexpensive":2738,"Ġinflu":2739,"Ġsn":2740,"Ġsearch":2741,"Ġrelated":2742,"Ġbab":2743,"Ġintern":2744,"Ġdream":2745,"Ġdeposit":2746,"Ġdeb":2747,"Ġpurpose":2748,"Ġawesome":2749,"Ġprefer":2750,"lex":2751,"Ġking":2752,"Ġsouth":2753,"Ġpoor":2754,"Ġstaking":2755,"Ġtype":2756,"Ġrange":2757,"Ġdips":2758,"Ġguide":2759,"bitcoins":2760,"bre":2761,"Ġlevels":2762,"great":2763,"gies":2764,"mer":2765,"Ġdumb":2766,"Ġterr":2767,"Ġachie":2768,"Ġhuman":2769,"Ġindividual":2770,"Ġdapp":2771,"whats":2772,"tract":2773,"rs":2774,"right":2775,"hh":2776,"Ġphone":2777,"Ġappreci":2778,"ossible":2779,"Ġfight":2780,"zi":2781,"iant":2782,"gs":2783,"Ġintegr":2784,"Ġtron":2785,"Ġnft":2786,"Ġrand":2787,"Ġspecul":2788,"Ġfil":2789,"put":2790,"Ġoptions":2791,"Ġyouve":2792,"Ġbonus":2793,"Ġmembers":2794,"Ġanyway":2795,"Ġafford":2796,"oto":2797,"Ġfear":2798,"Ġemp":2799,"Ġcustomers":2800,"Ġtra":2801,"Ġheres":2802,"ĠĠĠĠĠĠĠĠ":2803,"maybe":2804,"Ġwords":2805,"Ġord":2806,"yond":2807,"Ġchanged":2808,"Ġuk":2809,"Ġheav":2810,"Ġtill":2811,"Ġadvantage":2812,"Ġcrit":2813,"Ġsize":2814,"Ġtrader":2815,"Ġalthough":2816,"Ġwan":2817,"crib":2818,"aut":2819,"Ġpen":2820,"Ġrising":2821,"Ġcaus":2822,"los":2823,"aken":2824,"Ġgoal":2825,"Ġpoints":2826,"Ġsho":2827,"urs":2828,"Ġxlm":2829,"Ġlock":2830,"Ġvi":2831,"Ġfac":2832,"ency":2833,"Ġbun":2834,"Ġtheyre":2835,"Ġblockchains":2836,"Ġscr":2837,"Ġpm":2838,"ites":2839,"sell":2840,"Ġlaunches":2841,"Ġder":2842,"Ġamong":2843,"gor":2844,"Ġrbitcoin":2845,"izing":2846,"inc":2847,"Ġerc":2848,"Ġscaling":2849,"Ġoften":2850,"Ġgames":2851,"Ġminim":2852,"lier":2853,"Ġcy":2854,"Ġfomo":2855,"Ġdan":2856,"Ġcosts":2857,"Ġextra":2858,"itor":2859,"lcome":2860,"Ġmic":2861,"Ġemail":2862,"Ġstat":2863,"Ġpet":2864,"Ġbacked":2865,"Ġorgan":2866,"Ġpon":2867,"Ġjoke":2868,"Ġwast":2869,"yor":2870,"only":2871,"Ġmostly":2872,"Ġsubs":2873,"Ġvaluable":2874,"please":2875,"Ġsett":2876,"Ġscheme":2877,"Ġimprove":2878,"Ġwal":2879,"Ġtaken":2880,"Ġexpected":2881,"Ġep":2882,"Ġannounced":2883,"Ġconst":2884,"Ġaccepted":2885,"Ġmissed":2886,"olid":2887,"Ġcontent":2888,"Ġbounce":2889,"Ġapproach":2890,"akes":2891,"Ġsometimes":2892,"Ġbenefit":2893,"Ġmobile":2894,"Ġshop":2895,"Ġspecial":2896,"Ġsad":2897,"Ġprep":2898,"Ġhealth":2899,"Ġremo":2900,"Ġsounds":2901,"Ġprediction":2902,"Ġrecover":2903,"Ġmined":2904,"icient":2905,"Ġearning":2906,"your":2907,"Ġthoughts":2908,"Ġdetails":2909,"ification":2910,"ison":2911,"Ġattempt":2912,"vant":2913,"Ġtotally":2914,"Ġdespite":2915,"Ġquickly":2916,"Ġhopefully":2917,"Ġbetting":2918,"ho":2919,"Ġspl":2920,"Ġcontrib":2921,"Ġven":2922,"wow":2923,"ources":2924,"Ġclassic":2925,"Ġoffering":2926,"Ġwilling":2927,"Ġapr":2928,"ason":2929,"Ġutility":2930,"Ġpage":2931,"Ġlack":2932,"Ġplaying":2933,"does":2934,"binhood":2935,"Ġswitch":2936,"Ġstarts":2937,"Ġaud":2938,"Ġliquidity":2939,"abil":2940,"ures":2941,"Ġoh":2942,"Ġtouch":2943,"Ġmoves":2944,"Ġspot":2945,"Ġallows":2946,"Ġresult":2947,"Ġbeyond":2948,"Ġtruly":2949,"Ġtick":2950,"Ġupgr":2951,"Ġlosses":2952,"Ġforever":2953,"Ġaccum":2954,"Ġthird":2955,"Ġreality":2956,"Ġboom":2957,"Ġflo":2958,"Ġunderstanding":2959,"paper":2960,"Ġvolatile":2961,"ico":2962,"Ġbcash":2963,"Ġkorea":2964,"main":2965,"Ġgambling":2966,"Ġmentioned":2967,"Ġbusinesses":2968,"Ġkeeps":2969,"Ġbanned":2970,"Ġreleased":2971,"Ġmillionaire":2972,"Ġpara":2973,"Ġimpossible":2974,"Ġmag":2975,"Ġcases":2976,"Ġom":2977,"Ġmodel":2978,"Ġhedge":2979,"Ġsun":2980,"Ġsky":2981,"Ġfalling":2982,"Ġweekend":2983,"Ġprem":2984,"Ġobviously":2985,"Ġelectricity":2986,"Ġphys":2987,"Ġexcited":2988,"Ġfirm":2989,"iced":2990,"ask":2991,"Ġrisky":2992,"ames":2993,"Ġge":2994,"Ġsumm":2995,"Ġhighly":2996,"Ġspeed":2997,"join":2998,"unities":2999,"lying":3000,"Ġmal":3001,"Ġcreating":3002,"ipt":3003,"ival":3004,"Ġdefi":3005,"thank":3006,"Ġdepends":3007,"Ġvote":3008,"reddit":3009,"ulated":3010,"Ġplatforms":3011,"Ġtrump":3012,"Ġmarch":3013,"Ġrandom":3014,"ares":3015,"ems":3016,"Ġinitial":3017,"Ġocc":3018,"Ġdate":3019,"Ġweak":3020,"Ġasked":3021,"Ġdecide":3022,"Ġexec":3023,"Ġround":3024,"Ġgod":3025,"Ġdestro":3026,"Ġtre":3027,"Ġrepres":3028,"Ġidi":3029,"Ġgreed":3030,"Ġinstitution":3031,"Ġhund":3032,"Ġsle":3033,"Ġindia":3034,"Ġalternative":3035,"Ġtur":3036,"Ġunlike":3037,"used":3038,"oted":3039,"fine":3040,"Ġstates":3041,"Ġpolic":3042,"otes":3043,"ults":3044,"Ġcheaper":3045,"Ġputting":3046,"Ġenv":3047,"Ġhacked":3048,"his":3049,"ron":3050,"Ġmonet":3051,"Ġcyc":3052,"vember":3053,"Ġnearly":3054,"Ġsort":3055,"Ġcut":3056,"Ġanonymous":3057,"Ġcommon":3058,"Ġbenefits":3059,"Ġspeak":3060,"Ġfoundation":3061,"arant":3062,"Ġpromising":3063,"Ġsystems":3064,"ended":3065,"ians":3066,"rex":3067,"lation":3068,"Ġlaunched":3069,"Ġfo":3070,"Ġamazon":3071,"Ġobs":3072,"Ġdecided":3073,"Ġbecoming":3074,"Ġseriously":3075,"Ġsolutions":3076,"arr":3077,"wall":3078,"Ġimmedi":3079,"Ġaddresses":3080,"pped":3081,"Ġfan":3082,"ina":3083,"Ġfeatures":3084,"ears":3085,"Ġincent":3086,"Ġthisapp":3087,"coming":3088,"atives":3089,"Ġfeeling":3090,"Ġscams":3091,"Ġkar":3092,"Ġride":3093,"Ġfunny":3094,"Ġpattern":3095,"Ġfeed":3096,"Ġmeant":3097,"Ġclearly":3098,"abl":3099,"Ġtelling":3100,"Ġchild":3101,"price":3102,"have":3103,"Ġjour":3104,"Ġcertainly":3105,"Ġtopic":3106,"Ġextremely":3107,"tele":3108,"Ġalone":3109,"Ġdeveloper":3110,"Ġdropped":3111,"par":3112,"haps":3113,"fortun":3114,"Ġtraded":3115,"Ġcand":3116,"Ġaim":3117,"Ġglad":3118,"Ġargument":3119,"iding":3120,"light":3121,"ek":3122,"Ġfol":3123,"Ġxrb":3124,"Ġchanging":3125,"Ġbunch":3126,"Ġtransp":3127,"mit":3128,"Ġess":3129,"ado":3130,"Ġproducts":3131,"Ġinterview":3132,"Ġscen":3133,"Ġfill":3134,"zz":3135,"Ġknew":3136,"tf":3137,"ulating":3138,"ri":3139,"Ġsteal":3140,"Ġtem":3141,"youre":3142,"Ġearlier":3143,"Ġsignificant":3144,"Ġhoping":3145,"allen":3146,"Ġcatch":3147,"Ġworst":3148,"edom":3149,"Ġnovember":3150,"ances":3151,"Ġponzi":3152,"Ġscre":3153,"ted":3154,"mr":3155,"ady":3156,"Ġnumbers":3157,"shit":3158,"Ġretail":3159,"Ġdownload":3160,"Ġlayer":3161,"acc":3162,"Ġpeop":3163,"Ġreturns":3164,"fts":3165,"Ġbulls":3166,"Ġpract":3167,"uction":3168,"Ġthousands":3169,"Ġotherwise":3170,"ork":3171,"mao":3172,"theres":3173,"has":3174,"Ġod":3175,"atically":3176,"Ġhonestly":3177,"Ġprogress":3178,"Ġhighs":3179,"oring":3180,"Ġfool":3181,"hn":3182,"Ġtraditional":3183,"wa":3184,"Ġfell":3185,"mas":3186,"ino":3187,"Ġreached":3188,"Ġrespect":3189,"Ġtyp":3190,"Ġnak":3191,"Ġengine":3192,"Ġhost":3193,"Ġwave":3194,"Ġguarant":3195,"Ġforks":3196,"mers":3197,"ined":3198,"Ġcrimin":3199,"Ġsupposed":3200,"Ġcry":3201,"bi":3202,"pass":3203,"Ġreve":3204,"oon":3205,"Ġmerch":3206,"Ġcalling":3207,"Ġregulations":3208,"Ġassum":3209,"Ġmessage":3210,"Ġau":3211,"Ġtruth":3212,"Ġleverage":3213,"Ġblog":3214,"Ġbitt":3215,"Ġconsidering":3216,"arily":3217,"Ġboard":3218,"Ġprofess":3219,"Ġworse":3220,"then":3221,"Ġcloud":3222,"ana":3223,"Ġpropos":3224,"astr":3225,"Ġinstant":3226,"Ġgave":3227,"aining":3228,"Ġdude":3229,"Ġalgor":3230,"Ġpod":3231,"live":3232,"Ġsports":3233,"Ġlearning":3234,"finex":3235,"Ġpeer":3236,"Ġbears":3237,"Ġattract":3238,"Ġliked":3239,"Ġsavings":3240,"Ġmeaning":3241,"erv":3242,"Ġmovement":3243,"ried":3244,"ili":3245,"Ġmod":3246,"Ġeurope":3247,"Ġadvertise":3248,"Ġapril":3249,"Ġfreedom":3250,"clus":3251,"ury":3252,"Ġchallen":3253,"Ġeg":3254,"Ġshares":3255,"Ġappeared":3256,"Ġanalyst":3257,"Ġsplit":3258,"Ġoffers":3259,"Ġshitcoins":3260,"Ġstorage":3261,"Ġwanna":3262,"Ġstack":3263,"icks":3264,"Ġsolve":3265,"Ġaugust":3266,"Ġaware":3267,"Ġspecific":3268,"Ġsites":3269,"Ġkeeping":3270,"Ġpeoples":3271,"Ġrelative":3272,"atic":3273,"Ġrobinhood":3274,"Ġactive":3275,"hell":3276,"Ġpiece":3277,"Ġmath":3278,"Ġthrow":3279,"atory":3280,"Ġeveryday":3281,"len":3282,"pool":3283,"Ġoutside":3284,"Ġanywhere":3285,"Ġunique":3286,"Ġsept":3287,"Ġconference":3288,"Ġspeculation":3289,"Ġwrite":3290,"Ġlaugh":3291,"Ġideas":3292,"za":3293,"iron":3294,"Ġbaby":3295,"first":3296,"Ġbalance":3297,"Ġclaims":3298,"uk":3299,"Ġje":3300,"bc":3301,"Ġmad":3302,"Ġexpert":3303,"Ġsending":3304,"Ġtrillion":3305,"Ġreli":3306,"Ġvision":3307,"cell":3308,"Ġhighest":3309,"Ġunc":3310,"Ġowners":3311,"Ġwhale":3312,"ios":3313,"Ġcontroll":3314,"Ġbroke":3315,"rate":3316,"Ġdoc":3317,"Ġhandle":3318,"Ġusage":3319,"Ġretweet":3320,"Ġthiscussion":3321,"works":3322,"Ġwhitepaper":3323,"ters":3324,"Ġlam":3325,"Ġleading":3326,"Ġincreased":3327,"Ġusdt":3328,"si":3329,"Ġdecl":3330,"telegraph":3331,"Ġsales":3332,"oooo":3333,"uced":3334,"Ġsignal":3335,"ev":3336,"Ġson":3337,"Ġdecre":3338,"Ġconsidered":3339,"unch":3340,"italik":3341,"Ġmissing":3342,"Ġtherefore":3343,"aced":3344,"Ġjune":3345,"ains":3346,"bles":3347,"Ġpict":3348,"imb":3349,"Ġjuly":3350,"ife":3351,"Ġvisit":3352,"after":3353,"ently":3354,"ario":3355,"Ġstick":3356,"loy":3357,"Ġdamn":3358,"Ġarea":3359,"Ġburn":3360,"Ġsleep":3361,"Ġcrow":3362,"aight":3363,"Ġprim":3364,"Ġaust":3365,"Ġoc":3366,"Ġtend":3367,"Ġpeak":3368,"Ġcompar":3369,"ault":3370,"dden":3371,"rep":3372,"Ġlongterm":3373,"Ġdark":3374,"aging":3375,"Ġdrug":3376,"Ġrecogn":3377,"Ġspent":3378,"sto":3379,"Ġsudden":3380,"sc":3381,"weets":3382,"po":3383,"Ġfrid":3384,"Ġfire":3385,"Ġdecentralization":3386,"Ġbrand":3387,"Ġchrist":3388,"fortunately":3389,"Ġadding":3390,"connect":3391,"Ġdrive":3392,"found":3393,"ste":3394,"Ġload":3395,"anyone":3396,"agree":3397,"Ġholds":3398,"Ġstatement":3399,"Ġmanipulation":3400,"Ġshowing":3401,"gen":3402,"Ġthinks":3403,"icking":3404,"Ġreserve":3405,"Ġlucky":3406,"Ġestabl":3407,"Ġcc":3408,"Ġrespons":3409,"Ġrisks":3410,"tok":3411,"Ġmoved":3412,"Ġmid":3413,"Ġcompetition":3414,"Ġeyes":3415,"Ġfailed":3416,"Ġya":3417,"Ġinsane":3418,"ibility":3419,"Ġspending":3420,"coinbase":3421,"Ġwide":3422,"Ġyoud":3423,"Ġdesigned":3424,"Ġspam":3425,"Ġsurvive":3426,"Ġinstitutions":3427,"ulous":3428,"Ġreceived":3429,"Ġschool":3430,"Ġcorpor":3431,"would":3432,"Ġwild":3433,"Ġpumping":3434,"Ġdestroy":3435,"Ġwelcome":3436,"Ġbc":3437,"Ġoptim":3438,"over":3439,"Ġstraight":3440,"away":3441,"Ġtho":3442,"ama":3443,"Ġlab":3444,"Ġignore":3445,"enty":3446,"from":3447,"ij":3448,"Ġimm":3449,"Ġcit":3450,"Ġroom":3451,"ients":3452,"which":3453,"gle":3454,"Ġapps":3455,"Ġfolks":3456,"Ġapplications":3457,"add":3458,"Ġcat":3459,"Ġult":3460,"Ġpure":3461,"Ġten":3462,"Ġpor":3463,"Ġperhaps":3464,"free":3465,"even":3466,"Ġcompl":3467,"Ġnone":3468,"Ġliving":3469,"xr":3470,"arter":3471,"pective":3472,"Ġremoved":3473,"ss":3474,"Ġads":3475,"Ġfalls":3476,"ipping":3477,"Ġtes":3478,"Ġnfts":3479,"Ġamounts":3480,"Ġemer":3481,"Ġholdings":3482,"Ġsurprised":3483,"Ġcrack":3484,"Ġphysical":3485,"Ġdecent":3486,"Ġinstitutional":3487,"uz":3488,"Ġexperts":3489,"Ġpain":3490,"Ġslowly":3491,"Ġodds":3492,"Ġregret":3493,"enez":3494,"watch":3495,"Ġmicr":3496,"Ġupdates":3497,"Ġbrows":3498,"Ġbittrex":3499,"Ġfront":3500,"Ġsuff":3501,"Ġthus":3502,"Ġdeli":3503,"iddle":3504,"Ġdominance":3505,"Ġdebt":3506,"Ġcalc":3507,"ades":3508,"Ġrepresent":3509,"Ġability":3510,"still":3511,"Ġhodling":3512,"Ġhelps":3513,"Ġak":3514,"Ġprove":3515,"Ġdivers":3516,"Ġdog":3517,"Ġln":3518,"Ġalert":3519,"looks":3520,"Ġmachine":3521,"Ġmonetary":3522,"ney":3523,"Ġrepe":3524,"Ġcompare":3525,"Ġnakam":3526,"Ġkick":3527,"Ġorders":3528,"Ġgenerate":3529,"unt":3530,"Ġregarding":3531,"vid":3532,"Ġrob":3533,"Ġimmediately":3534,"Ġbnb":3535,"Ġlearned":3536,"Ġprec":3537,"Ġpress":3538,"Ġconvers":3539,"Ġdropping":3540,"Ġrates":3541,"Ġdeterm":3542,"Ġposting":3543,"Ġenviron":3544,"Ġinnovation":3545,"Ġtheory":3546,"onds":3547,"soci":3548,"Ġcycle":3549,"Ġthistributed":3550,"Ġquant":3551,"card":3552,"vered":3553,"Ġfort":3554,"Ġnote":3555,"Ġincred":3556,"Ġfounder":3557,"Ġdow":3558,"Ġyork":3559,"Ġfal":3560,"Ġcity":3561,"Ġfeels":3562,"Ġmedium":3563,"Ġprevent":3564,"Ġsubreddit":3565,"aught":3566,"Ġfavorite":3567,"big":3568,"Ġinfr":3569,"ux":3570,"Ġvo":3571,"Ġbasic":3572,"Ġsats":3573,"raid":3574,"another":3575,"see":3576,"Ġcalls":3577,"Ġlaunder":3578,"place":3579,"Ġsecret":3580,"Ġinternational":3581,"ini":3582,"Ġbtcusd":3583,"Ġfriday":3584,"Ġvent":3585,"Ġie":3586,"Ġweve":3587,"enezue":3588,"Ġmen":3589,"Ġapplication":3590,"gold":3591,"Ġbes":3592,"Ġlisting":3593,"Ġindex":3594,"Ġbitfinex":3595,"Ġplayers":3596,"Ġvarious":3597,"Ġsucceed":3598,"Ġuseless":3599,"Ġannouncement":3600,"Ġgraph":3601,"Ġol":3602,"Ġentry":3603,"Ġbreakout":3604,"ga":3605,"Ġparticipate":3606,"Ġexisting":3607,"unk":3608,"Ġactivity":3609,"Ġasic":3610,"Ġhaha":3611,"Ġtit":3612,"Ġmeas":3613,"word":3614,"astructure":3615,"itable":3616,"Ġmusk":3617,"Ġbreaking":3618,"Ġbags":3619,"tt":3620,"Ġgiant":3621,"Ġlea":3622,"Ġteach":3623,"Ġnov":3624,"nice":3625,"berg":3626,"face":3627,"Ġshiba":3628,"Ġmb":3629,"Ġps":3630,"Ġkids":3631,"Ġbreaks":3632,"Ġland":3633,"ining":3634,"Ġalgorith":3635,"Ġrh":3636,"ell":3637,"Ġridic":3638,"Ġrap":3639,"Ġeffort":3640,"Ġacqu":3641,"Ġna":3642,"Ġta":3643,"iny":3644,"valued":3645,"Ġplanning":3646,"Ġreported":3647,"Ġmaximal":3648,"Ġmiddle":3649,"Ġpath":3650,"Ġlibr":3651,"heres":3652,"Ġquality":3653,"cing":3654,"Ġvet":3655,"Ġnd":3656,"miner":3657,"Ġgir":3658,"Ġsomewhere":3659,"Ġsignals":3660,"aged":3661,"imately":3662,"Ġregister":3663,"Ġgov":3664,"Ġenvironment":3665,"Ġafraid":3666,"Ġgrand":3667,"Ġworked":3668,"Ġeye":3669,"Ġur":3670,"Ġsoci":3671,"Ġminute":3672,"Ġsen":3673,"Ġhackers":3674,"Ġcourt":3675,"Ġassoci":3676,"Ġbuys":3677,"Ġmanagement":3678,"wide":3679,"Ġresults":3680,"Ġswap":3681,"Ġinfrastructure":3682,"Ġsignature":3683,"Ġdisc":3684,"Ġkinda":3685,"Ġrd":3686,"pend":3687,"Ġarr":3688,"Ġnewb":3689,"Ġoverall":3690,"Ġfunding":3691,"Ġbillionaire":3692,"Ġcol":3693,"Ġku":3694,"Ġeverybody":3695,"Ġremains":3696,"Ġmaint":3697,"bel":3698,"Ġmanager":3699,"best":3700,"Ġfood":3701,"auc":3702,"Ġtroll":3703,"Ġnecessary":3704,"Ġrequired":3705,"Ġminimum":3706,"Ġrig":3707,"Ġstream":3708,"izes":3709,"Ġindeed":3710,"Ġnational":3711,"Ġbat":3712,"alt":3713,"Ġachieve":3714,"Ġrat":3715,"ripple":3716,"Ġassume":3717,"Ġcold":3718,"Ġpossibly":3719,"Ġprint":3720,"eral":3721,"Ġrule":3722,"Ġcareful":3723,"Ġunivers":3724,"Ġtechnologies":3725,"keep":3726,"Ġwon":3727,"angu":3728,"Ġfour":3729,"lebr":3730,"Ġment":3731,"Ġforce":3732,"tober":3733,"Ġrcryptocurrency":3734,"Ġtweets":3735,"Ġnetworks":3736,"Ġsecurities":3737,"Ġgift":3738,"Ġgar":3739,"Ġcrip":3740,"Ġconfirmed":3741,"Ġclients":3742,"Ġstage":3743,"Ġseptember":3744,"Ġdeath":3745,"nbc":3746,"everyone":3747,"Ġperspective":3748,"Ġcover":3749,"onse":3750,"Ġregular":3751,"Ġseason":3752,"Ġsurely":3753,"Ġconsolid":3754,"Ġreven":3755,"Ġnakamoto":3756,"Ġyall":3757,"Ġchains":3758,"Ġworried":3759,"Ġdeveloped":3760,"these":3761,"Ġball":3762,"Ġseed":3763,"Ġran":3764,"Ġwom":3765,"Ġexperien":3766,"Ġupcoming":3767,"Ġsurge":3768,"Ġvitalik":3769,"ams":3770,"ustain":3771,"Ġhalving":3772,"Ġoppos":3773,"Ġarent":3774,"Ġthiscount":3775,"Ġcommun":3776,"Ġpossibility":3777,"Ġreject":3778,"aig":3779,"take":3780,"Ġmainnet":3781,"Ġage":3782,"Ġsitting":3783,"Ġreferral":3784,"Ġopportunities":3785,"uing":3786,"Ġdot":3787,"Ġimpress":3788,"Ġbullshit":3789,"reed":3790,"Ġusa":3791,"mex":3792,"Ġfixed":3793,"Ġwaste":3794,"Ġmoder":3795,"Ġcurious":3796,"Ġfinal":3797,"Ġadvis":3798,"Ġsilver":3799,"ram":3800,"ahah":3801,"Ġboost":3802,"bank":3803,"Ġonto":3804,"Ġmot":3805,"Ġcond":3806,"Ġrequest":3807,"Ġbecame":3808,"Ġvechain":3809,"Ġincreases":3810,"Ġmt":3811,"Ġridiculous":3812,"Ġappreciate":3813,"Ġbeaut":3814,"oke":3815,"Ġpodcast":3816,"Ġturned":3817,"Ġgem":3818,"Ġbuyers":3819,"Ġpicture":3820,"ya":3821,"lim":3822,"pow":3823,"Ġwind":3824,"Ġgotta":3825,"ulty":3826,"Ġsan":3827,"Ġretr":3828,"Ġshilling":3829,"Ġplenty":3830,"Ġupgrade":3831,"Ġdapps":3832,"Ġgd":3833,"cur":3834,"could":3835,"Ġdca":3836,"Ġapple":3837,"Ġtreat":3838,"Ġprior":3839,"Ġsmaller":3840,"Ġautomatically":3841,"Ġpredictions":3842,"Ġdepend":3843,"Ġleader":3844,"stop":3845,"Ġtip":3846,"Ġhor":3847,"haha":3848,"Ġcharge":3849,"ounds":3850,"Ġtesla":3851,"using":3852,"gth":3853,"Ġsir":3854,"long":3855,"Ġlarger":3856,"fs":3857,"Ġplaces":3858,"Ġafric":3859,"tw":3860,"Ġscenario":3861,"ushing":3862,"Ġcombin":3863,"Ġslight":3864,"interest":3865,"Ġsharing":3866,"Ġbroken":3867,"Ġresponse":3868,"Ġinside":3869,"Ġhavent":3870,"Ġnature":3871,"Ġraise":3872,"Ġyoung":3873,"Ġpros":3874,"Ġdomin":3875,"ctor":3876,"fi":3877,"ws":3878,"inds":3879,"Ġreliable":3880,"lines":3881,"anda":3882,"Ġtodays":3883,"bet":3884,"Ġmonday":3885,"nces":3886,"Ġintell":3887,"Ġrussia":3888,"Ġamerican":3889,"Ġstudy":3890,"sm":3891,"nn":3892,"Ġmistake":3893,"Ġcointelegraph":3894,"Ġworthless":3895,"iest":3896,"know":3897,"Ġwise":3898,"Ġrevers":3899,"Ġmomentum":3900,"earn":3901,"emoon":3902,"Ġamerica":3903,"astic":3904,"ening":3905,"Ġlives":3906,"Ġstolen":3907,"Ġlooked":3908,"Ġkorean":3909,"Ġwed":3910,"uments":3911,"Ġic":3912,"Ġdeveloping":3913,"Ġdownv":3914,"Ġthistribution":3915,"Ġaddition":3916,"Ġmatch":3917,"link":3918,"Ġoctober":3919,"Ġcelebr":3920,"Ġremind":3921,"Ġpresident":3922,"Ġutil":3923,"Ġattacks":3924,"Ġlaundering":3925,"Ġflow":3926,"rest":3927,"Ġtrusted":3928,"Ġcens":3929,"comp":3930,"Ġefficient":3931,"Ġfaith":3932,"board":3933,"Ġtv":3934,"Ġupside":3935,"binance":3936,"Ġtrain":3937,"Ġkarma":3938,"Ġstrug":3939,"ii":3940,"Ġadds":3941,"itten":3942,"atur":3943,"Ġestate":3944,"Ġtonight":3945,"mining":3946,"Ġcompr":3947,"oph":3948,"Ġlangu":3949,"was":3950,"Ġregulated":3951,"Ġgreater":3952,"Ġwow":3953,"Ġcyber":3954,"wap":3955,"Ġlas":3956,"Ġaccepts":3957,"Ġdm":3958,"Ġstar":3959,"pping":3960,"Ġknowing":3961,"Ġded":3962,"sa":3963,"hello":3964,"Ġrum":3965,"rends":3966,"looking":3967,"Ġvideos":3968,"Ġsupporting":3969,"Ġfauc":3970,"Ġstopped":3971,"cellent":3972,"Ġallowed":3973,"Ġbitmain":3974,"Ġbrain":3975,"Ġbeat":3976,"mc":3977,"key":3978,"aster":3979,"ishing":3980,"Ġpc":3981,"Ġroger":3982,"Ġreb":3983,"Ġcustomer":3984,"Ġsus":3985,"Ġchat":3986,"Ġupon":3987,"Ġclosed":3988,"anced":3989,"Ġinclude":3990,"Ġfluct":3991,"Ġaustral":3992,"Ġwest":3993,"Ġspeculative":3994,"Ġimage":3995,"Ġtesting":3996,"Ġexplained":3997,"Ġrocket":3998,"Ġfive":3999,"fers":4000,"Ġrecovery":4001,"Ġpatience":4002,"Ġskill":4003,"Ġproperty":4004,"Ġbasis":4005,"Ġmac":4006,"Ġmi":4007,"Ġbug":4008,"Ġsentiment":4009,"zy":4010,"Ġsurpass":4011,"Ġppl":4012,"Ġcounter":4013,"Ġaint":4014,"bh":4015,"Ġbuff":4016,"arently":4017,"Ġindepend":4018,"iven":4019,"Ġlif":4020,"cript":4021,"Ġnas":4022,"Ġdirection":4023,"today":4024,"hope":4025,"Ġpressure":4026,"Ġfollowers":4027,"Ġforex":4028,"Ġcontact":4029,"Ġstatus":4030,"dam":4031,"Ġmonthly":4032,"Ġlaunching":4033,"Ġsatoshis":4034,"Ġcitiz":4035,"Ġlmao":4036,"Ġgpu":4037,"Ġhelping":4038,"real":4039,"Ġkyc":4040,"wallet":4041,"Ġsubject":4042,"pers":4043,"ondon":4044,"date":4045,"Ġny":4046,"Ġforgot":4047,"Ġcryp":4048,"going":4049,"Ġdanger":4050,"ocr":4051,"Ġwondering":4052,"Ġblow":4053,"Ġdu":4054,"apped":4055,"Ġpurchases":4056,"ession":4057,"Ġhat":4058,"Ġboy":4059,"Ġupv":4060,"Ġearth":4061,"Ġkraken":4062,"Ġvenezue":4063,"Ġpp":4064,"Ġbrid":4065,"Ġsepar":4066,"Ġpatient":4067,"Ġexpecting":4068,"map":4069,"Ġdiv":4070,"Ġflag":4071,"Ġgiveaway":4072,"Ġworldwide":4073,"hs":4074,"Ġkept":4075,"Ġrequires":4076,"Ġbillions":4077,"Ġinvent":4078,"trading":4079,"Ġinvestig":4080,"Ġgaming":4081,"Ġba":4082,"Ġthisco":4083,"Ġregulatory":4084,"lated":4085,"Ġpercentage":4086,"Ġcommod":4087,"Ġdraw":4088,"Ġsomehow":4089,"Ġdiam":4090,"Ġgeneration":4091,"Ġdebate":4092,"Ġalltime":4093,"reds":4094,"Ġheart":4095,"iction":4096,"Ġsees":4097,"Ġresources":4098,"friend":4099,"Ġgrab":4100,"change":4101,"Ġsportsbook":4102,"ĠĠĠĠĠĊ":4103,"bruary":4104,"Ġben":4105,"Ġhistor":4106,"should":4107,"Ġeat":4108,"Ġsociety":4109,"nal":4110,"Ġdifficulty":4111,"ption":4112,"Ġvisa":4113,"Ġprovides":4114,"Ġsqu":4115,"Ġmix":4116,"Ġkucoin":4117,"Ġfintech":4118,"itive":4119,"Ġmechan":4120,"Ġencour":4121,"Ġcoff":4122,"stock":4123,"Ġlee":4124,"Ġpowerful":4125,"ba":4126,"ulations":4127,"Ġunited":4128,"oned":4129,"Ġweird":4130,"Ġdecline":4131,"Ġruns":4132,"uts":4133,"start":4134,"ured":4135,"Ġreveal":4136,"Ġphase":4137,"Ġunfortunately":4138,"Ġsustain":4139,"Ġmember":4140,"Ġnotice":4141,"oses":4142,"Ġground":4143,"Ġcontrolled":4144,"inary":4145,"Ġscared":4146,"were":4147,"gets":4148,"hus":4149,"Ġtalks":4150,"Ġbrowser":4151,"Ġmargin":4152,"Ġenab":4153,"Ġannounces":4154,"Ġstuck":4155,"Ġwake":4156,"Ġsetting":4157,"edit":4158,"Ġexciting":4159,"bled":4160,"Ġlocked":4161,"set":4162,"Ġnarr":4163,"Ġclient":4164,"Ġthisagree":4165,"Ġmaster":4166,"Ġdescrib":4167,"bull":4168,"Ġjohn":4169,"Ġreq":4170,"Ġincom":4171,"Ġscammers":4172,"Ġframe":4173,"Ġai":4174,"Ġca":4175,"itted":4176,"Ġconfirmation":4177,"Ġpa":4178,"Ġstren":4179,"Ġrock":4180,"zos":4181,"Ġmast":4182,"Ġproven":4183,"Ġaspect":4184,"Ġpolicy":4185,"appy":4186,"yle":4187,"dom":4188,"ius":4189,"Ġfacts":4190,"Ġrad":4191,"follow":4192,"Ġverge":4193,"Ġinstall":4194,"resh":4195,"Ġbi":4196,"ando":4197,"apse":4198,"ibly":4199,"same":4200,"night":4201,"fuck":4202,"Ġfield":4203,"Ġzone":4204,"Ġpopularity":4205,"Ġearned":4206,"Ġcasino":4207,"Ġtrends":4208,"Ġfundamentals":4209,"Ġevents":4210,"Ġgoods":4211,"play":4212,"orship":4213,"Ġdao":4214,"fo":4215,"mission":4216,"Ġemot":4217,"alk":4218,"Ġmatters":4219,"Ġjud":4220,"cant":4221,"Ġloan":4222,"etr":4223,"Ġjack":4224,"Ġaccur":4225,"Ġhundreds":4226,"oft":4227,"amed":4228,"Ġchristmas":4229,"Ġcult":4230,"Ġdivid":4231,"Ġrevenue":4232,"Ġsupports":4233,"Ġeverywhere":4234,"Ġfebruary":4235,"Ġidentity":4236,"fun":4237,"Ġxmr":4238,"Ġwritten":4239,"Ġthist":4240,"Ġmarketplace":4241,"Ġevidence":4242,"Ġbroad":4243,"Ġbitmex":4244,"Ġharder":4245,"urance":4246,"Ġfalse":4247,"Ġcrashes":4248,"Ġends":4249,"Ġbox":4250,"gers":4251,"Ġlic":4252,"Ġpotentially":4253,"Ġdumping":4254,"df":4255,"think":4256,"oper":4257,"Ġdelet":4258,"inde":4259,"Ġele":4260,"Ġsuck":4261,"Ġentirely":4262,"Ġsetup":4263,"Ġbesides":4264,"Ġarticles":4265,"fee":4266,"Ġlows":4267,"ucing":4268,"Ġtrig":4269,"Ġark":4270,"Ġperformance":4271,"Ġtrou":4272,"Ġjp":4273,"Ġowner":4274,"isis":4275,"Ġregulators":4276,"Ġregardless":4277,"marketcap":4278,"Ġbatt":4279,"ifically":4280,"bb":4281,"Ġprin":4282,"mor":4283,"part":4284,"Ġcommer":4285,"Ġdebit":4286,"acing":4287,"Ġpumps":4288,"arely":4289,"mp":4290,"Ġrole":4291,"Ġverify":4292,"els":4293,"Ġroadmap":4294,"ey":4295,"Ġelectron":4296,"Ġanaly":4297,"Ġpromote":4298,"Ġbrief":4299,"Ġgif":4300,"Ġholder":4301,"Ġlondon":4302,"Ġwithdrawal":4303,"Ġnorth":4304,"Ġple":4305,"Ġcloser":4306,"kk":4307,"Ġpumped":4308,"gical":4309,"Ġrent":4310,"Ġmarketcap":4311,"Ġmc":4312,"iet":4313,"Ġrough":4314,"imagine":4315,"Ġenthus":4316,"Ġexpand":4317,"Ġcollapse":4318,"founder":4319,"Ġlibra":4320,"Ġcomparison":4321,"Ġreduce":4322,"Ġbrings":4323,"Ġparticular":4324,"Ġidiot":4325,"Ġkid":4326,"inst":4327,"Ġpiz":4328,"Ġsusp":4329,"vis":4330,"Ġbitconnect":4331,"Ġgovernance":4332,"Ġformer":4333,"fact":4334,"Ġflaw":4335,"Ġadditional":4336,"onom":4337,"Ġmak":4338,"under":4339,"nes":4340,"Ġband":4341,"Ġessentially":4342,"Ġtransfers":4343,"Ġreaches":4344,"Ġalgo":4345,"Ġearnings":4346,"ball":4347,"iful":4348,"gl":4349,"rocket":4350,"iring":4351,"Ġcorrupt":4352,"usion":4353,"Ġwrote":4354,"sorry":4355,"Ġfant":4356,"Ġindividuals":4357,"Ġbucks":4358,"Ġconfidence":4359,"Ġwriting":4360,"Ġpack":4361,"Ġshot":4362,"Ġwhos":4363,"port":4364,"bitr":4365,"Ġdin":4366,"Ġamid":4367,"iy":4368,"litecoin":4369,"Ġmate":4370,"Ġmemes":4371,"xrp":4372,"Ġclimb":4373,"Ġcoffee":4374,"Ġopens":4375,"Ġomg":4376,"Ġlaws":4377,"Ġlately":4378,"Ġactivities":4379,"Ġsafemoon":4380,"Ġepis":4381,"Ġnatur":4382,"Ġexplan":4383,"Ġdownt":4384,"Ġbrought":4385,"Ġopposite":4386,"Ġrises":4387,"ery":4388,"orre":4389,"Ġjournal":4390,"pos":4391,"Ġjoining":4392,"Ġdecisions":4393,"Ġprelive":4394,"ja":4395,"Ġregulate":4396,"Ġspecifically":4397,"Ġpremium":4398,"Ġpoll":4399,"Ġpositions":4400,"Ġanytime":4401,"Ġoil":4402,"Ġopinions":4403,"Ġdim":4404,"ipped":4405,"Ġwarning":4406,"roid":4407,"Ġmerchants":4408,"Ġinev":4409,"Ġvoting":4410,"Ġstated":4411,"Ġinfluence":4412,"Ġwinner":4413,"Ġbirth":4414,"oy":4415,"Ġokay":4416,"Ġturns":4417,"Ġdocument":4418,"Ġimplemented":4419,"ension":4420,"Ġyours":4421,"last":4422,"Ġstronger":4423,"Ġrapid":4424,"Ġcommission":4425,"ctions":4426,"Ġmr":4427,"Ġcraig":4428,"many":4429,"fork":4430,"Ġliber":4431,"actly":4432,"Ġapart":4433,"Ġseconds":4434,"Ġfue":4435,"Ġfluctu":4436,"chs":4437,"Ġspike":4438,"Ġsym":4439,"Ġgenerally":4440,"Ġcnbc":4441,"Ġcme":4442,"osoft":4443,"Ġfollowed":4444,"Ġexperienced":4445,"never":4446,"Ġvan":4447,"Ġvict":4448,"Ġstructure":4449,"Ġprofessional":4450,"Ġreply":4451,"ih":4452,"cs":4453,"Ġbright":4454,"esis":4455,"Ġowned":4456,"Ġske":4457,"Ġconven":4458,"Ġfederal":4459,"Ġcommunic":4460,"Ġcandle":4461,"Ġscar":4462,"Ġsv":4463,"Ġconstantly":4464,"Ġseries":4465,"Ġdelay":4466,"Ġoccur":4467,"Ġtravel":4468,"Ġappear":4469,"Ġheavy":4470,"phone":4471,"Ġwaves":4472,"Ġintellig":4473,"cong":4474,"Ġawa":4475,"Ġzcash":4476,"Ġretire":4477,"orm":4478,"Ġpredic":4479,"Ġhimself":4480,"Ġratio":4481,"Ġsteps":4482,"Ġalot":4483,"Ġfoot":4484,"Ġms":4485,"Ġsupported":4486,"Ġburst":4487,"Ġadvance":4488,"Ġcomplex":4489,"Ġalgorithm":4490,"Ġexists":4491,"ously":4492,"Ġcreator":4493,"Ġrelatively":4494,"uu":4495,"Ġcomfort":4496,"Ġhearing":4497,"kr":4498,"trade":4499,"Ġgreedy":4500,"yep":4501,"Ġtips":4502,"Ġlinks":4503,"bes":4504,"Ġblue":4505,"Ġfile":4506,"yy":4507,"limited":4508,"Ġhyper":4509,"Ġclar":4510,"Ġbloom":4511,"money":4512,"Ġprinc":4513,"erves":4514,"Ġcaught":4515,"Ġshorts":4516,"Ġpolitical":4517,"den":4518,"isk":4519,"Ġbeta":4520,"Ġmaintain":4521,"Ġfactor":4522,"Ġundervalued":4523,"flow":4524,"Ġpays":4525,"Ġlowest":4526,"pret":4527,"Ġspreading":4528,"Ġeconomics":4529,"Ġpools":4530,"Ġlinked":4531,"Ġsuddenly":4532,"remember":4533,"Ġsyn":4534,"ley":4535,"Ġwinning":4536,"Ġinfin":4537,"Ġcolle":4538,"Ġconfident":4539,"Ġinstantly":4540,"Ġhr":4541,"Ġbelieves":4542,"Ġpairs":4543,"uh":4544,"Ġowns":4545,"Ġpassword":4546,"Ġsooner":4547,"Ġpushing":4548,"Ġrussian":4549,"honest":4550,"Ġerr":4551,"exactly":4552,"Ġleaving":4553,"Ġhurt":4554,"Ġdecentralised":4555,"oint":4556,"Ġtools":4557,"Ġproviding":4558,"Ġlogic":4559,"Ġhitting":4560,"fa":4561,"Ġcrap":4562,"Ġfriendly":4563,"Ġexcellent":4564,"vere":4565,"Ġarbitr":4566,"Ġcomputers":4567,"Ġupdated":4568,"Ġcoinmarketcap":4569,"Ġrelevant":4570,"Ġoffice":4571,"Ġwebsites":4572,"bed":4573,"china":4574,"Ġjoined":4575,"Ġplun":4576,"Ġapply":4577,"Ġtrx":4578,"Ġlanguage":4579,"Ġplaylist":4580,"pre":4581,"Ġchildren":4582,"Ġadopted":4583,"Ġsum":4584,"Ġinstr":4585,"Ġreports":4586,"son":4587,"Ġeducation":4588,"Ġexperiment":4589,"rop":4590,"Ġble":4591,"happy":4592,"Ġinsight":4593,"Ġreput":4594,"Ġargue":4595,"Ġcam":4596,"Ġwasnt":4597,"Ġsteem":4598,"Ġdiamond":4599,"Ġbots":4600,"interesting":4601,"Ġwater":4602,"Ġhodlers":4603,"era":4604,"Ġcryptograph":4605,"Ġcaused":4606,"Ġsubst":4607,"Ġclean":4608,"Ġbills":4609,"Ġmov":4610,"Ġmusic":4611,"Ġofficially":4612,"world":4613,"andt":4614,"Ġpartner":4615,"Ġregist":4616,"Ġgme":4617,"Ġsurve":4618,"hes":4619,"Ġoriginally":4620,"Ġthisrupt":4621,"Ġequival":4622,"Ġblame":4623,"Ġlie":4624,"Ġhey":4625,"Ġensure":4626,"Ġleaders":4627,"Ġblockstream":4628,"Ġallowing":4629,"Ġepisode":4630,"Ġforecast":4631,"Ġdepending":4632,"Ġcongr":4633,"token":4634,"ored":4635,"Ġuna":4636,"othing":4637,"Ġfit":4638,"Ġreasonable":4639,"Ġclue":4640,"Ġboys":4641,"Ġxpost":4642,"Ġlambo":4643,"Ġstability":4644,"Ġbanning":4645,"Ġadvantages":4646,"pet":4647,"wait":4648,"Ġcrisis":4649,"Ġdumped":4650,"Ġalive":4651,"Ġconfused":4652,"Ġemplo":4653,"Ġsand":4654,"yo":4655,"Ġwright":4656,"Ġlikes":4657,"Ġtells":4658,"Ġcofounder":4659,"wr":4660,"Ġhealthy":4661,"Ġguarante":4662,"men":4663,"Ġsigns":4664,"Ġgamble":4665,"Ġcritic":4666,"Ġrealized":4667,"Ġexit":4668,"ann":4669,"Ġdeposits":4670,"Ġscalability":4671,"Ġcensorship":4672,"Ġirs":4673,"Ġpy":4674,"Ġgroups":4675,"Ġcharact":4676,"Ġminds":4677,"trad":4678,"ador":4679,"Ġapparently":4680,"acity":4681,"Ġstores":4682,"Ġspeaking":4683,"someone":4684,"damn":4685,"Ġpartnerships":4686,"Ġsachs":4687,"Ġimplementation":4688,"Ġtempor":4689,"Ġnames":4690,"osing":4691,"Ġhashrate":4692,"Ġenterpr":4693,"Ġgerm":4694,"Ġandroid":4695,"ici":4696,"known":4697,"Ġinsider":4698,"Ġpolice":4699,"daq":4700,"congr":4701,"Ġbringing":4702,"Ġjobs":4703,"Ġadvertising":4704,"eur":4705,"Ġheavily":4706,"perform":4707,"Ġcompete":4708,"lied":4709,"Ġbrother":4710,"Ġcanada":4711,"aked":4712,"Ġstress":4713,"cal":4714,"Ġselect":4715,"Ġrespond":4716,"short":4717,"Ġcrashing":4718,"Ġtor":4719,"Ġpoly":4720,"Ġsurprise":4721,"Ġconcerns":4722,"bought":4723,"Ġeu":4724,"Ġdeliver":4725,"Ġnoticed":4726,"rr":4727,"Ġcirculation":4728,"Ġtitle":4729,"Ġrbtc":4730,"ground":4731,"Ġpromise":4732,"Ġpresale":4733,"nc":4734,"gon":4735,"Ġgb":4736,"Ġencrypt":4737,"Ġbuffet":4738,"Ġteams":4739,"ifying":4740,"Ġbeautiful":4741,"Ġchief":4742,"Ġvir":4743,"Ġantminer":4744,"Ġexplanation":4745,"Ġsteady":4746,"Ġequal":4747,"vg":4748,"Ġenthusi":4749,"abor":4750,"Ġchecking":4751,"box":4752,"Ġhacker":4753,"Ġraised":4754,"Ġrsi":4755,"current":4756,"Ġconsist":4757,"lies":4758,"ipe":4759,"Ġbsv":4760,"Ġexclus":4761,"fair":4762,"chin":4763,"Ġatms":4764,"once":4765,"ivers":4766,"Ġexistence":4767,"Ġignor":4768,"Ġpowered":4769,"Ġtag":4770,"Ġlegitimate":4771,"oken":4772,"Ġdesk":4773,"Ġitll":4774,"ards":4775,"Ġcitizens":4776,"Ġvul":4777,"Ġfocused":4778,"Ġverification":4779,"Ġbud":4780,"Ġfinding":4781,"Ġmanaged":4782,"Ġauthority":4783,"force":4784,"ych":4785,"Ġera":4786,"Ġchallenge":4787,"Ġsunday":4788,"Ġbid":4789,"bd":4790,"Ġbudd":4791,"Ġsector":4792,"arding":4793,"Ġhelped":4794,"pir":4795,"xx":4796,"leg":4797,"Ġnons":4798,"btcusd":4799,"Ġchecked":4800,"Ġexplains":4801,"Ġunlimited":4802,"Ġber":4803,"Ġpurchased":4804,"Ġreact":4805,"Ġevol":4806,"Ġshift":4807,"fc":4808,"Ġreth":4809,"Ġwife":4810,"ager":4811,"Ġunlikely":4812,"Ġsells":4813,"Ġappears":4814,"Ġthisappear":4815,"Ġethereums":4816,"Ġhunt":4817,"ext":4818,"Ġsignificantly":4819,"Ġincentive":4820,"Ġbridge":4821,"rew":4822,"Ġwit":4823,"mt":4824,"ansom":4825,"Ġskyrocket":4826,"Ġprovided":4827,"Ġcritical":4828,"ials":4829,"Ġcares":4830,"Ġrn":4831,"Ġtum":4832,"Ġcomplic":4833,"cons":4834,"Ġmit":4835,"Ġstrength":4836,"Ġembr":4837,"enn":4838,"run":4839,"Ġclub":4840,"ky":4841,"Ġpizza":4842,"Ġconcerned":4843,"Ġtypes":4844,"order":4845,"Ġalle":4846,"Ġopening":4847,"Ġburned":4848,"seems":4849,"Ġfib":4850,"Ġparticipants":4851,"Ġequivalent":4852,"Ġbeg":4853,"log":4854,"Ġdetail":4855,"Ġfundamental":4856,"mark":4857,"Ġstored":4858,"iliar":4859,"Ġassuming":4860,"idden":4861,"week":4862,"Ġinsurance":4863,"Ġlending":4864,"Ġemploye":4865,"Ġskept":4866,"ldr":4867,"Ġgaining":4868,"Ġvault":4869,"lta":4870,"atos":4871,"Ġparent":4872,"sur":4873,"Ġserver":4874,"uine":4875,"Ġdrugs":4876,"make":4877,"Ġthousand":4878,"Ġgun":4879,"try":4880,"cel":4881,"Ġderiv":4882,"Ġloans":4883,"Ġproud":4884,"Ġbattle":4885,"actually":4886,"Ġadmit":4887,"Ġll":4888,"Ġoffline":4889,"Ġdonate":4890,"Ġstories":4891,"Ġplanet":4892,"Ġcampaigns":4893,"Ġtext":4894,"lie":4895,"Ġguarantee":4896,"Ġtrian":4897,"Ġyield":4898,"Ġum":4899,"Ġreversal":4900,"Ġwhenever":4901,"Ġcriminal":4902,"akkt":4903,"Ġadjust":4904,"icious":4905,"Ġestablished":4906,"since":4907,"Ġpassed":4908,"Ġwo":4909,"Ġblood":4910,"Ġfactors":4911,"Ġfresh":4912,"Ġrout":4913,"Ġtwice":4914,"Ġflash":4915,"Ġaside":4916,"Ġterrible":4917,"Ġgox":4918,"Ġobject":4919,"Ġasia":4920,"Ġventure":4921,"ology":4922,"Ġvulner":4923,"Ġdedic":4924,"Ġgirl":4925,"Ġparties":4926,"Ġfucked":4927,"Ġiot":4928,"acle":4929,"Ġtrash":4930,"hib":4931,"Ġanybody":4932,"Ġtransparent":4933,"Ġstartups":4934,"Ġmeetup":4935,"Ġbitch":4936,"Ġincluded":4937,"Ġtu":4938,"Ġcriminals":4939,"Ġairdrops":4940,"Ġlines":4941,"breaking":4942,"Ġsex":4943,"icip":4944,"ords":4945,"Ġseparate":4946,"Ġatom":4947,"Ġwtc":4948,"yi":4949,"Ġdangerous":4950,"city":4951,"Ġpenny":4952,"Ġdefinition":4953,"Ġiniti":4954,"ilities":4955,"Ġwtf":4956,"Ġgate":4957,"Ġended":4958,"Ġinteract":4959,"Ġshap":4960,"Ġcriptom":4961,"Ġfans":4962,"Ġrestr":4963,"Ġoperations":4964,"Ġexecut":4965,"Ġquarter":4966,"Ġgoals":4967,"Ġmca":4968,"Ġsi":4969,"Ġcf":4970,"Ġcreation":4971,"Ġirre":4972,"prob":4973,"Ġexpress":4974,"Ġcapacity":4975,"thr":4976,"Ġsimpl":4977,"Ġdriving":4978,"agon":4979,"Ġarch":4980,"omb":4981,"Ġsucks":4982,"Ġsuspect":4983,"Ġetfs":4984,"Ġlesson":4985,"Ġmatic":4986,"Ġransom":4987,"Ġelectronic":4988,"Ġprotection":4989,"ata":4990,"Ġtight":4991,"illy":4992,"Ġverified":4993,"Ġvalues":4994,"Ġmicrosoft":4995,"Ġnative":4996,"Ġslightly":4997,"Ġbits":4998,"Ġfailure":4999,"Ġpour":5000,"Ġaccurate":5001,"Ġfairly":5002,"Ġcomplain":5003,"je":5004,"Ġonchain":5005,"Ġelectr":5006,"Ġchair":5007,"Ġconvince":5008,"pus":5009,"asy":5010,"Ġticket":5011,"zen":5012,"som":5013,"yea":5014,"ki":5015,"Ġstabil":5016,"Ġtechnically":5017,"sold":5018,"hot":5019,"Ġopened":5020,"Ġaccumulate":5021,"Ġfarm":5022,"Ġpredicted":5023,"Ġdecrease":5024,"Ġbehav":5025,"ores":5026,"Ġsummer":5027,"Ġtezos":5028,"Ġfinished":5029,"Ġstrugg":5030,"Ġdonations":5031,"Ġconversation":5032,"Ġchances":5033,"Ġdad":5034,"Ġissued":5035,"Ġwins":5036,"ns":5037,"Ġsubscrib":5038,"esh":5039,"Ġbloomberg":5040,"ete":5041,"Ġvari":5042,"amask":5043,"umes":5044,"ustr":5045,"Ġshar":5046,"Ġsellers":5047,"Ġanno":5048,"itude":5049,"Ġlun":5050,"Ġcod":5051,"Ġtiny":5052,"Ġflat":5053,"aff":5054,"Ġshitty":5055,"Ġsources":5056,"Ġsegwitx":5057,"asts":5058,"hash":5059,"Ġnecessarily":5060,"Ġadap":5061,"Ġsix":5062,"rency":5063,"Ġgreatest":5064,"Ġclaiming":5065,"prof":5066,"next":5067,"ague":5068,"Ġgenuine":5069,"bay":5070,"lly":5071,"Ġinnovative":5072,"Ġtrouble":5073,"Ġhence":5074,"Ġdumps":5075,"Ġshared":5076,"Ġwidely":5077,"Ġvenezuela":5078,"dec":5079,"want":5080,"hu":5081,"ancy":5082,"Ġrelations":5083,"Ġhundred":5084,"sequ":5085,"Ġadmin":5086,"Ġminor":5087,"Ġdemocr":5088,"Ġturning":5089,"those":5090,"Ġcreates":5091,"Ġtargets":5092,"Ġbtw":5093,"Ġles":5094,"Ġstrict":5095,"Ġleads":5096,"Ġarrest":5097,"aries":5098,"Ġbroker":5099,"Ġfelt":5100,"Ġdatab":5101,"Ġownership":5102,"Ġconvin":5103,"reas":5104,"arm":5105,"Ġstandards":5106,"Ġdownside":5107,"Ġbacking":5108,"Ġip":5109,"Ġdecade":5110,"Ġflip":5111,"Ġidiots":5112,"lat":5113,"Ġblind":5114,"lk":5115,"Ġloses":5116,"Ġfaucet":5117,"Ġviol":5118,"esus":5119,"Ġjapanese":5120,"Ġprocessing":5121,"Ġsafer":5122,"Ġremove":5123,"bm":5124,"Ġregistr":5125,"bon":5126,"Ġchannels":5127,"gas":5128,"hy":5129,"bage":5130,"ination":5131,"Ġpopulation":5132,"Ġforced":5133,"Ġsuperior":5134,"Ġtank":5135,"ops":5136,"Ġtough":5137,"isation":5138,"Ġpsych":5139,"bol":5140,"really":5141,"Ġshorting":5142,"Ġfli":5143,"Ġbtcs":5144,"Ġneither":5145,"Ġquit":5146,"Ġpeter":5147,"lev":5148,"Ġrace":5149,"Ġvalued":5150,"Ġconnected":5151,"zor":5152,"Ġdeflation":5153,"Ġhelpful":5154,"Ġafrica":5155,"probably":5156,"uters":5157,"Ġengineer":5158,"Ġcommodity":5159,"Ġheading":5160,"tar":5161,"ald":5162,"icial":5163,"ony":5164,"Ġfirms":5165,"Ġadop":5166,"Ġindependent":5167,"Ġcos":5168,"Ġupt":5169,"ires":5170,"vr":5171,"Ġvaluation":5172,"Ġrepeat":5173,"Ġwomen":5174,"Ġpromot":5175,"Ġretest":5176,"Ġsuccessfully":5177,"Ġtons":5178,"rase":5179,"erin":5180,"locks":5181,"bro":5182,"Ġgovt":5183,"Ġswing":5184,"Ġjam":5185,"Ġcryptom":5186,"Ġtbh":5187,"Ġtrick":5188,"Ġmas":5189,"her":5190,"Ġstakepool":5191,"Ġsideways":5192,"Ġproposal":5193,"Ġloose":5194,"pa":5195,"Ġsnap":5196,"Ġtraff":5197,"Ġsweet":5198,"iders":5199,"Ġpurposes":5200,"Ġcrime":5201,"Ġtriangle":5202,"Ġtrending":5203,"Ġmodern":5204,"Ġmother":5205,"zer":5206,"Ġincredible":5207,"Ġpin":5208,"Ġfloor":5209,"Ġadvanced":5210,"Ġinevitable":5211,"Ġgrad":5212,"Ġindicator":5213,"Ġyap":5214,"Ġpas":5215,"Ġstakepoolcom":5216,"ato":5217,"adays":5218,"Ġmeeting":5219,"nothing":5220,"quot":5221,"ban":5222,"iel":5223,"Ġyo":5224,"buying":5225,"itors":5226,"ica":5227,"Ġship":5228,"Ġpurchasing":5229,"Ġfamiliar":5230,"Ġuncertain":5231,"Ġpromoting":5232,"love":5233,"Ġadvise":5234,"Ġmechanism":5235,"Ġmetamask":5236,"Ġdevice":5237,"Ġmorgan":5238,"Ġnarrative":5239,"Ġhighlight":5240,"Ġdeg":5241,"Ġshock":5242,"Ġexplore":5243,"stood":5244,"Ġgarbage":5245,"ikes":5246,"Ġsy":5247,"Ġmort":5248,"Ġsigned":5249,"Ġexpos":5250,"Ġva":5251,"iously":5252,"Ġcrashed":5253,"Ġpayout":5254,"Ġnation":5255,"repren":5256,"Ġpullback":5257,"Ġgrows":5258,"iger":5259,"amaz":5260,"Ġeuro":5261,"Ġpassive":5262,"Ġenable":5263,"Ġtoward":5264,"Ġcarry":5265,"Ġmonitor":5266,"tery":5267,"Ġauto":5268,"Ġreaching":5269,"Ġquote":5270,"Ġprofile":5271,"Ġselloff":5272,"Ġconvinced":5273,"Ġmanipulated":5274,"Ġrush":5275,"Ġsomebody":5276,"tm":5277,"Ġandlt":5278,"Ġmainly":5279,"orrect":5280,"Ġgoldman":5281,"Ġcenter":5282,"anal":5283,"Ġbirthday":5284,"Ġcapt":5285,"Ġciv":5286,"Ġtreas":5287,"Ġbeginners":5288,"Ġcentralization":5289,"Ġstablecoin":5290,"honestly":5291,"Ġama":5292,"Ġfortune":5293,"Ġunderlying":5294,"Ġperfectly":5295,"Ġsens":5296,"Ġretrace":5297,"Ġhom":5298,"Ġplanned":5299,"Ġproperly":5300,"Ġfollows":5301,"Ġanonymity":5302,"Ġkiller":5303,"Ġnav":5304,"Ġgained":5305,"Ġultimate":5306,"Ġcomputing":5307,"Ġconsumption":5308,"Ġultimately":5309,"Ġmerc":5310,"mi":5311,"mak":5312,"Ġserve":5313,"Ġquantum":5314,"Ġconsumer":5315,"stamp":5316,"Ġshown":5317,"ede":5318,"Ġtransferred":5319,"Ġice":5320,"ses":5321,"bot":5322,"Ġconver":5323,"Ġbrave":5324,"Ġbarely":5325,"Ġconstant":5326,"hodl":5327,"Ġscrew":5328,"Ġscammed":5329,"Ġbankers":5330,"Ġrekt":5331,"istics":5332,"Ġresponsible":5333,"Ġportion":5334,"need":5335,"person":5336,"Ġcollege":5337,"worth":5338,"Ġfails":5339,"Ġfeb":5340,"Ġios":5341,"Ġgenius":5342,"org":5343,"Ġcrowd":5344,"Ġdoor":5345,"Ġprinting":5346,"Ġdimon":5347,"Ġtues":5348,"Ġsolved":5349,"Ġti":5350,"Ġexposure":5351,"Ġbcc":5352,"Ġfly":5353,"Ġmir":5354,"Ġbets":5355,"Ġvictim":5356,"talk":5357,"Ġborrow":5358,"Ġshortterm":5359,"Ġexplaining":5360,"Ġbed":5361,"Ġist":5362,"Ġestim":5363,"Ġreflect":5364,"Ġdemon":5365,"Ġkong":5366,"Ġintroduced":5367,"Ġsidechain":5368,"Ġproduction":5369,"Ġgotten":5370,"true":5371,"oker":5372,"Ġbitcoiners":5373,"Ġeuropean":5374,"Ġsafety":5375,"oking":5376,"retweet":5377,"Ġshall":5378,"atulations":5379,"Ġmanipulate":5380,"Ġhopes":5381,"gg":5382,"Ġunit":5383,"Ġreference":5384,"Ġjourney":5385,"iex":5386,"Ġnonsense":5387,"Ġcongress":5388,"Ġintroduce":5389,"Ġrare":5390,"Ġaffected":5391,"guys":5392,"Ġdeserve":5393,"Ġfamous":5394,"Ġcanad":5395,"mitted":5396,"Ġcomparing":5397,"Ġcomplicated":5398,"Ġapproved":5399,"Ġguaranteed":5400,"Ġoutperform":5401,"Ġvast":5402,"Ġputs":5403,"icing":5404,"too":5405,"Ġmaximum":5406,"Ġimmut":5407,"Ġassociated":5408,"Ġeffective":5409,"Ġentrepren":5410,"give":5411,"Ġmcafee":5412,"Ġqual":5413,"Ġintended":5414,"Ġhyp":5415,"Ġpermission":5416,"py":5417,"Ġcashflow":5418,"Ġapproval":5419,"apore":5420,"ils":5421,"Ġviews":5422,"Ġwithdrawals":5423,"Ġconnection":5424,"utor":5425,"Ġpolicies":5426,"Ġanswers":5427,"lear":5428,"Ġnasdaq":5429,"Ġmultip":5430,"Ġtested":5431,"Ġbans":5432,"ception":5433,"iswap":5434,"Ġsup":5435,"Ġnatural":5436,"miss":5437,"Ġroughly":5438,"Ġaka":5439,"Ġtable":5440,"Ġporn":5441,"Ġtestnet":5442,"Ġbegins":5443,"Ġdl":5444,"bch":5445,"cin":5446,"azine":5447,"Ġincoming":5448,"learn":5449,"Ġsettle":5450,"Ġmagic":5451,"Ġfavour":5452,"uces":5453,"ser":5454,"Ġfract":5455,"inter":5456,"Ġbuddy":5457,"Ġwanting":5458,"Ġowning":5459,"Ġrank":5460,"Ġauthorities":5461,"Ġnewbies":5462,"ilit":5463,"hr":5464,"ov":5465,"daily":5466,"Ġdomain":5467,"currencies":5468,"ision":5469,"Ġze":5470,"inform":5471,"Ġcomfortable":5472,"Ġphil":5473,"Ġovernight":5474,"Ġnowadays":5475,"Ġrating":5476,"Ġsurges":5477,"abol":5478,"Ġdrink":5479,"Ġindian":5480,"Ġlogo":5481,"sl":5482,"Ġpolitic":5483,"ivity":5484,"Ġlies":5485,"Ġintention":5486,"iling":5487,"Ġreplaced":5488,"iver":5489,"Ġtalked":5490,"sored":5491,"related":5492,"quee":5493,"Ġmethods":5494,"however":5495,"ucks":5496,"omp":5497,"Ġenterprise":5498,"Ġfault":5499,"Ġpatent":5500,"Ġtied":5501,"Ġnich":5502,"Ġbless":5503,"Ġgenesis":5504,"Ġfilled":5505,"Ġhidden":5506,"Ġtired":5507,"agreed":5508,"ora":5509,"vol":5510,"Ġincredibly":5511,"Ġdoubled":5512,"Ġsam":5513,"Ġfren":5514,"Ġarguments":5515,"Ġterror":5516,"eday":5517,"trans":5518,"Ġapprox":5519,"Ġforked":5520,"Ġcharacter":5521,"Ġthurs":5522,"ufact":5523,"boe":5524,"Ġconvenient":5525,"Ġcomprom":5526,"Ġsuppose":5527,"Ġalleged":5528,"Ġcircle":5529,"Ġrelationship":5530,"Ġsomewhat":5531,"inklev":5532,"ences":5533,"Ġamc":5534,"orse":5535,"Ġsettlement":5536,"Ġaims":5537,"Ġwalk":5538,"celer":5539,"Ġefforts":5540,"Ġwarren":5541,"Ġcars":5542,"yup":5543,"isc":5544,"update":5545,"Ġaustralia":5546,"Ġtuesday":5547,"Ġcryptot":5548,"ateral":5549,"fill":5550,"urity":5551,"Ġsched":5552,"Ġsong":5553,"ethe":5554,"dude":5555,"Ġtrap":5556,"obs":5557,"Ġincludes":5558,"nah":5559,"Ġlin":5560,"rain":5561,"ened":5562,"she":5563,"Ġusual":5564,"Ġcirculating":5565,"Ġboat":5566,"Ġmovements":5567,"ithub":5568,"power":5569,"Ġstops":5570,"Ġconclus":5571,"mod":5572,"don":5573,"call":5574,"Ġpun":5575,"Ġrecords":5576,"Ġprovider":5577,"Ġoperation":5578,"ender":5579,"high":5580,"Ġrevolutionary":5581,"Ġtab":5582,"Ġtheft":5583,"yal":5584,"Ġbother":5585,"ups":5586,"Ġcontinued":5587,"ket":5588,"Ġcalm":5589,"Ġsquare":5590,"Ġwinners":5591,"Ġoptimistic":5592,"Ġcorporate":5593,"lish":5594,"Ġdriven":5595,"Ġfat":5596,"fall":5597,"Ġconstr":5598,"Ġprepared":5599,"Ġcomo":5600,"Ġjudge":5601,"Ġmistakes":5602,"Ġentering":5603,"Ġsilly":5604,"Ġartific":5605,"apers":5606,"Ġshills":5607,"Ġencourage":5608,"etime":5609,"Ġrebound":5610,"td":5611,"aming":5612,"Ġxvg":5613,"Ġsecured":5614,"Ġtracking":5615,"Ġdeploy":5616,"Ġsection":5617,"ari":5618,"xs":5619,"Ġtranspa":5620,"Ġmillionaires":5621,"Ġreputation":5622,"dra":5623,"Ġchinas":5624,"Ġshopping":5625,"Ġunknown":5626,"Ġreuters":5627,"Ġbody":5628,"ule":5629,"Ġcombined":5630,"dig":5631,"Ġfing":5632,"Ġrestrict":5633,"Ġunp":5634,"Ġmanufact":5635,"Ġoperate":5636,"defin":5637,"Ġhide":5638,"elon":5639,"Ġrely":5640,"Ġscience":5641,"Ġbsc":5642,"Ġups":5643,"Ġnu":5644,"Ġparts":5645,"cho":5646,"Ġdetermine":5647,"Ġmasses":5648,"ledger":5649,"Ġsquee":5650,"Ġsaved":5651,"tldr":5652,"Ġarmy":5653,"Ġcausing":5654,"Ġrs":5655,"ained":5656,"Ġconsumers":5657,"Ġquiet":5658,"oul":5659,"Ġccn":5660,"Ġtickets":5661,"Ġskills":5662,"Ġbust":5663,"Ġshitpost":5664,"gence":5665,"inklevoss":5666,"Ġmachines":5667,"Ġuniversity":5668,"Ġsick":5669,"levant":5670,"Ġtang":5671,"Ġanti":5672,"point":5673,"iblocks":5674,"Ġcontribute":5675,"Ġsatur":5676,"Ġtransparency":5677,"Ġedge":5678,"Ġplays":5679,"sen":5680,"Ġbegan":5681,"Ġinu":5682,"Ġsupporters":5683,"Ġgemini":5684,"claim":5685,"Ġcouldnt":5686,"Ġxd":5687,"Ġactions":5688,"Ġdil":5689,"Ġreferring":5690,"Ġtradingview":5691,"Ġmeasure":5692,"Ġcondit":5693,"Ġholid":5694,"Ġelimin":5695,"Ġfighting":5696,"ido":5697,"Ġvolumes":5698,"Ġtrezor":5699,"according":5700,"Ġideal":5701,"Ġwatched":5702,"Ġactively":5703,"Ġhasnt":5704,"Ġchose":5705,"Ġdowntrend":5706,"Ġanticip":5707,"win":5708,"sthe":5709,"reness":5710,"Ġcommercial":5711,"Ġconditions":5712,"Ġparabol":5713,"Ġfiles":5714,"tes":5715,"Ġheads":5716,"hmm":5717,"ione":5718,"Ġkilling":5719,"Ġwerent":5720,"Ġbooks":5721,"Ġglob":5722,"Ġregulator":5723,"Ġthursday":5724,"Ġang":5725,"peer":5726,"Ġviable":5727,"Ġgithub":5728,"Ġhorr":5729,"Ġnem":5730,"etic":5731,"Ġstands":5732,"Ġwednes":5733,"Ġsalv":5734,"Ġtun":5735,"Ġtown":5736,"Ġhacking":5737,"Ġoperating":5738,"Ġfeedback":5739,"Ġoffered":5740,"Ġhardfork":5741,"Ġestablish":5742,"Ġacceptance":5743,"Ġwitness":5744,"Ġtul":5745,"Ġpeg":5746,"Ġutc":5747,"Ġgolden":5748,"Ġintegration":5749,"finally":5750,"Ġapi":5751,"bf":5752,"aded":5753,"Ġplumm":5754,"Ġbutton":5755,"Ġgpus":5756,"Ġanalysts":5757,"Ġconduct":5758,"everything":5759,"Ġconsolidation":5760,"Ġacceler":5761,"aur":5762,"Ġinput":5763,"bar":5764,"Ġdur":5765,"Ġuptrend":5766,"Ġotc":5767,"lem":5768,"Ġwarns":5769,"lam":5770,"pot":5771,"Ġou":5772,"eeee":5773,"kad":5774,"Ġanyways":5775,"Ġeveryones":5776,"Ġcoord":5777,"Ġissu":5778,"Ġmaximalist":5779,"sounds":5780,"Ġdatabase":5781,"blic":5782,"Ġtrigger":5783,"oles":5784,"Ġalph":5785,"Ġeffectively":5786,"words":5787,"fund":5788,"Ġeasiest":5789,"hah":5790,"cape":5791,"ln":5792,"Ġreceiving":5793,"Ġenglish":5794,"Ġmerchant":5795,"mine":5796,"Ġprimary":5797,"Ġpriced":5798,"Ġrapidly":5799,"Ġstrongly":5800,"cer":5801,"morgan":5802,"russ":5803,"Ġcriptomoned":5804,"Ġwedge":5805,"Ġshame":5806,"Ġpromises":5807,"Ġboss":5808,"pretty":5809,"Ġcu":5810,"Ġdepart":5811,"Ġpublicly":5812,"Ġfellow":5813,"tell":5814,"Ġdiversify":5815,"Ġaccident":5816,"Ġspir":5817,"Ġempt":5818,"oniex":5819,"Ġdick":5820,"Ġeffects":5821,"Ġvtc":5822,"Ġstudent":5823,"Ġentered":5824,"ynam":5825,"Ġraises":5826,"Ġobt":5827,"Ġpropag":5828,"Ġcharges":5829,"Ġdedicated":5830,"markets":5831,"xic":5832,"Ġclosing":5833,"Ġprincip":5834,"Ġplayer":5835,"Ġmotiv":5836,"Ġbelong":5837,"south":5838,"Ġirrelevant":5839,"Ġplayed":5840,"Ġpreviously":5841,"Ġtiming":5842,"icle":5843,"Ġthroughout":5844,"Ġripp":5845,"Ġawareness":5846,"Ġnewsbtc":5847,"Ġroi":5848,"Ġmovie":5849,"Ġproduce":5850,"Ġmeta":5851,"Ġcontext":5852,"sign":5853,"forget":5854,"Ġadvoc":5855,"Ġlap":5856,"Ġimag":5857,"Ġtraffic":5858,"Ġhong":5859,"Ġicon":5860,"overs":5861,"Ġidk":5862,"Ġcontrols":5863,"leading":5864,"Ġnamed":5865,"Ġpeace":5866,"Ġresol":5867,"Ġbusy":5868,"Ġmich":5869,"ĠĠĠĠĠ":5870,"ifi":5871,"Ġtransform":5872,"Ġdevices":5873,"Ġtps":5874,"Ġrealistic":5875,"Ġhourly":5876,"Ġforeign":5877,"vin":5878,"Ġfacilit":5879,"Ġlimits":5880,"Ġcompli":5881,"Ġcommunities":5882,"Ġbleed":5883,"Ġwednesday":5884,"abilities":5885,"Ġil":5886,"Ġmig":5887,"ooo":5888,"Ġexpon":5889,"Ġthin":5890,"Ġboring":5891,"Ġtrip":5892,"Ġneut":5893,"Ġpiss":5894,"xo":5895,"Ġnewbie":5896,"Ġpal":5897,"Ġprotocols":5898,"Ġmania":5899,"cription":5900,"Ġemployees":5901,"Ġdealing":5902,"Ġsets":5903,"Ġrights":5904,"Ġderivatives":5905,"lay":5906,"Ġwonderful":5907,"standing":5908,"Ġshouldnt":5909,"backed":5910,"Ġmere":5911,"Ġsteam":5912,"cending":5913,"Ġrip":5914,"orter":5915,"cy":5916,"Ġos":5917,"Ġcollection":5918,"core":5919,"Ġcup":5920,"Ġsteemit":5921,"Ġhrs":5922,"char":5923,"Ġwire":5924,"Ġenforce":5925,"Ġerror":5926,"Ġdiver":5927,"Ġtour":5928,"Ġexplode":5929,"Ġstays":5930,"jp":5931,"Ġpractical":5932,"Ġyell":5933,"entic":5934,"Ġkno":5935,"Ġcompetitor":5936,"Ġbuterin":5937,"brand":5938,"Ġsomeday":5939,"icit":5940,"Ġmastern":5941,"Ġshowed":5942,"Ġrevealed":5943,"Ġgap":5944,"ached":5945,"Ġitems":5946,"Ġmods":5947,"Ġpyram":5948,"eff":5949,"Ġcontinu":5950,"amples":5951,"Ġmaker":5952,"las":5953,"Ġchill":5954,"Ġpolygon":5955,"Ġbackground":5956,"mos":5957,"Ġsurvey":5958,"Ġbuzz":5959,"Ġsole":5960,"Ġcharlie":5961,"lmao":5962,"Ġec":5963,"Ġreminder":5964,"Ġcorrectly":5965,"mu":5966,"oj":5967,"Ġinstance":5968,"Ġletting":5969,"Ġalloc":5970,"house":5971,"ott":5972,"okes":5973,"Ġentity":5974,"Ġmission":5975,"Ġmilest":5976,"Ġreveals":5977,"Ġprime":5978,"Ġlawsu":5979,"Ġintelligence":5980,"Ġtrace":5981,"Ġlottery":5982,"least":5983,"izon":5984,"crow":5985,"Ġsink":5986,"Ġbakkt":5987,"Ġcommit":5988,"grail":5989,"Ġconverted":5990,"Ġdynam":5991,"Ġdesktop":5992,"Ġbias":5993,"Ġinvolve":5994,"Ġphrase":5995,"Ġandor":5996,"Ġfraction":5997,"aft":5998,"Ġhous":5999,"exchange":6000,"Ġgrant":6001,"Ġdust":6002,"Ġjumped":6003,"Ġbitpay":6004,"Ġnowhere":6005,"Ġram":6006,"Ġhumans":6007,"aaaa":6008,"Ġreleases":6009,"xy":6010,"Ġebay":6011,"sim":6012,"Ġdemonstr":6013,"Ġmater":6014,"Ġscammer":6015,"aders":6016,"Ġstrange":6017,"nced":6018,"Ġacting":6019,"Ġstealing":6020,"Ġbitstamp":6021,"mic":6022,"Ġunderstood":6023,"ael":6024,"Ġtap":6025,"Ġcert":6026,"Ġuniswap":6027,"Ġremaining":6028,"herent":6029,"Ġjamie":6030,"Ġretirement":6031,"Ġretard":6032,"Ġbol":6033,"Ġlocation":6034,"oom":6035,"uting":6036,"Ġdoom":6037,"Ġparents":6038,"Ġcuz":6039,"Ġsolana":6040,"welcome":6041,"Ġdeflationary":6042,"Ġwhose":6043,"Ġwealthy":6044,"Ġing":6045,"bus":6046,"comments":6047,"ulting":6048,"hack":6049,"Ġvert":6050,"Ġprecious":6051,"Ġdefault":6052,"Ġpulled":6053,"Ġforming":6054,"Ġreverse":6055,"Ġcmc":6056,"Ġcompeting":6057,"Ġshady":6058,"Ġsingapore":6059,"Ġsymbol":6060,"Ġauthentic":6061,"Ġcompetitors":6062,"Ġinvented":6063,"Ġdesper":6064,"met":6065,"Ġexceed":6066,"Ġunion":6067,"Ġjail":6068,"Ġmortg":6069,"Ġexclusive":6070,"ularly":6071,"Ġfaces":6072,"Ġandthe":6073,"Ġcorner":6074,"Ġdram":6075,"kadot":6076,"Ġstoring":6077,"Ġul":6078,"Ġplug":6079,"Ġasics":6080,"Ġagreement":6081,"Ġcrackdown":6082,"ami":6083,"Ġglobally":6084,"Ġfunctionality":6085,"Ġamb":6086,"omin":6087,"Ġborn":6088,"agn":6089,"Ġswe":6090,"mart":6091,"Ġhed":6092,"Ġlistening":6093,"va":6094,"Ġein":6095,"Ġcollateral":6096,"Ġclaimed":6097,"Ġheaded":6098,"Ġcompleted":6099,"Ġbelieved":6100,"Ġbash":6101,"about":6102,"atz":6103,"stable":6104,"Ġsalary":6105,"Ġscient":6106,"Ġcapitalization":6107,"vy":6108,"Ġdevelopments":6109,"Ġtrustless":6110,"Ġdreams":6111,"Ġfantastic":6112,"Ġcharity":6113,"Ġproofof":6114,"Ġcapable":6115,"shot":6116,"Ġlegacy":6117,"amsung":6118,"emy":6119,"Ġbail":6120,"Ġflex":6121,"uctions":6122,"Ġevil":6123,"Ġparabolic":6124,"bas":6125,"Ġproposed":6126,"Ġbtg":6127,"Ġtask":6128,"arks":6129,"Ġsubstant":6130,"Ġcorrelation":6131,"Ġsuggests":6132,"Ġstrateg":6133,"Ġgenerated":6134,"Ġannoying":6135,"Ġjoe":6136,"Ġneutral":6137,"Ġveh":6138,"Ġschemes":6139,"goog":6140,"Ġfastest":6141,"Ġwestern":6142,"Ġloves":6143,"Ġgi":6144,"okay":6145,"omen":6146,"Ġdai":6147,"enses":6148,"Ġraiblocks":6149,"Ġjoins":6150,"Ġfounders":6151,"Ġmagazine":6152,"Ġmaximalists":6153,"expect":6154,"Ġetherium":6155,"Ġpredicts":6156,"Ġburning":6157,"imo":6158,"Ġreporting":6159,"kind":6160,"Ġfacing":6161,"Ġadvisor":6162,"aba":6163,"facebook":6164,"iped":6165,"Ġpolitics":6166,"aks":6167,"Ġintrins":6168,"Ġregistered":6169,"Ġiin":6170,"Ġfigured":6171,"Ġlicense":6172,"Ġsatis":6173,"Ġstaying":6174,"Ġah":6175,"vs":6176,"Ġgal":6177,"Ġtemporary":6178,"Ġexamples":6179,"Ġexecutive":6180,"idad":6181,"brid":6182,"Ġusdc":6183,"Ġheight":6184,"Ġentertain":6185,"Ġswiss":6186,"Ġadapt":6187,"Ġstudents":6188,"Ġhilar":6189,"Ġmalware":6190,"isnt":6191,"gb":6192,"Ġrug":6193,"Ġbillionaires":6194,"lan":6195,"Ġorganization":6196,"Ġequip":6197,"Ġharm":6198,"pol":6199,"Ġpls":6200,"ida":6201,"Ġspee":6202,"vi":6203,"Ġsustainable":6204,"infl":6205,"topeer":6206,"Ġmonop":6207,"Ġagency":6208,"Ġforbes":6209,"been":6210,"ago":6211,"Ġema":6212,"Ġmike":6213,"Ġweight":6214,"Ġbehavior":6215,"acin":6216,"uses":6217,"Ġdying":6218,"Ġths":6219,"Ġlamb":6220,"Ġjav":6221,"Ġpicked":6222,"Ġsurprising":6223,"Ġeducate":6224,"Ġbitcoincash":6225,"Ġstyle":6226,"ancing":6227,"Ġdeals":6228,"Ġspeech":6229,"bur":6230,"Ġcoinc":6231,"security":6232,"Ġnewcom":6233,"inge":6234,"Ġinfluenc":6235,"Ġabc":6236,"Ġevolution":6237,"others":6238,"Ġcoordin":6239,"Ġphoto":6240,"Ġchip":6241,"fd":6242,"Ġmut":6243,"Ġtxs":6244,"Ġupward":6245,"Ġlever":6246,"imal":6247,"nope":6248,"Ġbiz":6249,"Ġpoloniex":6250,"Ġamericans":6251,"Ġimpressive":6252,"dogecoin":6253,"erc":6254,"Ġbuck":6255,"Ġtechnological":6256,"Ġobl":6257,"pn":6258,"Ġgig":6259,"uan":6260,"Ġcate":6261,"ounding":6262,"Ġcreators":6263,"Ġhos":6264,"Ġbitcointalk":6265,"Ġaward":6266,"Ġdas":6267,"Ġpractice":6268,"Ġfinds":6269,"Ġraising":6270,"lin":6271,"Ġaccom":6272,"Ġcontrovers":6273,"hard":6274,"glo":6275,"Ġbuyer":6276,"Ġrequirements":6277,"Ġfrequ":6278,"Ġoutlook":6279,"channel":6280,"atoshi":6281,"always":6282,"Ġnations":6283,"Ġdies":6284,"Ġwik":6285,"Ġsight":6286,"Ġcivil":6287,"crypt":6288,"bby":6289,"Ġdd":6290,"Ġsha":6291,"mar":6292,"quest":6293,"Ġlaptop":6294,"Ġfarming":6295,"emp":6296,"Ġservers":6297,"Ġjim":6298,"Ġcatal":6299,"Ġlawy":6300,"Ġaver":6301,"Ġballs":6302,"Ġdir":6303,"Ġmars":6304,"banks":6305,"Ġprogramming":6306,"Ġbin":6307,"etch":6308,"iser":6309,"illiant":6310,"Ġfuel":6311,"Ġfb":6312,"proof":6313,"atible":6314,"thought":6315,"Ġgdax":6316,"ltc":6317,"Ġempty":6318,"Ġjesus":6319,"apping":6320,"Ġtweeted":6321,"Ġscreen":6322,"Ġconsequ":6323,"Ġpra":6324,"Ġpublish":6325,"Ġflood":6326,"Ġalternatives":6327,"again":6328,"lix":6329,"Ġinfinite":6330,"future":6331,"ooth":6332,"Ġdyor":6333,"Ġpeertopeer":6334,"Ġscript":6335,"atr":6336,"vo":6337,"Ġshoot":6338,"Ġsession":6339,"Ġbreat":6340,"Ġblocksize":6341,"Ġfish":6342,"case":6343,"Ġtransferring":6344,"Ġzer":6345,"Ġpyramid":6346,"udes":6347,"Ġrelax":6348,"cryptocurrencies":6349,"Ġblocked":6350,"Ġconspir":6351,"Ġsides":6352,"Ġdegree":6353,"war":6354,"test":6355,"Ġeast":6356,"Ġmew":6357,"Ġstatements":6358,"Ġluc":6359,"ointed":6360,"Ġcollabor":6361,"adr":6362,"Ġthreads":6363,"Ġprinted":6364,"Ġdied":6365,"Ġcopied":6366,"Ġthrowing":6367,"Ġcontest":6368,"Ġequity":6369,"Ġatleast":6370,"Ġrealise":6371,"Ġdrama":6372,"Ġthistr":6373,"Ġmulti":6374,"iciency":6375,"anch":6376,"hop":6377,"encies":6378,"uit":6379,"Ġaccompl":6380,"hares":6381,"Ġscary":6382,"Ġdirector":6383,"Ġinvite":6384,"Ġcow":6385,"Ġbonds":6386,"Ġrejected":6387,"Ġsalt":6388,"cale":6389,"Ġpi":6390,"Ġuns":6391,"iam":6392,"iyor":6393,"Ġfut":6394,"Ġasian":6395,"Ġblockchainbased":6396,"Ġkingdom":6397,"oret":6398,"friendly":6399,"Ġrecognize":6400,"ka":6401,"Ġpiv":6402,"Ġpocket":6403,"Ġjer":6404,"ĠĠĠĠĠĠĊ":6405,"Ġcanadian":6406,"Ġbitgrail":6407,"nobody":6408,"Ġfrustr":6409,"Ġell":6410,"Ġincentives":6411,"Ġforms":6412,"Ġbil":6413,"Ġwouldve":6414,"Ġaccumulating":6415,"street":6416,"Ġseeking":6417,"Ġareas":6418,"Ġkinds":6419,"Ġcashing":6420,"gener":6421,"Ġseek":6422,"Ġconfusing":6423,"Ġinsp":6424,"neo":6425,"Ġcart":6426,"Ġws":6427,"Ġtas":6428,"bert":6429,"dep":6430,"Ġnoob":6431,"Ġpartn":6432,"iota":6433,"Ġdestroyed":6434,"Ġsaturday":6435,"Ġmouth":6436,"Ġpoliticians":6437,"selling":6438,"itzer":6439,"Ġgh":6440,"Ġintent":6441,"gd":6442,"Ġcboe":6443,"Ġinitially":6444,"Ġhang":6445,"Ġiron":6446,"Ġvend":6447,"Ġcaps":6448,"Ġachieved":6449,"Ġsafest":6450,"Ġease":6451,"Ġimplic":6452,"Ġintrinsic":6453,"Ġstorm":6454,"ifies":6455,"Ġmins":6456,"Ġmeanwhile":6457,"Ġannual":6458,"Ġclosely":6459,"lands":6460,"Ġdetect":6461,"Ġtan":6462,"cont":6463,"Ġprohib":6464,"Ġcauses":6465,"care":6466,"Ġatomic":6467,"Ġpolkadot":6468,"Ġenthusiasts":6469,"Ġtheyll":6470,"Ġparticularly":6471,"obi":6472,"Ġlabs":6473,"japan":6474,"tos":6475,"Ġstablecoins":6476,"Ġsqueeze":6477,"emote":6478,"Ġengage":6479,"izations":6480,"Ġongoing":6481,"Ġhodler":6482,"Ġemerging":6483,"Ġdub":6484,"Ġdent":6485,"Ġappeal":6486,"Ġwinklevoss":6487,"Ġaspects":6488,"Ġoct":6489,"comm":6490,"Ġrose":6491,"Ġprev":6492,"Ġepic":6493,"Ġcollaps":6494,"Ġpenn":6495,"Ġstopping":6496,"Ġenables":6497,"Ġwindows":6498,"Ġseemed":6499,"Ġmicro":6500,"Ġlend":6501,"rich":6502,"tot":6503,"trader":6504,"Ġinterests":6505,"Ġbound":6506,"odus":6507,"Ġpark":6508,"Ġprize":6509,"Ġresistant":6510,"Ġframework":6511,"Ġaudit":6512,"cf":6513,"Ġdex":6514,"Ġagreed":6515,"iled":6516,"Ġbandw":6517,"Ġhon":6518,"Ġindicators":6519,"andlt":6520,"Ġnoobs":6521,"Ġcorporations":6522,"Ġcub":6523,"commer":6524,"isco":6525,"Ġindustries":6526,"supp":6527,"Ġthiscussing":6528,"Ġbarr":6529,"Ġchallenges":6530,"Ġpossibilities":6531,"ni":6532,"Ġstruggling":6533,"nda":6534,"Ġrumors":6535,"definitely":6536,"ables":6537,"dash":6538,"Ġpurely":6539,"Ġdamage":6540,"asp":6541,"Ġinherent":6542,"Ġdiscuss":6543,"belie":6544,"Ġimportance":6545,"google":6546,"Ġbelief":6547,"Ġhilarious":6548,"Ġhan":6549,"Ġrenew":6550,"Ġexpectations":6551,"Ġbrit":6552,"Ġlum":6553,"Ġsummit":6554,"tum":6555,"Ġcongrats":6556,"cardano":6557,"investing":6558,"Ġhardly":6559,"Ġconfl":6560,"Ġlifetime":6561,"Ġdividends":6562,"web":6563,"eda":6564,"Ġedition":6565,"agram":6566,"Ġdeleted":6567,"Ġaccessible":6568,"iles":6569,"Ġlegend":6570,"Ġshutter":6571,"Ġfigures":6572,"ropri":6573,"Ġsatisf":6574,"Ġvib":6575,"class":6576,"Ġstre":6577,"Ġhurry":6578,"Ġshake":6579,"omg":6580,"Ġlying":6581,"Ġassist":6582,"Ġprepare":6583,"Ġreaction":6584,"Ġchase":6585,"Ġbounties":6586,"Ġregistration":6587,"ĠĠĠĠĠĠĠĠĠĠĠĠĠĠĠĠ":6588,"Ġdonation":6589,"Ġspin":6590,"acak":6591,"oly":6592,"Ġupwards":6593,"Ġrall":6594,"both":6595,"Ġpending":6596,"Ġsia":6597,"Ġalex":6598,"greg":6599,"hopefully":6600,"reh":6601,"Ġmur":6602,"Ġregards":6603,"Ġuncertainty":6604,"Ġasap":6605,"ique":6606,"Ġreportedly":6607,"Ġibm":6608,"Ġjumping":6609,"Ġperman":6610,"bing":6611,"Ġthor":6612,"Ġbubbles":6613,"Ġparticipating":6614,"Ġvotes":6615,"Ġrewarded":6616,"ara":6617,"Ġscarcity":6618,"Ġcustody":6619,"atis":6620,"Ġincreasingly":6621,"Ġdigit":6622,"Ġolder":6623,"Ġguessing":6624,"ours":6625,"ads":6626,"Ġconserv":6627,"Ġending":6628,"Ġignorant":6629,"Ġtreasury":6630,"currently":6631,"Ġautomated":6632,"Ġincentiv":6633,"Ġthiscovered":6634,"Ġlisk":6635,"Ġembrace":6636,"Ġprospect":6637,"Ġscreens":6638,"Ġful":6639,"Ġstaff":6640,"Ġlag":6641,"Ġsolar":6642,"Ġhi":6643,"Ġseller":6644,"Ġuber":6645,"Ġkn":6646,"Ġdavid":6647,"Ġjumps":6648,"Ġarm":6649,"Ġtries":6650,"Ġarrested":6651,"Ġdownvoted":6652,"Ġaband":6653,"Ġsobre":6654,"Ġfinancially":6655,"party":6656,"Ġdict":6657,"Ġlegis":6658,"Ġcro":6659,"Ġdecades":6660,"Ġperforming":6661,"bucks":6662,"Ġay":6663,"better":6664,"Ġpropert":6665,"Ġpushed":6666,"Ġcpu":6667,"ae":6668,"Ġrecommended":6669,"Ġcryptography":6670,"Ġthiscussed":6671,"Ġworries":6672,"Ġcrowds":6673,"Ġsalvador":6674,"Ġfinish":6675,"theyre":6676,"Ġhaven":6677,"holding":6678,"had":6679,"Ġcentralised":6680,"Ġdrag":6681,"Ġequipment":6682,"Ġscream":6683,"Ġniger":6684,"Ġct":6685,"Ġimmutable":6686,"Ġbn":6687,"ao":6688,"congrats":6689,"via":6690,"Ġvoice":6691,"idding":6692,"osen":6693,"Ġfrank":6694,"pper":6695,"Ġcftc":6696,"Ġchainlink":6697,"Ġcomb":6698,"Ġlazy":6699,"two":6700,"Ġuncon":6701,"rated":6702,"Ġhole":6703,"Ġwalton":6704,"Ġproviders":6705,"Ġpaul":6706,"Ġaff":6707,"Ġyea":6708,"Ġargent":6709,"Ġbuffett":6710,"Ġinterface":6711,"Ġgib":6712,"arian":6713,"icon":6714,"Ġswaps":6715,"Ġlux":6716,"Ġrelig":6717,"Ġtil":6718,"Ġcountrys":6719,"Ġskeptical":6720,"Ġoutlet":6721,"Ġyah":6722,"Ġspons":6723,"low":6724,"Ġdun":6725,"Ġlawsuit":6726,"Ġbitco":6727,"Ġnewcomers":6728,"Ġproperties":6729,"Ġfas":6730,"Ġproves":6731,"ionally":6732,"Ġtender":6733,"Ġconclusion":6734,"airdrop":6735,"Ġloop":6736,"Ġattractive":6737,"Ġvoted":6738,"Ġalpha":6739,"Ġbudget":6740,"Ġfunded":6741,"Ġdepress":6742,"Ġwhereas":6743,"Ġdepartment":6744,"Ġpray":6745,"Ġappreciated":6746,"ogr":6747,"Ġauction":6748,"Ġju":6749,"Ġsmooth":6750,"Ġgang":6751,"rets":6752,"absolute":6753,"ansion":6754,"Ġintegrated":6755,"Ġconfirms":6756,"Ġreduced":6757,"Ġdut":6758,"Ġnotes":6759,"Ġthiscord":6760,"Ġnuts":6761,"aste":6762,"Ġmisleading":6763,"Ġspo":6764,"sters":6765,"Ġcryptop":6766,"ncing":6767,"Ġgrown":6768,"Ġpoker":6769,"Ġadopters":6770,"holy":6771,"law":6772,"Ġbrilliant":6773,"Ġicx":6774,"aly":6775,"Ġramp":6776,"tra":6777,"resp":6778,"redict":6779,"Ġmillenn":6780,"Ġbelieving":6781,"Ġchairman":6782,"billion":6783,"Ġcommunication":6784,"itions":6785,"Ġkilled":6786,"otos":6787,"Ġack":6788,"rees":6789,"Ġtutor":6790,"Ġbugs":6791,"illions":6792,"Ġmemory":6793,"Ġproceed":6794,"Ġemploy":6795,"Ġshutterstock":6796,"Ġstrategies":6797,"Ġmyster":6798,"irect":6799,"Ġiran":6800,"Ġupvotes":6801,"Ġner":6802,"Ġeditor":6803,"Ġmagn":6804,"delta":6805,"Ġchoices":6806,"Ġshilled":6807,"Ġobsol":6808,"Ġminister":6809,"hel":6810,"commerce":6811,"Ġcapit":6812,"Ġug":6813,"Ġtheoret":6814,"Ġpione":6815,"Ġpulling":6816,"Ġfears":6817,"Ġfunctions":6818,"fix":6819,"Ġdc":6820,"Ġdeserves":6821,"Ġoutcome":6822,"Ġspect":6823,"Ġscalable":6824,"Ġraid":6825,"Ġcomplaining":6826,"ollar":6827,"Ġchrome":6828,"Ġmassively":6829,"Ġeconomist":6830,"nab":6831,"Ġslump":6832,"Ġforces":6833,"itect":6834,"ckets":6835,"Ġswings":6836,"retweeted":6837,"Ġmun":6838,"Ġemb":6839,"Ġconspiracy":6840,"Ġow":6841,"ben":6842,"Ġcha":6843,"agile":6844,"project":6845,"Ġuniverse":6846,"Ġtops":6847,"Ġstole":6848,"Ġtransition":6849,"Ġiphone":6850,"Ġextension":6851,"Ġlogical":6852,"Ġstaked":6853,"Ġbout":6854,"iot":6855,"Ġmint":6856,"Ġknock":6857,"Ġhire":6858,"Ġsharding":6859,"Ġletter":6860,"Ġexodus":6861,"Ġcandles":6862,"Ġtheyve":6863,"Ġbb":6864,"Ġtopics":6865,"holders":6866,"govern":6867,"Ġtouched":6868,"itzerland":6869,"step":6870,"Ġipo":6871,"blockchannel":6872,"Ġwat":6873,"Ġast":6874,"Ġcrossed":6875,"car":6876,"seg":6877,"olog":6878,"Ġtaxed":6879,"Ġrational":6880,"Ġgates":6881,"Ġcel":6882,"Ġchips":6883,"ding":6884,"Ġcruc":6885,"Ġcharged":6886,"Ġunreg":6887,"Ġdefend":6888,"Ġeval":6889,"Ġunable":6890,"Ġhyped":6891,"Ġvc":6892,"business":6893,"Ġlu":6894,"Ġhaters":6895,"Ġupvote":6896,"Ġdelete":6897,"fg":6898,"stellar":6899,"Ġapplied":6900,"Ġinstagram":6901,"Ġfailing":6902,"Ġimproved":6903,"hahah":6904,"Ġmathem":6905,"Ġchoosing":6906,"erous":6907,"Ġbasics":6908,"Ġune":6909,"ken":6910,"Ġbullrun":6911,"ural":6912,"Ġelsewhere":6913,"Ġdag":6914,"blo":6915,"Ġhistorical":6916,"Ġphilipp":6917,"Ġqr":6918,"Ġcurve":6919,"arios":6920,"itory":6921,"Ġwood":6922,"Ġofferings":6923,"Ġpicking":6924,"erved":6925,"Ġcrush":6926,"shib":6927,"Ġgreatly":6928,"awesome":6929,"Ġmilestone":6930,"Ġshipping":6931,"Ġwinter":6932,"Ġpromised":6933,"Ġfools":6934,"Ġadopting":6935,"Ġgermany":6936,"Ġmanner":6937,"Ġsav":6938,"Ġthru":6939,"Ġmap":6940,"Ġpasses":6941,"onews":6942,"gi":6943,"personally":6944,"open":6945,"worthy":6946,"info":6947,"Ġchamp":6948,"Ġtoxic":6949,"Ġsubmit":6950,"Ġdive":6951,"Ġsuggested":6952,"onop":6953,"although":6954,"Ġbackup":6955,"Ġplummet":6956,"Ġleaves":6957,"Ġintegrate":6958,"ship":6959,"Ġdescribed":6960,"ogratz":6961,"hal":6962,"working":6963,"Ġhumanity":6964,"Ġwoman":6965,"Ġacknow":6966,"tron":6967,"Ġukrain":6968,"yte":6969,"Ġtriple":6970,"Ġrethereum":6971,"Ġlongs":6972,"Ġsab":6973,"ht":6974,"Ġhay":6975,"monero":6976,"Ġwel":6977,"Ġecommerce":6978,"Ġobsolete":6979,"moon":6980,"Ġasks":6981,"ivetr":6982,"chinese":6983,"qd":6984,"vt":6985,"Ġile":6986,"Ġlegitim":6987,"ded":6988,"Ġtex":6989,"Ġsuit":6990,"lection":6991,"Ġpointing":6992,"Ġsar":6993,"Ġdeeper":6994,"Ġcashed":6995,"Ġbip":6996,"han":6997,"Ġsafely":6998,"Ġfallen":6999,"Ġspare":7000,"Ġbegun":7001,"might":7002,"Ġsake":7003,"Ġcandid":7004,"through":7005,"ories":7006,"Ġswift":7007,"Ġdolar":7008,"Ġshout":7009,"press":7010,"Ġcarbon":7011,"fiat":7012,"Ġvall":7013,"Ġgn":7014,"Ġcripto":7015,"Ġacquire":7016,"month":7017,"Ġarchitect":7018,"data":7019,"Ġaccumulation":7020,"Ġring":7021,"things":7022,"Ġwoke":7023,"Ġcraze":7024,"Ġfather":7025,"Ġupset":7026,"Ġtf":7027,"Ġbtct":7028,"Ġsolves":7029,"nty":7030,"Ġange":7031,"Ġdelivery":7032,"sem":7033,"Ġcircum":7034,"bitmain":7035,"Ġdrives":7036,"bear":7037,"Ġsuffer":7038,"Ġhosting":7039,"Ġtopf":7040,"Ġrepresents":7041,"Ġbomb":7042,"Ġrival":7043,"iance":7044,"gent":7045,"smart":7046,"Ġpreserve":7047,"iq":7048,"ito":7049,"Ġtam":7050,"Ġpic":7051,"Ġnormally":7052,"Ġusb":7053,"Ġlargely":7054,"Ġmand":7055,"itties":7056,"Ġelectrum":7057,"Ġcake":7058,"Ġefficiency":7059,"Ġmodels":7060,"max":7061,"Ġcycles":7062,"Ġartificial":7063,"Ġovertake":7064,"Ġprison":7065,"Ġcompanys":7066,"Ġfro":7067,"enomen":7068,"Ġsubscribe":7069,"Ġcb":7070,"roll":7071,"ivetraders":7072,"Ġyen":7073,"Ġsuggestions":7074,"before":7075,"Ġtopfivetraders":7076,"Ġfold":7077,"year":7078,"ander":7079,"Ġcheers":7080,"Ġdecides":7081,"Ġgan":7082,"Ġghs":7083,"frame":7084,"Ġhub":7085,"Ġphi":7086,"jack":7087,"ourse":7088,"Ġsnapshot":7089,"Ġstruggle":7090,"Ġattempts":7091,"fast":7092,"satoshi":7093,"ques":7094,"Ġinval":7095,"azil":7096,"note":7097,"Ġcelebrate":7098,"getting":7099,"hand":7100,"ulent":7101,"Ġdod":7102,"Ġacad":7103,"Ġadam":7104,"Ġapplies":7105,"Ġforth":7106,"idel":7107,"Ġprograms":7108,"Ġeip":7109,"late":7110,"Ġripples":7111,"Ġwars":7112,"Ġpromotion":7113,"Ġthisp":7114,"Ġpitch":7115,"latest":7116,"ira":7117,"Ġstan":7118,"Ġvice":7119,"star":7120,"ference":7121,"Ġcompreh":7122,"Ġconfirmations":7123,"pc":7124,"Ġeating":7125,"Ġfeatured":7126,"Ġdetermined":7127,"Ġrebrand":7128,"Ġirr":7129,"Ġdiscount":7130,"hen":7131,"Ġpanel":7132,"Ġsentence":7133,"Ġbond":7134,"Ġalgorithms":7135,"enda":7136,"finance":7137,"Ġtalent":7138,"emic":7139,"Ġweed":7140,"Ġarguing":7141,"ura":7142,"Ġscene":7143,"Ġsometime":7144,"Ġexplos":7145,"Ġspell":7146,"Ġinvestigation":7147,"Ġmessages":7148,"Ġsignup":7149,"Ġpicks":7150,"Ġdivergence":7151,"Ġarbitrage":7152,"Ġconverting":7153,"Ġresource":7154,"Ġoverview":7155,"Ġappropri":7156,"Ġinformed":7157,"Ġcatalyst":7158,"Ġcoverage":7159,"Ġintroduction":7160,"Ġgateway":7161,"Ġfranc":7162,"Ġescrow":7163,"ashion":7164,"Ġpil":7165,"Ġaffili":7166,"Ġopposed":7167,"Ġapproaching":7168,"Ġversus":7169,"Ġrepu":7170,"Ġbitly":7171,"addy":7172,"Ġunstable":7173,"Ġmortgage":7174,"say":7175,"wan":7176,"Ġlaughing":7177,"Ġchecks":7178,"Ġsanctions":7179,"Ġregion":7180,"Ġcrying":7181,"Ġextent":7182,"andg":7183,"imbab":7184,"Ġinternal":7185,"million":7186,"encing":7187,"Ġthiscover":7188,"Ġdowns":7189,"Ġventures":7190,"ingly":7191,"Ġremitt":7192,"Ġsmash":7193,"Ġmichael":7194,"pan":7195,"Ġadministr":7196,"Ġpretend":7197,"Ġholy":7198,"Ġsigning":7199,"econom":7200,"uper":7201,"Ġanalyt":7202,"Ġko":7203,"global":7204,"Ġimprovement":7205,"Ġreserves":7206,"Ġwindow":7207,"bullish":7208,"Ġsr":7209,"Ġcharles":7210,"Ġrub":7211,"Ġmaterial":7212,"Ġbuysell":7213,"Ġcrucial":7214,"Ġentities":7215,"apans":7216,"Ġbreach":7217,"Ġflight":7218,"Ġresearching":7219,"Ġsolving":7220,"Ġdownward":7221,"kn":7222,"Ġtraction":7223,"Ġremote":7224,"god":7225,"vidia":7226,"advant":7227,"Ġrecovered":7228,"Ġpropaganda":7229,"Ġfulfill":7230,"clud":7231,"Ġfc":7232,"Ġog":7233,"uate":7234,"pump":7235,"Ġcongest":7236,"Ġsleeping":7237,"Ġcarefully":7238,"Ġchick":7239,"ortion":7240,"dc":7241,"Ġtrib":7242,"Ġcentury":7243,"boy":7244,"Ġusern":7245,"Ġbinary":7246,"Ġsoars":7247,"Ġfocusing":7248,"cha":7249,"Ġdeclining":7250,"tle":7251,"inflation":7252,"Ġimprovements":7253,"Ġextern":7254,"Ġethusd":7255,"Ġmines":7256,"etimes":7257,"almost":7258,"Ġfluctuations":7259,"Ġcolor":7260,"Ġchosen":7261,"doesnt":7262,"Ġculture":7263,"nam":7264,"Ġemails":7265,"Ġbchusd":7266,"Ġdelayed":7267,"ita":7268,"Ġfung":7269,"Ġsnl":7270,"Ġmacro":7271,"Ġcloses":7272,"Ġhashing":7273,"Ġaudience":7274,"Ġsovere":7275,"Ġupload":7276,"Ġmisunder":7277,"Ġmount":7278,"Ġtraining":7279,"lessly":7280,"Ġmn":7281,"Ġcooper":7282,"Ġwhoever":7283,"Ġren":7284,"Ġsenate":7285,"Ġphones":7286,"Ġlibertar":7287,"Ġcontinuing":7288,"Ġcovered":7289,"Ġcovid":7290,"ko":7291,"orpor":7292,"vable":7293,"mal":7294,"Ġthisplay":7295,"Ġgerman":7296,"Ġplunge":7297,"Ġtuned":7298,"Ġgenuinely":7299,"Ġvac":7300,"wo":7301,"major":7302,"Ġminimal":7303,"erences":7304,"Ġax":7305,"Ġlearnearn":7306,"digital":7307,"zero":7308,"Ġoutput":7309,"Ġbeer":7310,"moons":7311,"Ġtrial":7312,"Ġyk":7313,"Ġloved":7314,"Ġuniversal":7315,"tim":7316,"Ġrolling":7317,"network":7318,"Ġmodified":7319,"Ġsubsid":7320,"Ġspikes":7321,"Ġabsur":7322,"Ġriding":7323,"Ġdirty":7324,"Ġconsult":7325,"Ġholiday":7326,"Ġcell":7327,"Ġencryption":7328,"Ġprl":7329,"Ġencrypted":7330,"Ġannouncements":7331,"unless":7332,"Ġcompatible":7333,"Ġshortly":7334,"Ġsummary":7335,"Ġexposed":7336,"ham":7337,"Ġenj":7338,"Ġhacks":7339,"hole":7340,"Ġovercome":7341,"oked":7342,"Ġpace":7343,"idents":7344,"Ġbeliever":7345,"Ġspeculators":7346,"Ġandreas":7347,"inent":7348,"Ġfaucets":7349,"Ġaustralian":7350,"dfund":7351,"Ġbarrier":7352,"Ġsmell":7353,"Ġswitzerland":7354,"Ġlad":7355,"Ġcaut":7356,"Ġpassion":7357,"Ġisland":7358,"Ġmm":7359,"Ġoracle":7360,"Ġfundamentally":7361,"Ġmanufacture":7362,"Ġadm":7363,"Ġissuance":7364,"Ġsamsung":7365,"Ġcriptomonedas":7366,"opular":7367,"Ġlunch":7368,"priv":7369,"Ġpricing":7370,"Ġweakness":7371,"Ġmalicious":7372,"Ġaz":7373,"Ġphenomen":7374,"losoph":7375,"idelity":7376,"Ġretracement":7377,"Ġinitiative":7378,"Ġtsh":7379,"js":7380,"Ġparity":7381,"Ġemotions":7382,"bad":7383,"Ġka":7384,"erman":7385,"unfortunately":7386,"Ġloyal":7387,"Ġmetal":7388,"Ġovervalued":7389,"vrit":7390,"firmed":7391,"Ġheat":7392,"Ġconservative":7393,"Ġresponsibility":7394,"Ġsurr":7395,"Ġformed":7396,"Ġpag":7397,"absolutely":7398,"dm":7399,"Ġsharp":7400,"Ġbeneficial":7401,"plus":7402,"Ġpieces":7403,"enced":7404,"Ġsem":7405,"Ġsuggesting":7406,"ogy":7407,"Ġourselves":7408,"Ġtwins":7409,"Ġwang":7410,"send":7411,"Ġsolidity":7412,"trib":7413,"Ġdependent":7414,"Ġabsurd":7415,"Ġcompetitive":7416,"being":7417,"Ġhmm":7418,"Ġrefund":7419,"Ġnoise":7420,"Ġsends":7421,"Ġmonopoly":7422,"etc":7423,"Ġyearly":7424,"Ġentrepreneur":7425,"iforn":7426,"pread":7427,"Ġdipped":7428,"vide":7429,"oro":7430,"Ġorganizations":7431,"hahaha":7432,"Ġmacd":7433,"fed":7434,"Ġtypically":7435,"Ġrigs":7436,"Ġsufficient":7437,"Ġincorrect":7438,"Ġrevol":7439,"igence":7440,"Ġtermin":7441,"Ġcommerce":7442,"Ġclown":7443,"Ġteen":7444,"ological":7445,"Ġeducated":7446,"something":7447,"Ġseeks":7448,"Ġunve":7449,"didnt":7450,"Ġglobe":7451,"wc":7452,"Ġodd":7453,"Ġlegally":7454,"Ġthiscussions":7455,"dear":7456,"Ġangry":7457,"Ġgent":7458,"Ġdifferences":7459,"Ġwasting":7460,"Ġfortun":7461,"Ġbell":7462,"Ġzoom":7463,"Ġcalculate":7464,"Ġflying":7465,"Ġbreakdown":7466,"Ġimplementing":7467,"Ġbio":7468,"Ġseven":7469,"Ġvulnerable":7470,"Ġrestaur":7471,"Ġkim":7472,"di":7473,"stay":7474,"Ġnumerous":7475,"Ġnuc":7476,"Ġgirls":7477,"Ġsmarter":7478,"Ġfunctional":7479,"Ġconfusion":7480,"Ġapy":7481,"Ġcontrolling":7482,"Ġborder":7483,"Ġimmediate":7484,"Ġregularly":7485,"congratulations":7486,"seriously":7487,"Ġofficials":7488,"Ġransomware":7489,"Ġpreparing":7490,"Ġsea":7491,"Ġshr":7492,"Ġflipp":7493,"Ġgel":7494,"amazing":7495,"Ġcorruption":7496,"Ġstagn":7497,"Ġdemo":7498,"Ġwhe":7499,"Ġhorse":7500,"eos":7501,"Ġtulip":7502,"Ġaggress":7503,"Ġpatterns":7504,"Ġguard":7505,"lad":7506,"Ġabs":7507,"icted":7508,"Ġreduction":7509,"cool":7510,"Ġmais":7511,"ena":7512,"Ġenorm":7513,"giving":7514,"Ġphilosoph":7515,"Ġwarned":7516,"Ġfavourite":7517,"andquot":7518,"Ġpersons":7519,"Ġrepublic":7520,"edly":7521,"Ġheadlines":7522,"Ġscarce":7523,"wtf":7524,"iler":7525,"Ġdetailed":7526,"Ġmainten":7527,"Ġhero":7528,"Ġstead":7529,"Ġmetaverse":7530,"Ġrecognized":7531,"idential":7532,"mony":7533,"Ġstance":7534,"Ġspan":7535,"chart":7536,"Ġtaxable":7537,"Ġrefuse":7538,"Ġki":7539,"Ġnovogratz":7540,"goldman":7541,"hit":7542,"Ġexperi":7543,"Ġexisted":7544,"onsored":7545,"nano":7546,"Ġrain":7547,"Ġsilk":7548,"opack":7549,"gar":7550,"ku":7551,"Ġlite":7552,"Ġroller":7553,"Ġapproximately":7554,"Ġpand":7555,"graphic":7556,"tokens":7557,"Ġstating":7558,"zing":7559,"emopack":7560,"Ġpetro":7561,"erated":7562,"Ġitem":7563,"Ġflaws":7564,"Ġmastercard":7565,"Ġimproving":7566,"emoteemopack":7567,"Ġmanagers":7568,"Ġnicely":7569,"rael":7570,"ipto":7571,"Ġspecially":7572,"Ġphilippines":7573,"Ġfashion":7574,"except":7575,"Ġgover":7576,"Ġintermedi":7577,"Ġcustod":7578,"Ġhood":7579,"employ":7580,"Ġscan":7581,"pace":7582,"Ġenh":7583,"Ġjames":7584,"Ġliquidated":7585,"room":7586,"Ġtests":7587,"Ġpleas":7588,"axy":7589,"Ġdoges":7590,"Ġlumens":7591,"Ġmail":7592,"Ġunits":7593,"Ġunlock":7594,"Ġrede":7595,"Ġinteroper":7596,"imbabwe":7597,"Ġsadly":7598,"Ġinvalid":7599,"iones":7600,"har":7601,"Ġexternal":7602,"Ġcryptow":7603,"mean":7604,"gency":7605,"Ġimmin":7606,"Ġfeat":7607,"Ġretarded":7608,"Ġng":7609,"wer":7610,"Ġvr":7611,"Ġcommodities":7612,"Ġplaced":7613,"ados":7614,"redit":7615,"Ġbadly":7616,"mem":7617,"cointelegraph":7618,"build":7619,"Ġwides":7620,"Ġqtum":7621,"Ġvalidators":7622,"Ġstages":7623,"omics":7624,"uel":7625,"Ġeverytime":7626,"Ġwashing":7627,"Ġsant":7628,"waiting":7629,"Ġinflationary":7630,"making":7631,"istically":7632,"gory":7633,"lightning":7634,"Ġkaz":7635,"Ġfootball":7636,"Ġdelus":7637,"dated":7638,"Ġdoub":7639,"Ġcriticism":7640,"Ġtens":7641,"pres":7642,"second":7643,"Ġforking":7644,"Ġscare":7645,"rum":7646,"dog":7647,"Ġricher":7648,"Ġmental":7649,"Ġswitching":7650,"Ġunreal":7651,"chat":7652,"flix":7653,"Ġpriority":7654,"Ġspark":7655,"Ġbek":7656,"Ġniche":7657,"Ġslide":7658,"lor":7659,"Ġyrs":7660,"Ġforums":7661,"funny":7662,"Ġtempt":7663,"Ġvehicle":7664,"Ġtrail":7665,"Ġcondition":7666,"Ġshirt":7667,"ilst":7668,"Ġjeff":7669,"Ġluna":7670,"Ġquadr":7671,"hist":7672,"Ġdistrib":7673,"eng":7674,"Ġmultis":7675,"Ġdlvrit":7676,"Ġaiming":7677,"Ġmedical":7678,"Ġsettled":7679,"Ġshops":7680,"dan":7681,"twitter":7682,"Ġprecise":7683,"Ġbacks":7684,"Ġmeasures":7685,"Ġplain":7686,"inos":7687,"Ġoccas":7688,"idth":7689,"Ġtrolling":7690,"Ġdipping":7691,"Ġreminds":7692,"Ġtypical":7693,"lete":7694,"Ġbitc":7695,"Ġnex":7696,"Ġeditorial":7697,"Ġemotional":7698,"Ġyahoo":7699,"Ġusername":7700,"Ġdeleg":7701,"Ġattitude":7702,"Ġcrowdfund":7703,"Ġthisappointed":7704,"Ġvalley":7705,"Ġhorrible":7706,"years":7707,"Ġconsistent":7708,"Ġintelligent":7709,"Ġwidespread":7710,"Ġagenda":7711,"Ġessential":7712,"Ġtasks":7713,"Ġcombination":7714,"Ġanswered":7715,"illa":7716,"bears":7717,"Ġamd":7718,"Ġpapers":7719,"dy":7720,"Ġscroll":7721,"Ġreviews":7722,"weve":7723,"ctors":7724,"ifications":7725,"Ġsolely":7726,"Ġunderest":7727,"Ġassess":7728,"Ġbow":7729,"Ġunf":7730,"hor":7731,"aven":7732,"Ġteth":7733,"hhhh":7734,"Ġimho":7735,"stake":7736,"Ġticker":7737,"ef":7738,"aya":7739,"uled":7740,"Ġkad":7741,"Ġish":7742,"Ġeuros":7743,"Ġanalogy":7744,"Ġmixed":7745,"Ġsacr":7746,"their":7747,"Ġordinary":7748,"Ġmisinform":7749,"Ġbroadcast":7750,"Ġspring":7751,"Ġproved":7752,"Ġmes":7753,"Ġconversion":7754,"Ġignorance":7755,"etherwallet":7756,"Ġjustin":7757,"Ġhuobi":7758,"Ġprotected":7759,"Ġclimbing":7760,"depends":7761,"Ġenforcement":7762,"Ġcodes":7763,"show":7764,"Ġcompliance":7765,"Ġnash":7766,"launch":7767,"Ġdoubles":7768,"Ġreleasing":7769,"Ġestimate":7770,"bits":7771,"Ġestimated":7772,"Ġrecorded":7773,"value":7774,"Ġstanding":7775,"Ġlucr":7776,"Ġupgrades":7777,"report":7778,"sth":7779,"idk":7780,"anos":7781,"eden":7782,"Ġstrives":7783,"Ġartist":7784,"ria":7785,"Ġlinux":7786,"Ġrecession":7787,"Ġenjoying":7788,"quote":7789,"Ġrend":7790,"urch":7791,"Ġaccounting":7792,"Ġexploit":7793,"find":7794,"Ġdia":7795,"soon":7796,"Ġpill":7797,"Ġspr":7798,"Ġimplications":7799,"Ġimminent":7800,"equ":7801,"Ġiftt":7802,"Ġkin":7803,"Ġsnow":7804,"Ġidentify":7805,"andgtandgt":7806,"gm":7807,"Ġevening":7808,"Ġsuggestion":7809,"sk":7810,"Ġonboard":7811,"Ġsig":7812,"Ġcreative":7813,"Ġtrolls":7814,"Ġmetals":7815,"Ġbutt":7816,"vn":7817,"eurs":7818,"Ġstash":7819,"Ġdocuments":7820,"Ġrecru":7821,"bab":7822,"Ġreck":7823,"Ġprimarily":7824,"taking":7825,"Ġmanaging":7826,"Ġbasket":7827,"Ġesp":7828,"Ġawhile":7829,"basically":7830,"Ġhij":7831,"Ġcrowdsale":7832,"Ġtexas":7833,"Ġhurts":7834,"Ġexpansion":7835,"Ġft":7836,"Ġdecreasing":7837,"Ġtone":7838,"whel":7839,"Ġtact":7840,"Ġproduced":7841,"Ġfutur":7842,"Ġowe":7843,"Ġintroducing":7844,"luck":7845,"rx":7846,"Ġattempting":7847,"Ġrecovering":7848,"Ġsandp":7849,"Ġfraudulent":7850,"john":7851,"Ġroute":7852,"Ġgradually":7853,"ounce":7854,"trump":7855,"Ġek":7856,"Ġped":7857,"asma":7858,"segwit":7859,"ante":7860,"Ġvon":7861,"Ġroot":7862,"Ġblast":7863,"Ġchunk":7864,"Ġmanipulating":7865,"Ġapprove":7866,"Ġfiled":7867,"Ġhesit":7868,"Ġworthy":7869,"Ġexcess":7870,"fly":7871,"pto":7872,"lots":7873,"Ġlatter":7874,"Ġunregulated":7875,"Ġexperiencing":7876,"owing":7877,"Ġantonop":7878,"Ġquotes":7879,"Ġkidding":7880,"Ġbul":7881,"Ġaggreg":7882,"Ġbread":7883,"Ġdelive":7884,"ista":7885,"Ġdefe":7886,"Ġhind":7887,"Ġignoring":7888,"eshift":7889,"Ġsitu":7890,"vp":7891,"Ġdos":7892,"icago":7893,"ti":7894,"Ġafrican":7895,"bil":7896,"Ġtrem":7897,"Ġexpanding":7898,"Ġweap":7899,"Ġactors":7900,"Ġfarms":7901,"Ġprobability":7902,"Ġsmartphone":7903,"Ġsubstantial":7904,"Ġmaintenance":7905,"Ġmindset":7906,"Ġthisadvant":7907,"Ġmentions":7908,"pat":7909,"kex":7910,"Ġprofession":7911,"bor":7912,"Ġolm":7913,"Ġdefined":7914,"Ġunpredict":7915,"Ġwalls":7916,"Ġcoss":7917,"Ġhint":7918,"Ġbalances":7919,"Ġpredicting":7920,"Ġclimate":7921,"Ġspirit":7922,"Ġdesperate":7923,"Ġwil":7924,"Ġexchanged":7925,"ration":7926,"Ġappropriate":7927,"techn":7928,"aust":7929,"Ġspeaks":7930,"itution":7931,"Ġlogin":7932,"Ġradio":7933,"Ġfacilitate":7934,"Ġqui":7935,"Ġranking":7936,"Ġdelivered":7937,"Ġhighlights":7938,"tether":7939,"Ġstats":7940,"ape":7941,"Ġlists":7942,"Ġtargeting":7943,"indeed":7944,"Ġunemploy":7945,"Ġnerv":7946,"ulse":7947,"Ġblah":7948,"Ġengineering":7949,"Ġattached":7950,"sn":7951,"Ġexpenses":7952,"Ġradar":7953,"trust":7954,"Ġpointless":7955,"Ġaddr":7956,"break":7957,"pable":7958,"Ġcontroversial":7959,"Ġwider":7960,"Ġenabled":7961,"Ġdear":7962,"Ġpassing":7963,"Ġnewly":7964,"Ġenormous":7965,"Ġlucrative":7966,"Ġalliance":7967,"Ġhopium":7968,"Ġcoding":7969,"Ġmentioning":7970,"onents":7971,"Ġattacked":7972,"Ġjournalistic":7973,"miners":7974,"Ġtrendline":7975,"Ġbranch":7976,"iber":7977,"glad":7978,"yall":7979,"Ġconcent":7980,"Ġguest":7981,"Ġdraper":7982,"Ġmilit":7983,"Ġhill":7984,"Ġuntr":7985,"Ġbang":7986,"Ġgraphics":7987,"Ġjun":7988,"Ġmooning":7989,"Ġmel":7990,"Ġdominant":7991,"Ġnoted":7992,"ati":7993,"Ġbyte":7994,"Ġdynamic":7995,"wish":7996,"zai":7997,"Ġcryptonews":7998,"Ġsearching":7999,"Ġlil":8000,"vet":8001,"Ġpegged":8002,"Ġgrid":8003,"Ġcaliforn":8004,"Ġbatch":8005,"Ġmaxis":8006,"nor":8007,"Ġschedule":8008,"having":8009,"Ġjustice":8010,"lose":8011,"Ġshad":8012,"count":8013,"until":8014,"Ġpresentation":8015,"Ġelection":8016,"Ġdeval":8017,"cek":8018,"Ġtimeline":8019,"feel":8020,"Ġitands":8021,"ona":8022,"Ġxt":8023,"ihan":8024,"Ġusable":8025,"Ġfle":8026,"Ġgath":8027,"Ġcryptopia":8028,"Ġcuban":8029,"ieve":8030,"Ġsidechains":8031,"ww":8032,"Ġsalty":8033,"help":8034,"Ġimportantly":8035,"Ġken":8036,"Ġequally":8037,"Ġfreaking":8038,"letter":8039,"Ġlands":8040,"Ġneigh":8041,"rup":8042,"Ġleague":8043,"Ġeh":8044,"Ġxbt":8045,"Ġthisaster":8046,"Ġrecognition":8047,"yet":8048,"Ġape":8049,"Ġruin":8050,"Ġpir":8051,"wei":8052,"profit":8053,"Ġetherdelta":8054,"Ġdelusional":8055,"Ġconstruct":8056,"cop":8057,"cam":8058,"Ġhistoric":8059,"Ġabides":8060,"Ġcompromised":8061,"Ġsync":8062,"Ġfascin":8063,"Ġfrance":8064,"mes":8065,"Ġconsistently":8066,"wond":8067,"ava":8068,"dits":8069,"Ġblockfolio":8070,"Ġdare":8071,"eres":8072,"Ġgut":8073,"Ġmature":8074,"Ġmetric":8075,"Ġstreets":8076,"Ġjur":8077,"Ġwangzai":8078,"cas":8079,"Ġdelays":8080,"Ġbtceth":8081,"Ġmerely":8082,"Ġignored":8083,"Ġhoney":8084,"Ġdefine":8085,"Ġweigh":8086,"Ġcounting":8087,"Ġexchanging":8088,"Ġhuh":8089,"Ġrumor":8090,"iniz":8091,"Ġdownvote":8092,"Ġmempool":8093,"lle":8094,"avin":8095,"Ġcree":8096,"Ġaffects":8097,"guess":8098,"Ġdotcom":8099,"Ġdefense":8100,"Ġcompens":8101,"Ġsov":8102,"eren":8103,"weekly":8104,"Ġvolunt":8105,"Ġdn":8106,"erts":8107,"Ġbiased":8108,"isms":8109,"made":8110,"Ġpartnered":8111,"Ġexcuse":8112,"Ġtutorial":8113,"jan":8114,"Ġens":8115,"Ġbrazil":8116,"iro":8117,"Ġoffchain":8118,"Ġsuspicious":8119,"Ġbump":8120,"abled":8121,"Ġevolve":8122,"pm":8123,"Ġnvidia":8124,"Ġvariety":8125,"Ġpointed":8126,"Ġsoar":8127,"Ġvictims":8128,"Ġassumption":8129,"cust":8130,"Ġsf":8131,"Ġmerge":8132,"develop":8133,"Ġvegas":8134,"Ġscratch":8135,"Ġunre":8136,"Ġdriver":8137,"Ġscrewed":8138,"Ġoversold":8139,"Ġineff":8140,"Ġtweeting":8141,"secure":8142,"Ġcredibility":8143,"Ġnetflix":8144,"Ġfixes":8145,"Ġdeny":8146,"Ġprocesses":8147,"Ġhates":8148,"Ġcautious":8149,"Ġeliminate":8150,"Ġinvests":8151,"Ġcum":8152,"Ġry":8153,"Ġallegedly":8154,"Ġcorporation":8155,"Ġapproaches":8156,"comes":8157,"vc":8158,"Ġhorizon":8159,"ji":8160,"gox":8161,"Ġeoy":8162,"Ġshits":8163,"aint":8164,"Ġunderstands":8165,"strong":8166,"mined":8167,"Ġhandful":8168,"Ġtat":8169,"ighter":8170,"Ġanim":8171,"Ġanalytics":8172,"oulos":8173,"Ġblockdate":8174,"istan":8175,"Ġunus":8176,"sometimes":8177,"Ġcommitt":8178,"Ġrecovers":8179,"laim":8180,"altcoins":8181,"ags":8182,"Ġjpmorgan":8183,"Ġstayed":8184,"Ġui":8185,"Ġparall":8186,"Ġzimbabwe":8187,"orum":8188,"Ġsin":8189,"cedent":8190,"Ġvertcoin":8191,"Ġinstalled":8192,"wal":8193,"Ġhijack":8194,"rade":8195,"Ġwhilst":8196,"Ġuma":8197,"Ġsevere":8198,"Ġbeauty":8199,"Ġbye":8200,"central":8201,"Ġscenarios":8202,"Ġedit":8203,"Ġsignatures":8204,"Ġhypoth":8205,"Ġcute":8206,"Ġenvironmental":8207,"Ġassociation":8208,"Ġaccomplish":8209,"Ġnuclear":8210,"eps":8211,"viously":8212,"Ġexperiences":8213,"Ġthismiss":8214,"Ġsmh":8215,"Ġstarbucks":8216,"life":8217,"Ġpages":8218,"ulator":8219,"altcoin":8220,"Ġprinciples":8221,"Ġpowers":8222,"Ġproduc":8223,"Ġupper":8224,"Ġarrived":8225,"Ġphishing":8226,"Ġlm":8227,"Ġdelta":8228,"Ġrein":8229,"Ġpresented":8230,"Ġcoup":8231,"Ġgroc":8232,"Ġhin":8233,"quick":8234,"Ġpasswords":8235,"awn":8236,"Ġmyetherwallet":8237,"Ġtaxation":8238,"Ġmentality":8239,"acles":8240,"Ġconcepts":8241,"ceo":8242,"Ġtaught":8243,"Ġtremend":8244,"Ġpse":8245,"Ġfif":8246,"Ġmini":8247,"Ġlen":8248,"Ġcutting":8249,"dis":8250,"far":8251,"Ġlambos":8252,"Ġcast":8253,"Ġsteve":8254,"Ġsne":8255,"Ġethers":8256,"Ġelite":8257,"Ġincorpor":8258,"Ġdescribe":8259,"ror":8260,"Ġretailers":8261,"Ġgrew":8262,"Ġexcite":8263,"apor":8264,"Ġdorse":8265,"Ġindustr":8266,"Ġstabilize":8267,"zo":8268,"Ġmega":8269,"nabis":8270,"financ":8271,"Ġvalidate":8272,"Ġdogs":8273,"Ġdesire":8274,"Ġspeculate":8275,"artc":8276,"Ġluxury":8277,"Ġcheapest":8278,"Ġmall":8279,"Ġyoun":8280,"Ġcongratulations":8281,"Ġbeware":8282,"Ġrepresentative":8283,"Ġbrothers":8284,"Ġfacebooks":8285,"Ġauf":8286,"Ġdescription":8287,"ĠĠĠĠĠĠĠĊ":8288,"Ġcareer":8289,"pi":8290,"Ġlift":8291,"sle":8292,"Ġmart":8293,"jam":8294,"dump":8295,"perhaps":8296,"Ġvisual":8297,"nology":8298,"Ġvirus":8299,"ibyte":8300,"tml":8301,"Ġnic":8302,"Ġpublicity":8303,"Ġprinciple":8304,"stoppable":8305,"Ġsupreme":8306,"mail":8307,"Ġproposals":8308,"ymi":8309,"Ġstrongest":8310,"Ġshif":8311,"Ġserves":8312,"austral":8313,"front":8314,"Ġyr":8315,"Ġmeaningful":8316,"Ġattacking":8317,"alar":8318,"Ġrou":8319,"Ġambit":8320,"Ġimpressed":8321,"Ġshutdown":8322,"Ġhurd":8323,"dem":8324,"Ġthreats":8325,"Ġclone":8326,"Ġtemporarily":8327,"ceived":8328,"Ġboot":8329,"zj":8330,"Ġvpn":8331,"Ġyesterdays":8332,"bnb":8333,"Ġcs":8334,"outs":8335,"Ġpaycheck":8336,"Ġdemands":8337,"Ġreasoning":8338,"despite":8339,"Ġrepeated":8340,"Ġnaturally":8341,"Ġdebut":8342,"Ġinstructions":8343,"Ġminority":8344,"btw":8345,"Ġbounces":8346,"Ġprotest":8347,"Ġworrying":8348,"agger":8349,"Ġcryptok":8350,"sch":8351,"apo":8352,"igned":8353,"Ġinsights":8354,"click":8355,"Ġprocessor":8356,"Ġskin":8357,"Ġextended":8358,"aman":8359,"hol":8360,"Ġtimeframe":8361,"fixed":8362,"Ġpremine":8363,"Ġstacking":8364,"Ġleadership":8365,"Ġspoke":8366,"Ġpaste":8367,"Ġannivers":8368,"rel":8369,"video":8370,"abi":8371,"Ġlosers":8372,"Ġstation":8373,"Ġwol":8374,"licate":8375,"Ġshape":8376,"Ġwashington":8377,"kins":8378,"rics":8379,"Ġscore":8380,"Ġlessons":8381,"Ġsupporter":8382,"Ġlongest":8383,"aker":8384,"Ġobjective":8385,"question":8386,"Ġreplacing":8387,"utors":8388,"huge":8389,"Ġnick":8390,"Ġstone":8391,"print":8392,"ayscale":8393,"Ġdar":8394,"ache":8395,"cn":8396,"Ġcryptocur":8397,"Ġpac":8398,"Ġukraine":8399,"Ġunpredictable":8400,"Ġthiss":8401,"Ġrealtime":8402,"Ġrab":8403,"Ġfrench":8404,"Ġwaited":8405,"apple":8406,"Ġoperators":8407,"imp":8408,"una":8409,"gered":8410,"Ġpig":8411,"Ġdepth":8412,"Ġplant":8413,"ĠĠĠĠĠĠ":8414,"Ġcollecting":8415,"tal":8416,"Ġterritory":8417,"Ġdominate":8418,"hub":8419,"uls":8420,"sey":8421,"Ġnaive":8422,"accept":8423,"Ġemergency":8424,"Ġltd":8425,"Ġrobot":8426,"Ġwhatso":8427,"Ġoperator":8428,"Ġplunges":8429,"Ġrichest":8430,"Ġrelief":8431,"gust":8432,"isa":8433,"anyway":8434,"Ġoverwhel":8435,"Ġbtce":8436,"strat":8437,"Ġgmt":8438,"Ġgranted":8439,"thoughts":8440,"Ġnah":8441,"Ġaccidentally":8442,"Ġresearchers":8443,"Ġrestrictions":8444,"Ġslower":8445,"Ġmiami":8446,"Ġsmile":8447,"isd":8448,"eter":8449,"Ġloaded":8450,"dou":8451,"ez":8452,"Ġtrillions":8453,"Ġanniversary":8454,"Ġchanger":8455,"Ġlistened":8456,"Ġugly":8457,"game":8458,"Ġgods":8459,"actions":8460,"road":8461,"Ġcontain":8462,"Ġopensource":8463,"amente":8464,"Ġacceptable":8465,"rant":8466,"Ġsheet":8467,"Ġconsequences":8468,"research":8469,"Ġantonopoulos":8470,"Ġexecute":8471,"Ġmembership":8472,"Ġchicago":8473,"Ġwhatsapp":8474,"kle":8475,"Ġpanc":8476,"Ġdup":8477,"Ġhitbtc":8478,"Ġeconomies":8479,"Ġoptout":8480,"Ġintroduces":8481,"Ġhahaha":8482,"Ġlord":8483,"adig":8484,"Ġphotos":8485,"Ġsteadily":8486,"Ġrac":8487,"Ġsomeones":8488,"Ġflippening":8489,"Ġthankful":8490,"Ġheck":8491,"Ġrarely":8492,"Ġpayouts":8493,"Ġhall":8494,"Ġnicehash":8495,"Ġwhatsoever":8496,"Ġmoron":8497,"Ġbay":8498,"Ġbitcoinist":8499,"Ġdaha":8500,"investors":8501,"Ġtokenomics":8502,"Ġhosp":8503,"usdt":8504,"Ġnyt":8505,"Ġmex":8506,"irs":8507,"Ġlicens":8508,"Ġjustify":8509,"Ġrejection":8510,"each":8511,"Ġmoreover":8512,"Ġentrepreneurs":8513,"Ġartists":8514,"Ġminist":8515,"Ġamongst":8516,"Ġhello":8517,"Ġmillennials":8518,"Ġbritish":8519,"Ġscamming":8520,"Ġlegalize":8521,"Ġplasma":8522,"Ġcitizen":8523,"urt":8524,"Ġloving":8525,"Ġsuitable":8526,"andm":8527,"Ġreducing":8528,"fu":8529,"ula":8530,"Ġvalidation":8531,"Ġminted":8532,"edy":8533,"exp":8534,"Ġdaddy":8535,"Ġwash":8536,"Ġsenior":8537,"fx":8538,"Ġdice":8539,"Ġbrian":8540,"Ġpreferred":8541,"Ġpsu":8542,"Ġbankrupt":8543,"Ġstreaming":8544,"Ġaccused":8545,"Ġunstoppable":8546,"Ġcapabilities":8547,"Ġtree":8548,"Ġconvention":8549,"Ġproposition":8550,"Ġunexpect":8551,"Ġhealthcare":8552,"astically":8553,"Ġsketch":8554,"Ġtreated":8555,"necess":8556,"Ġlabel":8557,"install":8558,"Ġpractically":8559,"Ġcategory":8560,"Ġcryptographic":8561,"stal":8562,"Ġleveraged":8563,"cu":8564,"akers":8565,"Ġelabor":8566,"Ġnewsletter":8567,"oman":8568,"Ġchasing":8569,"Ġbleeding":8570,"Ġcancer":8571,"ailand":8572,"vision":8573,"Ġschiff":8574,"Ġsor":8575,"Ġutilize":8576,"Ġunconfirmed":8577,"cover":8578,"lu":8579,"Ġpissed":8580,"ithumb":8581,"trying":8582,"ech":8583,"Ġpivot":8584,"Ġtack":8585,"reshold":8586,"cean":8587,"Ġcredits":8588,"Ġworkers":8589,"Ġomise":8590,"Ġfrozen":8591,"plan":8592,"Ġbeats":8593,"Ġcalifornia":8594,"roger":8595,"Ġshapeshift":8596,"Ġattend":8597,"fy":8598,"Ġloom":8599,"alan":8600,"Ġron":8601,"rad":8602,"Ġgur":8603,"Ġflawed":8604,"Ġprofitability":8605,"correct":8606,"Ġcommitted":8607,"ensored":8608,"Ġproving":8609,"thinking":8610,"icos":8611,"Ġcryptocom":8612,"Ġargentina":8613,"Ġcancell":8614,"ateful":8615,"ermore":8616,"Ġvirtually":8617,"Ġtshirt":8618,"Ġseized":8619,"wel":8620,"Ġinfluencers":8621,"Ġmelt":8622,"Ġsubmitted":8623,"Ġgalaxy":8624,"mind":8625,"qq":8626,"Ġrallies":8627,"Ġmilitary":8628,"Ġinverse":8629,"Ġtipping":8630,"Ġphysically":8631,"Ġvital":8632,"asty":8633,"Ġobtain":8634,"vitalik":8635,"dao":8636,"Ġprecio":8637,"Ġmasternodes":8638,"orge":8639,"backs":8640,"Ġalg":8641,"issions":8642,"Ġreceives":8643,"Ġadvisors":8644,"Ġoblig":8645,"gre":8646,"Ġsoul":8647,"Ġlou":8648,"Ġgee":8649,"Ġstars":8650,"inct":8651,"Ġwasted":8652,"Ġdeposited":8653,"Ġpictures":8654,"Ġcircumst":8655,"Ġofc":8656,"Ġwy":8657,"Ġblocking":8658,"edas":8659,"early":8660,"Ġsituations":8661,"Ġpes":8662,"crash":8663,"Ġreturned":8664,"Ġtangle":8665,"meet":8666,"emed":8667,"Ġnue":8668,"financial":8669,"Ġsurging":8670,"Ġdiscord":8671,"Ġcorrections":8672,"Ġindones":8673,"Ġheadline":8674,"Ġham":8675,"Ġwis":8676,"leri":8677,"Ġspamming":8678,"Ġeen":8679,"share":8680,"Ġacts":8681,"Ġcommittee":8682,"Ġbriefly":8683,"cle":8684,"Ġscreenshot":8685,"amos":8686,"Ġratings":8687,"Ġnyc":8688,"Ġqanda":8689,"Ġrenewable":8690,"vm":8691,"ested":8692,"Ġeste":8693,"plat":8694,"Ġentertainment":8695,"Ġparticipation":8696,"Ġthreshold":8697,"Ġattrib":8698,"andforget":8699,"Ġinvention":8700,"Ġadvertisement":8701,"aki":8702,"moderated":8703,"Ġfrancisco":8704,"Ġhashpower":8705,"Ġdeclared":8706,"Ġsolo":8707,"Ġhouses":8708,"black":8709,"state":8710,"Ġlit":8711,"india":8712,"Ġbeach":8713,"Ġeths":8714,"ower":8715,"Ġthrew":8716,"Ġmultisig":8717,"ima":8718,"longshort":8719,"kin":8720,"Ġkicking":8721,"Ġinflated":8722,"Ġsetandforget":8723,"Ġshoulders":8724,"izz":8725,"yw":8726,"Ġss":8727,"Ġbitcoini":8728,"Ġstim":8729,"Ġformat":8730,"Ġcaution":8731,"Ġmonitoring":8732,"Ġclever":8733,"Ġexponentially":8734,"Ġorange":8735,"Ġrandomly":8736,"Ġdividend":8737,"Ġhiring":8738,"Ġcannabis":8739,"name":8740,"icht":8741,"Ġunnecess":8742,"Ġparadig":8743,"Ġinnovations":8744,"Ġbanker":8745,"Ġcosmos":8746,"senior":8747,"Ġrisen":8748,"must":8749,"social":8750,"Ġyang":8751,"bod":8752,"noon":8753,"liter":8754,"qui":8755,"Ġwear":8756,"Ġcontribution":8757,"Ġsmartc":8758,"Ġhomes":8759,"Ġnervous":8760,"lant":8761,"Ġdorsey":8762,"Ġindustrial":8763,"Ġamp":8764,"Ġchaos":8765,"Ġbold":8766,"Ġdragon":8767,"Ġreset":8768,"aday":8769,"Ġfeelings":8770,"Ġalgorand":8771,"Ġthrive":8772,"zens":8773,"Ġsuic":8774,"swap":8775,"Ġnewer":8776,"Ġecho":8777,"Ġals":8778,"Ġunmoderated":8779,"Ġdocumentary":8780,"logy":8781,"Ġaths":8782,"enter":8783,"Ġdinner":8784,"Ġbeast":8785,"Ġcrowdfunding":8786,"Ġcities":8787,"Ġsma":8788,"Ġpuzz":8789,"ucker":8790,"exist":8791,"Ġfoolish":8792,"gotta":8793,"Ġrobust":8794,"omi":8795,"Ġlawyer":8796,"Ġkadar":8797,"Ġmerit":8798,"Ġpopping":8799,"Ġcryptocoins":8800,"Ġwu":8801,"Ġnxt":8802,"loss":8803,"Ġira":8804,"phere":8805,"zt":8806,"Ġfidelity":8807,"Ġpennies":8808,"sea":8809,"iar":8810,"Ġhating":8811,"Ġtriggered":8812,"prot":8813,"fw":8814,"Ġmover":8815,"Ġalongside":8816,"Ġinstrument":8817,"Ġconvenience":8818,"Ġsurrounding":8819,"xlm":8820,"cnbc":8821,"fire":8822,"ras":8823,"youll":8824,"thermore":8825,"angers":8826,"Ġlibertarian":8827,"Ġtechnolog":8828,"Ġgifemoteemopack":8829,"Ġclock":8830,"obviously":8831,"Ġirrational":8832,"Ġprospects":8833,"Ġtrustworthy":8834,"Ġnovel":8835,"Ġwhom":8836,"Ġcontributing":8837,"Ġtrusting":8838,"nandt":8839,"Ġforgotten":8840,"Ġescape":8841,"Ġhung":8842,"Ġbored":8843,"anz":8844,"Ġindicates":8845,"spec":8846,"Ġstall":8847,"Ġyellow":8848,"Ġexponential":8849,"Ġgenerating":8850,"Ġversions":8851,"Ġswitched":8852,"yster":8853,"Ġenters":8854,"Ġfuckin":8855,"Ġbounced":8856,"Ġshocked":8857,"Ġky":8858,"ascript":8859,"Ġendless":8860,"whos":8861,"Ġpathetic":8862,"Ġstrategic":8863,"Ġjokes":8864,"Ġeco":8865,"watching":8866,"Ġslack":8867,"Ġcharging":8868,"Ġroundup":8869,"Ġcryptoass":8870,"Ġreinvest":8871,"band":8872,"Ġagencies":8873,"lc":8874,"Ġoptimism":8875,"Ġly":8876,"prod":8877,"Ġii":8878,"dollar":8879,"Ġmasternode":8880,"Ġmathemat":8881,"Ġspeculating":8882,"jk":8883,"Ġfreeze":8884,"aves":8885,"mass":8886,"Ġastr":8887,"Ġmeg":8888,"Ġinvolving":8889,"Ġcalculated":8890,"quare":8891,"Ġautomatic":8892,"du":8893,"Ġsate":8894,"zn":8895,"Ġcounts":8896,"Ġdrastically":8897,"Ġts":8898,"Ġdramatically":8899,"Ġmercado":8900,"Ġhospital":8901,"tub":8902,"Ġmakers":8903,"whatever":8904,"Ġsurpasses":8905,"Ġvoc":8906,"Ġbreakthrough":8907,"Ġkon":8908,"oooooooo":8909,"Ġmans":8910,"Ġchicken":8911,"Ġclim":8912,"americ":8913,"Ġlegislation":8914,"Ġshitposting":8915,"Ġcybersecurity":8916,"Ġtwist":8917,"Ġneck":8918,"Ġclarify":8919,"Ġrequests":8920,"Ġguid":8921,"remind":8922,"jx":8923,"todays":8924,"Ġmistaken":8925,"Ġdiligence":8926,"Ġdoors":8927,"onent":8928,"Ġexplorer":8929,"Ġconnections":8930,"Ġbelievers":8931,"Ġdlt":8932,"Ġpilot":8933,"Ġexcitement":8934,"Ġdealers":8935,"Ġthistribute":8936,"fao":8937,"icymi":8938,"cp":8939,"van":8940,"Ġouts":8941,"Ġanc":8942,"Ġuphold":8943,"Ġjihan":8944,"var":8945,"Ġloud":8946,"changes":8947,"Ġisrael":8948,"Ġcatching":8949,"Ġenabling":8950,"listen":8951,"ilty":8952,"Ġinterpret":8953,"Ġquicker":8954,"Ġcomprar":8955,"Ġindicate":8956,"Ġinterv":8957,"Ġjurisd":8958,"Ġja":8959,"Ġsheep":8960,"Ġmultiply":8961,"Ġcham":8962,"nas":8963,"Ġloading":8964,"hhh":8965,"Ġeve":8966,"Ġhotel":8967,"Ġrequirement":8968,"Ġsilicon":8969,"Ġimpression":8970,"Ġcrimes":8971,"oop":8972,"iate":8973,"Ġnewest":8974,"Ġscheduled":8975,"Ġalright":8976,"Ġcontinuously":8977,"Ġloads":8978,"Ġwrap":8979,"exper":8980,"onymous":8981,"Ġni":8982,"umber":8983,"aching":8984,"Ġvacc":8985,"bitt":8986,"Ġmanually":8987,"Ġmln":8988,"Ġmyth":8989,"bye":8990,"Ġentr":8991,"Ġswear":8992,"Ġannouncing":8993,"Ġrealizing":8994,"ea":8995,"Ġoccurred":8996,"Ġdigits":8997,"Ġdonald":8998,"Ġacquis":8999,"cre":9000,"otic":9001,"Ġfinances":9002,"wk":9003,"Ġbooming":9004,"Ġfewer":9005,"Ġseat":9006,"eri":9007,"reddits":9008,"Ġwick":9009,"Ġsoph":9010,"Ġguns":9011,"Ġdifferently":9012,"Ġexploring":9013,"regard":9014,"Ġcandidate":9015,"eu":9016,"intr":9017,"Ġsorts":9018,"either":9019,"igible":9020,"Ġfinger":9021,"Ġga":9022,"already":9023,"Ġprocessed":9024,"stein":9025,"cme":9026,"Ġtransport":9027,"Ġfab":9028,"Ġkk":9029,"bul":9030,"recent":9031,"Ġsou":9032,"Ġbtctn":9033,"Ġcz":9034,"Ġhamm":9035,"Ġwhitelist":9036,"Ġgibi":9037,"Ġportfol":9038,"Ġrow":9039,"exc":9040,"robinhood":9041,"phones":9042,"Ġevm":9043,"Ġobserv":9044,"Ġsecuring":9045,"Ġgear":9046,"lib":9047,"Ġcovering":9048,"Ġanarch":9049,"Ġgavin":9050,"Ġkal":9051,"Ġadvocate":9052,"Ġtargeted":9053,"Ġpushes":9054,"Ġiq":9055,"Ġbast":9056,"literally":9057,"Ġtoler":9058,"Ġfounded":9059,"Ġmoments":9060,"jr":9061,"Ġavg":9062,"Ġlabor":9063,"Ġdozens":9064,"Ġabuse":9065,"Ġusecase":9066,"aneously":9067,"Ġshel":9068,"Ġpermanent":9069,"Ġyok":9070,"isse":9071,"Ġprominent":9072,"online":9073,"Ġlocalbitcoins":9074,"much":9075,"Ġparallel":9076,"Ġsist":9077,"resist":9078,"Ġcoincidence":9079,"dn":9080,"Ġpredictable":9081,"super":9082,"Ġdiversified":9083,"Ġdownvotes":9084,"Ġengland":9085,"Ġhosted":9086,"Ġsurpassed":9087,"aways":9088,"Ġmtgox":9089,"Ġbeating":9090,"Ġcad":9091,"Ġexception":9092,"Ġzu":9093,"without":9094,"oric":9095,"Ġtethers":9096,"Ġbrokerage":9097,"Ġlimitations":9098,"Ġzec":9099,"Ġunclear":9100,"Ġvulnerability":9101,"rog":9102,"Ġgrateful":9103,"Ġrelation":9104,"Ġcompound":9105,"page":9106,"meanwhile":9107,"Ġintend":9108,"Ġparam":9109,"Ġtanks":9110,"Ġregulating":9111,"Ġsupposedly":9112,"Ġfeet":9113,"Ġprotecting":9114,"alous":9115,"Ġextend":9116,"lla":9117,"Ġethbtc":9118,"sis":9119,"instead":9120,"Ġvip":9121,"Ġissuing":9122,"ener":9123,"rock":9124,"Ġforcing":9125,"Ġhet":9126,"Ġremoving":9127,"Ġcbd":9128,"Ġbandwidth":9129,"Ġoutdated":9130,"Ġputin":9131,"Ġtier":9132,"Ġbrokers":9133,"Ġmcap":9134,"Ġcook":9135,"cor":9136,"Ġhiding":9137,"stocks":9138,"yat":9139,"Ġdubai":9140,"matic":9141,"coindesk":9142,"called":9143,"zel":9144,"Ġfancy":9145,"Ġpupp":9146,"Ġcrypton":9147,"Ġprofessionals":9148,"Ġreplies":9149,"Ġkoreas":9150,"Ġcryptotab":9151,"Ġsatell":9152,"classic":9153,"Ġveter":9154,"Ġprosper":9155,"irts":9156,"support":9157,"elect":9158,"Ġfingers":9159,"pher":9160,"Ġstatistics":9161,"Ġanalyze":9162,"Ġpoison":9163,"Ġstudying":9164,"ille":9165,"erson":9166,"Ġdates":9167,"Ġconvinc":9168,"mente":9169,"dk":9170,"Ġordered":9171,"Ġnig":9172,"Ġages":9173,"wind":9174,"Ġoccurs":9175,"Ġwaking":9176,"yester":9177,"Ġdescending":9178,"Ġkripto":9179,"Ġchop":9180,"ghold":9181,"Ġwalmart":9182,"Ġey":9183,"ran":9184,"Ġbabies":9185,"verty":9186,"ray":9187,"ivo":9188,"Ġpractices":9189,"Ġmetrics":9190,"fb":9191,"arrass":9192,"omod":9193,"Ġofficer":9194,"Ġacquired":9195,"Ġsearches":9196,"Ġgiants":9197,"icles":9198,"Ġsurged":9199,"Ġcomparable":9200,"Ġdelist":9201,"sad":9202,"Ġpresents":9203,"erning":9204,"Ġlegitimacy":9205,"Ġnightm":9206,"Ġremittance":9207,"former":9208,"Ġfascinating":9209,"Ġquantity":9210,"Ġinspired":9211,"Ġovert":9212,"Ġawful":9213,"Ġbitcoinagile":9214,"Ġconsideration":9215,"Ġparadigm":9216,"Ġyoutub":9217,"Ġcongestion":9218,"Ġstrike":9219,"powered":9220,"crimin":9221,"Ġdoubts":9222,"xit":9223,"Ġtune":9224,"Ġpockets":9225,"Ġtrumps":9226,"educ":9227,"lling":9228,"Ġsubreddits":9229,"Ġsli":9230,"Ġlawmak":9231,"phas":9232,"Ġconflict":9233,"Ġfantasy":9234,"dot":9235,"Ġblowing":9236,"Ġjoking":9237,"vv":9238,"Ġinformative":9239,"Ġapples":9240,"Ġht":9241,"blog":9242,"eds":9243,"Ġtokenized":9244,"Ġaml":9245,"Ġneeding":9246,"losure":9247,"futures":9248,"Ġnigeria":9249,"Ġwithdrawing":9250,"Ġandquot":9251,"Ġgrasp":9252,"Ġdigibyte":9253,"igate":9254,"Ġdemocracy":9255,"sight":9256,"anything":9257,"Ġautonom":9258,"Ġpermissionless":9259,"Ġguidance":9260,"Ġfeas":9261,"Ġconsiders":9262,"Ġexecution":9263,"Ġclueless":9264,"ruptc":9265,"Ġrot":9266,"Ġenemy":9267,"Ġexpects":9268,"Ġhousing":9269,"easy":9270,"Ġconsolidating":9271,"Ġtanking":9272,"Ġlayers":9273,"Ġinevit":9274,"Ġmutual":9275,"amazon":9276,"sing":9277,"Ġgbp":9278,"oty":9279,"Ġjones":9280,"Ġfractional":9281,"Ġinteroperability":9282,"Ġpresence":9283,"Ġgolem":9284,"scam":9285,"Ġwhal":9286,"aza":9287,"Ġcapitalism":9288,"Ġtai":9289,"such":9290,"Ġpile":9291,"omas":9292,"Ġaveraging":9293,"Ġcasinos":9294,"Ġlanguages":9295,"Ġroof":9296,"Ġformation":9297,"non":9298,"russian":9299,"Ġhonor":9300,"Ġpromo":9301,"Ġgirlfriend":9302,"excellent":9303,"Ġyounger":9304,"Ġkit":9305,"Ġvot":9306,"Ġreligion":9307,"Ġthiscour":9308,"Ġwre":9309,"Ġpoised":9310,"Ġpioneer":9311,"Ġstanley":9312,"Ġmont":9313,"Ġinch":9314,"Ġutter":9315,"Ġintegrity":9316,"Ġmeantime":9317,"Ġbonuses":9318,"Ġevolving":9319,"berry":9320,"Ġexpands":9321,"Ġcommenting":9322,"Ġvalor":9323,"Ġhandling":9324,"Ġembarrass":9325,"Ġdestroying":9326,"Ġpoverty":9327,"Ġremark":9328,"Ġhybrid":9329,"Ġreplacement":9330,"Ġplz":9331,"Ġdrunk":9332,"alf":9333,"peter":9334,"Ġafternoon":9335,"eries":9336,"uous":9337,"Ġaid":9338,"Ġaffordable":9339,"Ġdans":9340,"eless":9341,"Ġtheoretically":9342,"Ġfck":9343,"igma":9344,"alright":9345,"rbitcoin":9346,"Ġfbi":9347,"Ġmonster":9348,"micr":9349,"Ġactivated":9350,"Ġadvent":9351,"kan":9352,"Ġjul":9353,"Ġspends":9354,"Ġshorted":9355,"Ġintellect":9356,"Ġclasses":9357,"Ġadress":9358,"Ġbouncing":9359,"Ġrecall":9360,"Ġledgers":9361,"Ġdutch":9362,"Ġhassle":9363,"azy":9364,"Ġcorrelated":9365,"Ġurl":9366,"bath":9367,"Ġgamers":9368,"Ġdeciding":9369,"Ġcontinuation":9370,"Ġich":9371,"Ġpops":9372,"mb":9373,"itation":9374,"apid":9375,"Ġunfair":9376,"Ġelaborate":9377,"acon":9378,"alds":9379,"Ġdry":9380,"aneck":9381,"Ġig":9382,"Ġresil":9383,"Ġencount":9384,"Ġteaching":9385,"andgtthe":9386,"Ġmarks":9387,"bakkt":9388,"Ġunnecessary":9389,"Ġdealer":9390,"Ġconcerning":9391,"onto":9392,"venezue":9393,"Ġconnecting":9394,"Ġscrut":9395,"Ġfrenzy":9396,"Ġdecentralisation":9397,"Ġupto":9398,"Ġrevolutionize":9399,"joy":9400,"Ġzen":9401,"Ġdeployed":9402,"clude":9403,"Ġhav":9404,"Ġthorough":9405,"Ġcontains":9406,"nz":9407,"Ġgovernor":9408,"omer":9409,"Ġdivide":9410,"Ġfamil":9411,"Ġappreciation":9412,"Ġbankruptc":9413,"Ġdgb":9414,"asion":9415,"Ġsovereign":9416,"gp":9417,"Ġsoaring":9418,"Ġportfolios":9419,"Ġlived":9420,"isi":9421,"Ġaggressive":9422,"Ġglass":9423,"Ġmhs":9424,"Ġmaintaining":9425,"Ġdivided":9426,"Ġwisely":9427,"Ġsel":9428,"Ġmeets":9429,"fees":9430,"chinas":9431,"Ġfyi":9432,"avor":9433,"Ġattacker":9434,"Ġintel":9435,"Ġhanging":9436,"Ġattracted":9437,"Ġnears":9438,"Ġfeeless":9439,"Ġjavascript":9440,"cko":9441,"apparently":9442,"tax":9443,"Ġvalidator":9444,"mw":9445,"Ġcontrary":9446,"dev":9447,"aj":9448,"Ġsiz":9449,"Ġfreely":9450,"Ġselected":9451,"oneum":9452,"Ġalb":9453,"Ġgrind":9454,"Ġfrequently":9455,"Ġdeclare":9456,"russia":9457,"Ġdraft":9458,"Ġbreath":9459,"fre":9460,"Ġoly":9461,"Ġthrown":9462,"itical":9463,"Ġtokensale":9464,"Ġfucks":9465,"platform":9466,"Ġtaste":9467,"opay":9468,"youve":9469,"Ġyuan":9470,"Ġsimult":9471,"auth":9472,"Ġwishes":9473,"Ġbom":9474,"Ġscreaming":9475,"Ġweather":9476,"Ġyolo":9477,"Ġforb":9478,"Ġprofessor":9479,"decentralized":9480,"Ġanx":9481,"wouldnt":9482,"Ġgenerations":9483,"Ġsuspended":9484,"Ġnm":9485,"boys":9486,"esto":9487,"Ġchris":9488,"Ġalto":9489,"Ġtout":9490,"Ġblindly":9491,"Ġshine":9492,"Ġbite":9493,"ibaba":9494,"Ġfundra":9495,"iendo":9496,"Ġbeginner":9497,"Ġmisinformation":9498,"yen":9499,"Ġsharply":9500,"Ġgather":9501,"ris":9502,"Ġimages":9503,"Ġmatt":9504,"Ġrefere":9505,"Ġarrive":9506,"Ġfiling":9507,"Ġclarity":9508,"Ġwalking":9509,"hat":9510,"contr":9511,"Ġobsess":9512,"aughter":9513,"Ġtangible":9514,"Ġprompt":9515,"Ġscrip":9516,"Ġexclusively":9517,"option":9518,"Ġhook":9519,"Ġlegalized":9520,"Ġfinancing":9521,"aling":9522,"Ġapolog":9523,"kl":9524,"esy":9525,"Ġemployee":9526,"dt":9527,"prices":9528,"mag":9529,"safe":9530,"Ġconvincing":9531,"orders":9532,"total":9533,"okens":9534,"Ġbroader":9535,"Ġlocated":9536,"wing":9537,"fing":9538,"Ġsuppress":9539,"Ġresolved":9540,"Ġrockets":9541,"Ġpackage":9542,"Ġheist":9543,"ipedia":9544,"Ġenjoyed":9545,"Ġtod":9546,"retch":9547,"Ġtumbl":9548,"Ġperception":9549,"Ġendorse":9550,"Ġhumble":9551,"Ġwage":9552,"Ġbitm":9553,"Ġanch":9554,"Ġhyperledger":9555,"Ġorganic":9556,"Ġarchitecture":9557,"makes":9558,"Ġdozen":9559,"Ġmood":9560,"eks":9561,"losed":9562,"ptions":9563,"flare":9564,"download":9565,"Ġstreng":9566,"ole":9567,"kore":9568,"Ġbum":9569,"Ġaddressed":9570,"Ġplot":9571,"Ġabandon":9572,"Ġbullet":9573,"Ġaccordingly":9574,"Ġbankruptcy":9575,"Ġjose":9576,"Ġmessaging":9577,"Ġflor":9578,"Ġolymp":9579,"emb":9580,"Ġcryptokitties":9581,"creat":9582,"vey":9583,"dat":9584,"analyst":9585,"Ġeggs":9586,"iments":9587,"Ġregrets":9588,"Ġbithumb":9589,"Ġaffiliate":9590,"Ġreputable":9591,"Ġcancel":9592,"nx":9593,"Ġcasper":9594,"Ġomisego":9595,"Ġpremined":9596,"Ġvin":9597,"Ġfeaturing":9598,"Ġutxo":9599,"Ġguides":9600,"Ġfourth":9601,"Ġinvolvement":9602,"Ġeducational":9603,"Ġdisrupt":9604,"endo":9605,"Ġik":9606,"Ġfx":9607,"Ġfox":9608,"Ġthailand":9609,"Ġblows":9610,"Ġwrapped":9611,"agr":9612,"Ġbashing":9613,"gain":9614,"whales":9615,"Ġbypass":9616,"Ġnut":9617,"Ġelement":9618,"Ġsmoke":9619,"Ġburns":9620,"Ġagent":9621,"Ġcryto":9622,"iller":9623,"Ġjunk":9624,"space":9625,"Ġcertific":9626,"Ġencouraging":9627,"Ġther":9628,"Ġhistorically":9629,"Ġvoor":9630,"conf":9631,"Ġambitious":9632,"Ġbitcoiner":9633,"Ġphilosophy":9634,"priced":9635,"Ġinvolves":9636,"biggest":9637,"Ġnyse":9638,"store":9639,"Ġcircumstances":9640,"Ġunexpected":9641,"Ġpretending":9642,"andgti":9643,"Ġconsume":9644,"cloud":9645,"ilarly":9646,"iden":9647,"Ġdild":9648,"Ġmcdon":9649,"chains":9650,"Ġluckily":9651,"japanese":9652,"Ġpsychological":9653,"Ġfad":9654,"orrent":9655,"Ġital":9656,"Ġcoz":9657,"Ġfilm":9658,"gonna":9659,"ston":9660,"Ġlength":9661,"Ġbiden":9662,"due":9663,"iva":9664,"Ġcoinb":9665,"Ġscales":9666,"Ġliquidate":9667,"hav":9668,"comput":9669,"Ġimplementations":9670,"Ġdownloaded":9671,"generate":9672,"banked":9673,"unks":9674,"Ġindias":9675,"Ġcapped":9676,"expl":9677,"Ġequities":9678,"soft":9679,"Ġmadness":9680,"Ġprecisely":9681,"Ġwiped":9682,"Ġadmitted":9683,"buysell":9684,"Ġgentle":9685,"Ġguilty":9686,"oints":9687,"Ġprogrammer":9688,"bitfinex":9689,"jesus":9690,"Ġflowing":9691,"Ġbehavi":9692,"fam":9693,"focus":9694,"function":9695,"iyas":9696,"Ġtokyo":9697,"athon":9698,"Ġhalt":9699,"Ġcomeback":9700,"Ġpsychology":9701,"Ġresponses":9702,"Ġpropose":9703,"Ġbelongs":9704,"Ġresearched":9705,"Ġshadow":9706,"Ġgambl":9707,"Ġthie":9708,"Ġenthusiast":9709,"Ġresulting":9710,"Ġdoomed":9711,"Ġemphas":9712,"Ġnoone":9713,"Ġdal":9714,"Ġproofofwork":9715,"Ġcab":9716,"Ġcomedy":9717,"Ġminded":9718,"paypal":9719,"Ġrecap":9720,"Ġocean":9721,"Ġave":9722,"Ġbob":9723,"Ġinfinity":9724,"Ġdunno":9725,"md":9726,"Ġperpet":9727,"mad":9728,"Ġbis":9729,"Ġdrivers":9730,"Ġdramatic":9731,"billionaire":9732,"Ġsz":9733,"Ġvisible":9734,"Ġbund":9735,"Ġpanicking":9736,"Ġrepost":9737,"Ġshooting":9738,"Ġpromoted":9739,"Ġfreel":9740,"Ġhust":9741,"apr":9742,"Ġdecentralize":9743,"Ġstamp":9744,"urning":9745,"Ġrestaurant":9746,"Ġrealworld":9747,"Ġtremendous":9748,"Ġthatll":9749,"Ġunbelie":9750,"quer":9751,"Ġconsolidate":9752,"Ġcommand":9753,"Ġformal":9754,"Ġslot":9755,"Ġamend":9756,"Ġbrag":9757,"Ġdonandt":9758,"ums":9759,"Ġsecurely":9760,"Ġpit":9761,"alts":9762,"Ġpreico":9763,"Ġargu":9764,"wonder":9765,"Ġtel":9766,"Ġsticking":9767,"Ġaswell":9768,"itarian":9769,"Ġcapitulation":9770,"Ġnail":9771,"Ġfits":9772,"Ġstrengthen":9773,"Ġoutright":9774,"Ġparticipated":9775,"comment":9776,"Ġconfisc":9777,"hedge":9778,"Ġascending":9779,"Ġscammy":9780,"Ġokex":9781,"aco":9782,"Ġslo":9783,"Ġschools":9784,"border":9785,"Ġoverse":9786,"Ġcopyright":9787,"aka":9788,"Ġnegat":9789,"cryptos":9790,"ashed":9791,"Ġdogecoins":9792,"Ġallocation":9793,"Ġfate":9794,"Ġrelay":9795,"Ġlawyers":9796,"Ġnightmare":9797,"level":9798,"Ġpap":9799,"Ġuncle":9800,"itz":9801,"illed":9802,"Ġfaced":9803,"Ġperiods":9804,"Ġministry":9805,"copy":9806,"Ġgere":9807,"Ġblank":9808,"xp":9809,"Ġfiyat":9810,"code":9811,"Ġbids":9812,"yd":9813,"Ġcourses":9814,"Ġskeptic":9815,"Ġstakes":9816,"Ġintraday":9817,"technology":9818,"Ġpoke":9819,"Ġthiscovery":9820,"Ġfunctioning":9821,"Ġphenomenon":9822,"Ġmanipul":9823,"Ġholidays":9824,"Ġlistings":9825,"Ġaugur":9826,"Ġpoorly":9827,"Ġpulls":9828,"Ġtends":9829,"lined":9830,"ola":9831,"Ġsits":9832,"Ġleap":9833,"Ġzeal":9834,"uster":9835,"acoin":9836,"Ġbtt":9837,"Ġreplay":9838,"fortunate":9839,"Ġquietly":9840,"hum":9841,"Ġcounc":9842,"Ġpomp":9843,"Ġbloody":9844,"yesterday":9845,"Ġthesis":9846,"Ġanon":9847,"spe":9848,"encia":9849,"ees":9850,"Ġtin":9851,"Ġarbitrary":9852,"Ġminus":9853,"Ġcollaboration":9854,"Ġseemingly":9855,"Ġcharacters":9856,"Ġao":9857,"Ġnope":9858,"Ġmagnitude":9859,"Ġsponsored":9860,"Ġversa":9861,"Ġexplicit":9862,"Ġsecondary":9863,"abtc":9864,"Ġinsanely":9865,"season":9866,"iti":9867,"Ġcriter":9868,"Ġcompromise":9869,"Ġaimed":9870,"hots":9871,"Ġrelies":9872,"Ġjoy":9873,"Ġditch":9874,"Ġdrawing":9875,"Ġrecruit":9876,"Ġlean":9877,"Ġassumed":9878,"Ġcryptocurrencys":9879,"Ġproph":9880,"Ġranked":9881,"Ġdonated":9882,"Ġsuffering":9883,"Ġgim":9884,"Ġeup":9885,"ema":9886,"Ġstruggles":9887,"Ġexpectation":9888,"Ġacquisition":9889,"craig":9890,"Ġresume":9891,"gf":9892,"Ġchap":9893,"Ġacknowledge":9894,"Ġlaughed":9895,"Ġaffecting":9896,"Ġelses":9897,"Ġdestr":9898,"Ġesta":9899,"pin":9900,"Ġmeaningless":9901,"Ġsuicide":9902,"Ġrepeating":9903,"reading":9904,"Ġrichard":9905,"Ġpreference":9906,"Ġlocations":9907,"Ġdecreases":9908,"ala":9909,"Ġfinite":9910,"Ġted":9911,"Ġoutr":9912,"Ġjealous":9913,"cious":9914,"Ġthreatened":9915,"Ġcorp":9916,"ml":9917,"Ġsums":9918,"papers":9919,"Ġpess":9920,"Ġyearold":9921,"Ġrecommendations":9922,"Ġfaz":9923,"Ġjimmy":9924,"ju":9925,"Ġdeclined":9926,"bill":9927,"iary":9928,"acks":9929,"indian":9930,"Ġsecretly":9931,"aaa":9932,"Ġdiscussion":9933,"Ġadult":9934,"introd":9935,"reth":9936,"Ġclimbs":9937,"Ġbure":9938,"Ġprobe":9939,"Ġsurface":9940,"kkkk":9941,"Ġcounterfe":9942,"vering":9943,"Ġanswering":9944,"sub":9945,"haust":9946,"Ġtriv":9947,"Ġsurvived":9948,"Ġvacation":9949,"Ġcoexist":9950,"Ġliteral":9951,"reasons":9952,"Ġvapor":9953,"Ġafterwards":9954,"Ġrp":9955,"Ġmoral":9956,"Ġbrands":9957,"Ġeight":9958,"Ġperformed":9959,"erent":9960,"Ġbloodbath":9961,"uro":9962,"given":9963,"Ġconsort":9964,"Ġruling":9965,"Ġpinned":9966,"Ġdeclines":9967,"Ġinherently":9968,"Ġalerts":9969,"eh":9970,"rec":9971,"cluded":9972,"Ġaus":9973,"indsight":9974,"Ġcoal":9975,"Ġjapans":9976,"bets":9977,"node":9978,"Ġpainful":9979,"lead":9980,"Ġcertainty":9981,"Ġjoint":9982,"Ġhired":9983,"Ġxx":9984,"Ġhardest":9985,"audi":9986,"Ġrewarding":9987,"Ġvill":9988,"forex":9989,"ected":9990,"ett":9991,"Ġillicit":9992,"everybody":9993,"Ġcollected":9994,"thon":9995,"Ġknowledgeable":9996,"Ġreads":9997,"Ġtransacting":9998,"Ġirony":9999,"Ġwearing":10000,"ontract":10001,"Ġsht":10002,"Ġloosing":10003,"Ġbros":10004,"Ġpatch":10005,"Ġharmony":10006,"Ġflags":10007,"Ġcsw":10008,"Ġhypocr":10009,"Ġprosec":10010,"Ġdudes":10011,"abs":10012,"yl":10013,"bridge":10014,"Ġstupidity":10015,"Ġsettings":10016,"Ġresolve":10017,"Ġcompliant":10018,"Ġtruck":10019,"Ġexpense":10020,"Ġsport":10021,"Ġassumptions":10022,"Ġgrav":10023,"Ġykse":10024,"Ġtouching":10025,"offs":10026,"Ġredeem":10027,"Ġoperates":10028,"cases":10029,"Ġsophistic":10030,"official":10031,"Ġbaghold":10032,"oge":10033,"Ġloyalty":10034,"Ġinevitably":10035,"Ġturing":10036,"Ġunic":10037,"Ġcollective":10038,"Ġstretch":10039,"Ġbrut":10040,"Ġclearing":10041,"Ġbench":10042,"Ġnin":10043,"Ġfest":10044,"Ġtoil":10045,"Ġont":10046,"Ġiceland":10047,"Ġviral":10048,"Ġfem":10049,"imble":10050,"Ġcontrad":10051,"inum":10052,"ql":10053,"Ġpound":10054,"Ġrelying":10055,"Ġengineers":10056,"Ġspreads":10057,"cd":10058,"Ġmalta":10059,"Ġentit":10060,"Ġpatents":10061,"Ġnh":10062,"Ġbars":10063,"Ġproced":10064,"Ġdeeply":10065,"ani":10066,"ingu":10067,"estic":10068,"Ġadditionally":10069,"Ġloser":10070,"cher":10071,"Ġrolled":10072,"isible":10073,"Ġpopped":10074,"ulus":10075,"abilir":10076,"Ġproductive":10077,"Ġdarknet":10078,"Ġsubsequ":10079,"iers":10080,"Ġgree":10081,"Ġthroughput":10082,"hackers":10083,"Ġthanksgiving":10084,"Ġexplosion":10085,"mek":10086,"Ġorganized":10087,"Ġtl":10088,"Ġwsj":10089,"Ġhd":10090,"Ġcharacteristics":10091,"Ġhypothet":10092,"iques":10093,"aik":10094,"lik":10095,"Ġgdp":10096,"yorum":10097,"Ġminting":10098,"Ġmotivation":10099,"Ġartificially":10100,"Ġhobby":10101,"Ġgrade":10102,"Ġintentions":10103,"Ġnos":10104,"Ġmant":10105,"orious":10106,"Ġanticipated":10107,"Ġforesee":10108,"Ġtheories":10109,"Ġwallstreet":10110,"icy":10111,"Ġcats":10112,"Ġinfluential":10113,"Ġunfortunate":10114,"Ġblat":10115,"Ġunveils":10116,"rench":10117,"account":10118,"Ġsimultaneously":10119,"Ġfooled":10120,"ais":10121,"users":10122,"Ġcontributions":10123,"Ġoverwhelming":10124,"istent":10125,"Ġintentionally":10126,"andre":10127,"sir":10128,"government":10129,"Ġethereumbased":10130,"Ġconfuse":10131,"Ġbtcnews":10132,"opol":10133,"Ġhottest":10134,"Ġdiversification":10135,"Ġexhaust":10136,"Ġcuts":10137,"risk":10138,"aving":10139,"Ġgeth":10140,"Ġcounterparty":10141,"Ġpostp":10142,"Ġemerge":10143,"Ġproducing":10144,"Ġsketchy":10145,"Ġcouncil":10146,"Ġcoordinator":10147,"pull":10148,"Ġinflux":10149,"Ġsubscribers":10150,"nh":10151,"zed":10152,"Ġbandwagon":10153,"Ġhopeful":10154,"bulls":10155,"ethis":10156,"bow":10157,"Ġsue":10158,"jar":10159,"otr":10160,"Ġfamilies":10161,"Ġthisruptive":10162,"took":10163,"Ġjar":10164,"Ġupgraded":10165,"Ġheights":10166,"Ġbbc":10167,"Ġcarn":10168,"Ġflair":10169,"Ġdinero":10170,"Ġfeds":10171,"Ġviet":10172,"Ġpier":10173,"Ġreaders":10174,"unc":10175,"Ġarguably":10176,"Ġpleased":10177,"Ġkh":10178,"essions":10179,"Ġgainers":10180,"Ġrobin":10181,"Ġindonesia":10182,"bat":10183,"acci":10184,"Ġreclaim":10185,"Ġcd":10186,"Ġetn":10187,"Ġlaund":10188,"ette":10189,"active":10190,"Ġsacrif":10191,"claimer":10192,"Ġresidents":10193,"Ġhomeless":10194,"Ġpunch":10195,"Ġnsa":10196,"Ġcheckout":10197,"flash":10198,"bittrex":10199,"Ġrental":10200,"Ġdenied":10201,"Ġposter":10202,"Ġlesser":10203,"Ġironic":10204,"Ġdiverse":10205,"Ġindependence":10206,"Ġgraf":10207,"eb":10208,"Ġanaliz":10209,"totally":10210,"popular":10211,"adas":10212,"Ġtracked":10213,"zk":10214,"Ġpuss":10215,"Ġturkey":10216,"complete":10217,"Ġconsortium":10218,"nk":10219,"mus":10220,"Ġenfor":10221,"webs":10222,"Ġcorrected":10223,"Ġwarm":10224,"Ġhyperinflation":10225,"Ġcrossborder":10226,"Ġmeasured":10227,"Ġbors":10228,"Ġdumbass":10229,"Ġclosest":10230,"Ġindirect":10231,"osh":10232,"Ġburnt":10233,"Ġguidelines":10234,"Ġbureau":10235,"Ġhf":10236,"usive":10237,"Ġmystery":10238,"Ġopenly":10239,"Ġagrees":10240,"Ġtulips":10241,"Ġclicking":10242,"Ġbnty":10243,"Ġimf":10244,"respons":10245,"sil":10246,"Ġeuphor":10247,"ollo":10248,"ika":10249,"capital":10250,"wy":10251,"Ġdor":10252,"Ġselection":10253,"Ġops":10254,"Ġcrystal":10255,"Ġfeasible":10256,"tl":10257,"Ġimplies":10258,"Ġwarnings":10259,"field":10260,"Ġcapability":10261,"Ġglitch":10262,"Ġsimilarly":10263,"Ġskilled":10264,"Ġdownturn":10265,"Ġunbanked":10266,"Ġdefending":10267,"Ġfacility":10268,"Ġwisdom":10269,"Ġconventional":10270,"Ġfer":10271,"Ġexecuted":10272,"Ġconsumes":10273,"chen":10274,"Ġdelivering":10275,"Ġlovers":10276,"Ġdav":10277,"Ġbothered":10278,"Ġscope":10279,"Ġfilter":10280,"Ġcto":10281,"Ġprince":10282,"Ġcapture":10283,"Ġthx":10284,"Ġdemanding":10285,"Ġmedic":10286,"Ġbowl":10287,"Ġceos":10288,"Ġcease":10289,"anger":10290,"none":10291,"Ġdeadline":10292,"Ġvoy":10293,"Ġcourtesy":10294,"Ġpremier":10295,"seeing":10296,"anybody":10297,"fyi":10298,"tag":10299,"Ġrevis":10300,"dro":10301,"Ġgems":10302,"Ġtea":10303,"Ġutilizing":10304,"enjoy":10305,"etoken":10306,"Ġhoard":10307,"Ġadvisory":10308,"Ġcorresp":10309,"Ġpseud":10310,"Ġiz":10311,"fj":10312,"Ġbuilds":10313,"fake":10314,"Ġrolls":10315,"antic":10316,"Ġcurios":10317,"Ġthislike":10318,"investment":10319,"Ġunderestimate":10320,"Ġbath":10321,"apper":10322,"Ġfungible":10323,"vechain":10324,"Ġmaxi":10325,"adel":10326,"Ġextensive":10327,"eros":10328,"Ġcollectible":10329,"Ġmarked":10330,"Ġfrustrating":10331,"Ġcheat":10332,"rete":10333,"Ġinvited":10334,"Ġinfer":10335,"akh":10336,"Ġcalculations":10337,"Ġmilk":10338,"mmm":10339,"aired":10340,"Ġgeld":10341,"Ġeconomists":10342,"etary":10343,"Ġgrayscale":10344,"Ġpleasure":10345,"ox":10346,"Ġflows":10347,"Ġmexico":10348,"ymarket":10349,"Ġhousehold":10350,"Ġhex":10351,"Ġrecommendation":10352,"Ġpink":10353,"Ġcypher":10354,"Ġsmartcontract":10355,"Ġpartially":10356,"Ġskyrocketing":10357,"Ġjon":10358,"Ġsexy":10359,"Ġcategor":10360,"qr":10361,"Ġcollapses":10362,"Ġtheme":10363,"Ġbitshares":10364,"Ġot":10365,"Ġsour":10366,"Ġbehalf":10367,"Ġkicked":10368,"Ġelons":10369,"ounced":10370,"Ġcostly":10371,"credit":10372,"Ġfluctuate":10373,"Ġwikipedia":10374,"stack":10375,"ingecko":10376,"Ġkeen":10377,"axx":10378,"north":10379,"Ġavoiding":10380,"Ġinception":10381,"Ġtracker":10382,"Ġharsh":10383,"largest":10384,"Ġcommunicate":10385,"Ġkelly":10386,"Ġhaul":10387,"Ġxrapid":10388,"Ġfarmers":10389,"Ġsep":10390,"ifiable":10391,"ĠĠĠĠĠĠĠ":10392,"Ġhs":10393,"icate":10394,"estyle":10395,"Ġrealistically":10396,"Ġfreak":10397,"vote":10398,"Ġasshole":10399,"Ġcriteria":10400,"Ġcountless":10401,"Ġavo":10402,"Ġdecreased":10403,"Ġexpressed":10404,"Ġiti":10405,"Ġhandled":10406,"Ġresort":10407,"import":10408,"Ġbottomed":10409,"Ġexchanger":10410,"Ġvary":10411,"orld":10412,"fp":10413,"Ġlandscape":10414,"Ġhair":10415,"lich":10416,"Ġsich":10417,"Ġpreventing":10418,"Ġbrexit":10419,"team":10420,"Ġinsan":10421,"Ġinvestigate":10422,"Ġrbi":10423,"arer":10424,"idering":10425,"uming":10426,"illance":10427,"riers":10428,"xrb":10429,"Ġconversations":10430,"Ġabandoned":10431,"Ġacknowled":10432,"Ġhanded":10433,"Ġstrictly":10434,"Ġpants":10435,"Ġdj":10436,"byte":10437,"Ġsubscription":10438,"Ġmaximize":10439,"Ġcleared":10440,"Ġcnn":10441,"Ġexerc":10442,"Ġcontrast":10443,"Ġengaged":10444,"Ġraw":10445,"Ġeager":10446,"Ġpeeps":10447,"fh":10448,"Ġalerttrade":10449,"Ġincident":10450,"Ġsinc":10451,"coaster":10452,"Ġguarantees":10453,"Ġghost":10454,"public":10455,"Ġalbum":10456,"Ġmorons":10457,"Ġhurting":10458,"Ġextraord":10459,"lr":10460,"Ġaccumulated":10461,"Ġimmutability":10462,"private":10463,"Ġdecou":10464,"Ġmiles":10465,"Ġpip":10466,"Ġspoken":10467,"ref":10468,"Ġfurthermore":10469,"Ġsister":10470,"Ġgenerous":10471,"bn":10472,"asi":10473,"Ġalibaba":10474,"olar":10475,"Ġenlight":10476,"Ġaave":10477,"Ġequals":10478,"zr":10479,"verted":10480,"enger":10481,"Ġinject":10482,"Ġvid":10483,"Ġcomprehensive":10484,"Ġsocalled":10485,"Ġhunters":10486,"Ġmaximalism":10487,"crunch":10488,"Ġautonomous":10489,"Ġinfographic":10490,"Ġshutting":10491,"register":10492,"yr":10493,"Ġremained":10494,"Ġpairing":10495,"Ġaccus":10496,"coll":10497,"Ġcancelled":10498,"Ġsubmission":10499,"Ġportal":10500,"Ġdoubling":10501,"Ġbackwards":10502,"ationally":10503,"Ġdlvritqd":10504,"Ġkeiser":10505,"Ġdigest":10506,"Ġairdropping":10507,"eared":10508,"Ġls":10509,"Ġtumbles":10510,"Ġreferred":10511,"Ġmicropay":10512,"graphy":10513,"Ġholl":10514,"Ġtumblr":10515,"ube":10516,"iw":10517,"volume":10518,"moving":10519,"Ġenterprises":10520,"shi":10521,"onacci":10522,"Ġmoonshot":10523,"Ġdenial":10524,"Ġwifi":10525,"Ġbah":10526,"Ġinterviews":10527,"Ġcapitalist":10528,"Ġbitcoinnews":10529,"uge":10530,"Ġnarrow":10531,"Ġwheel":10532,"Ġblown":10533,"Ġzucker":10534,"Ġscand":10535,"Ġcryptomarket":10536,"Ġcock":10537,"Ġpuzzle":10538,"Ġbtcp":10539,"Ġanimal":10540,"Ġkrypt":10541,"bir":10542,"zd":10543,"Ġgram":10544,"Ġflorida":10545,"een":10546,"Ġwary":10547,"Ġsectors":10548,"Ġvague":10549,"sthis":10550,"Ġproofofstake":10551,"Ġattor":10552,"math":10553,"mob":10554,"Ġpiyas":10555,"Ġsatisfied":10556,"Ġusability":10557,"Ġsettles":10558,"Ġdrawn":10559,"Ġrecip":10560,"Ġadjustment":10561,"Ġtheirs":10562,"Ġterrorist":10563,"Ġpunish":10564,"Ġxapo":10565,"analysis":10566,"Ġenhance":10567,"Ġmcdonalds":10568,"technical":10569,"Ġhindsight":10570,"Ġetherum":10571,"Ġbulk":10572,"iqa":10573,"Ġawards":10574,"Ġnine":10575,"Ġsponsor":10576,"Ġlovely":10577,"Ġrabbit":10578,"Ġconsulting":10579,"track":10580,"Ġrobert":10581,"Ġproposes":10582,"Ġprivile":10583,"jun":10584,"Ġrf":10585,"Ġidentified":10586,"Ġshell":10587,"Ġaudited":10588,"Ġapparent":10589,"utsche":10590,"Ġsophisticated":10591,"Ġdimin":10592,"Ġlear":10593,"itute":10594,"Ġgraphs":10595,"Ġsidelines":10596,"zm":10597,"oti":10598,"Ġwherever":10599,"Ġvp":10600,"Ġarab":10601,"Ġdpos":10602,"Ġwishing":10603,"Ġevident":10604,"mits":10605,"qs":10606,"Ġdevelops":10607,"Ġdesp":10608,"Ġmock":10609,"Ġoldest":10610,"Ġmundo":10611,"agers":10612,"ker":10613,"iked":10614,"Ġimmense":10615,"Ġfilling":10616,"Ġsphere":10617,"Ġcashapp":10618,"Ġpython":10619,"Ġcoing":10620,"Ġsmartest":10621,"Ġborders":10622,"Ġetern":10623,"Ġultra":10624,"Ġremotely":10625,"Ġtent":10626,"diff":10627,"emon":10628,"Ġddos":10629,"Ġallin":10630,"ibles":10631,"Ġkay":10632,"Ġseize":10633,"around":10634,"Ġjr":10635,"Ġlibrary":10636,"kinson":10637,"Ġzaman":10638,"Ġadministration":10639,"inger":10640,"Ġwreck":10641,"upp":10642,"cost":10643,"ige":10644,"Ġstockmarket":10645,"Ġpt":10646,"Ġrethistrib":10647,"Ġinefficient":10648,"Ġwet":10649,"Ġletters":10650,"theless":10651,"index":10652,"Ġspeeds":10653,"Ġmirror":10654,"Ġpb":10655,"Ġanonymously":10656,"gam":10657,"Ġseam":10658,"doing":10659,"Ġraven":10660,"prom":10661,"Ġsurvival":10662,"Ġtie":10663,"ensions":10664,"Ġaws":10665,"Ġgiveaways":10666,"Ġtoilet":10667,"Ġsilent":10668,"ologies":10669,"hire":10670,"alert":10671,"larn":10672,"Ġhare":10673,"Ġfluctuation":10674,"Ġreduces":10675,"Ġobsc":10676,"Ġsurveillance":10677,"Ġexpertise":10678,"Ġflock":10679,"Ġdum":10680,"Ġjay":10681,"Ġruined":10682,"Ġjet":10683,"Ġtoy":10684,"Ġsued":10685,"aware":10686,"contin":10687,"Ġinsert":10688,"Ġdodge":10689,"Ġdepression":10690,"Ġalign":10691,"Ġsavvy":10692,"Ġfrankly":10693,"Ġsoc":10694,"Ġliquidation":10695,"Ġcomplaints":10696,"Ġuas":10697,"Ġindication":10698,"Ġsweep":10699,"Ġnotable":10700,"Ġarms":10701,"Ġnearing":10702,"tcom":10703,"fury":10704,"starting":10705,"Ġcorn":10706,"Ġtp":10707,"Ġcashless":10708,"Ġmatr":10709,"forward":10710,"exchanges":10711,"Ġkat":10712,"abo":10713,"Ġcontributed":10714,"Ġdiamonds":10715,"Ġemotion":10716,"rian":10717,"move":10718,"community":10719,"eno":10720,"Ġdomestic":10721,"Ġmovies":10722,"drawn":10723,"Ġkod":10724,"Ġlady":10725,"Ġhac":10726,"iju":10727,"three":10728,"hour":10729,"Ġabstr":10730,"zas":10731,"Ġladies":10732,"Ġpak":10733,"Ġcelebrating":10734,"Ġpetition":10735,"Ġassociate":10736,"Ġexcel":10737,"Ġpax":10738,"Ġvenmo":10739,"tv":10740,"mans":10741,"Ġpension":10742,"Ġpainting":10743,"Ġgym":10744,"Ġentre":10745,"Ġoutstanding":10746,"beit":10747,"Ġcombat":10748,"loc":10749,"Ġsteep":10750,"Ġspecialist":10751,"icked":10752,"Ġproceeds":10753,"Ġhints":10754,"Ġresponded":10755,"Ġaccelerate":10756,"review":10757,"igo":10758,"Ġnicht":10759,"Ġreckon":10760,"owned":10761,"Ġperceived":10762,"Ġkur":10763,"Ġspy":10764,"Ġlegendary":10765,"Ġcounty":10766,"Ġliberty":10767,"acted":10768,"Ġshitting":10769,"options":10770,"Ġliking":10771,"Ġtempted":10772,"Ġhus":10773,"Ġraiden":10774,"Ġreplied":10775,"Ġfixing":10776,"Ġvietnam":10777,"Ġbod":10778,"Ġoverseas":10779,"Ġmechanisms":10780,"Ġoverstock":10781,"Ġvaneck":10782,"Ġcomplexity":10783,"Ġauthentication":10784,"iry":10785,"jet":10786,"white":10787,"Ġcelsi":10788,"Ġsanta":10789,"Ġyoutubers":10790,"mult":10791,"Ġrollercoaster":10792,"Ġdial":10793,"Ġjava":10794,"vd":10795,"Ġestablishment":10796,"Ġcopies":10797,"umn":10798,"says":10799,"Ġire":10800,"Ġpose":10801,"Ġstrat":10802,"Ġestimates":10803,"Ġifttt":10804,"Ġscrutiny":10805,"Ġcontinuous":10806,"Ġproofs":10807,"eer":10808,"Ġcp":10809,"green":10810,"def":10811,"Ġstratis":10812,"ointing":10813,"Ġcelsius":10814,"Ġchallenging":10815,"mont":10816,"Ġgenerator":10817,"Ġyak":10818,"Ġlawmakers":10819,"Ġyatr":10820,"Ġnom":10821,"Ġkidna":10822,"Ġbehaviour":10823,"Ġgross":10824,"Ġhowto":10825,"Ġspreadshe":10826,"Ġconsensys":10827,"Ġworthwhile":10828,"Ġblessing":10829,"Ġtumble":10830,"rid":10831,"Ġriv":10832,"lest":10833,"rrrr":10834,"Ġdepreci":10835,"Ġmerkle":10836,"Ġcoincheck":10837,"umer":10838,"whether":10839,"event":10840,"Ġdemocratic":10841,"Ġpero":10842,"cryp":10843,"health":10844,"Ġlinkedin":10845,"feed":10846,"Ġgenerates":10847,"product":10848,"Ġdance":10849,"Ġintrig":10850,"ungen":10851,"Ġshutterstockthe":10852,"bcash":10853,"tomorrow":10854,"Ġstealth":10855,"keeping":10856,"Ġserving":10857,"Ġprocessors":10858,"simple":10859,"Ġproport":10860,"Ġobserve":10861,"Ġstum":10862,"hm":10863,"fox":10864,"Ġdrinking":10865,"Ġthreatens":10866,"Ġannoy":10867,"db":10868,"Ġintegrating":10869,"considering":10870,"Ġbrad":10871,"Ġtb":10872,"Ġust":10873,"Ġrealised":10874,"aml":10875,"Ġnerds":10876,"Ġbean":10877,"Ġspeaker":10878,"Ġterrorists":10879,"Ġentries":10880,"Ġidentical":10881,"Ġhast":10882,"bble":10883,"Ġnok":10884,"Ġcritics":10885,"hill":10886,"Ġenjin":10887,"erving":10888,"Ġthiscounts":10889,"Ġbarry":10890,"Ġtodo":10891,"Ġdeliber":10892,"Ġblew":10893,"Ġfibonacci":10894,"bodys":10895,"xchange":10896,"Ġspins":10897,"Ġpermanently":10898,"Ġthreaten":10899,"Ġans":10900,"Ġnocoin":10901,"Ġgamestop":10902,"Ġheaven":10903,"Ġlp":10904,"Ġresc":10905,"Ġtracks":10906,"Ġpolls":10907,"Ġinno":10908,"Ġcrosses":10909,"jj":10910,"Ġthisgust":10911,"tx":10912,"Ġcompell":10913,"Ġsuffered":10914,"Ġoldu":10915,"Ġabsor":10916,"tre":10917,"Ġflexible":10918,"gal":10919,"Ġwipe":10920,"ller":10921,"Ġcm":10922,"wrong":10923,"Ġconfig":10924,"Ġrin":10925,"Ġdigging":10926,"warn":10927,"heard":10928,"Ġpositively":10929,"Ġlur":10930,"Ġdownfall":10931,"Ġtail":10932,"Ġwolf":10933,"changing":10934,"Ġcarried":10935,"Ġgwei":10936,"Ġplate":10937,"Ġgrey":10938,"Ġserved":10939,"Ġsno":10940,"Ġtakeover":10941,"Ġunbelievable":10942,"Ġtanked":10943,"Ġhungry":10944,"Ġmanufacturer":10945,"Ġspotlight":10946,"listed":10947,"Ġuntrace":10948,"ijuana":10949,"Ġxmas":10950,"iento":10951,"Ġanyones":10952,"Ġstrategist":10953,"ocam":10954,"Ġgraphic":10955,"acht":10956,"Ġinsiders":10957,"eek":10958,"Ġnegl":10959,"izer":10960,"pled":10961,"Ġaudio":10962,"Ġstagnant":10963,"ymarketcomments":10964,"Ġcorrecting":10965,"Ġcoordinated":10966,"Ġard":10967,"Ġthisabled":10968,"Ġpatiently":10969,"Ġsatellite":10970,"Ġbog":10971,"Ġdescribing":10972,"Ġcartel":10973,"Ġhated":10974,"Ġgc":10975,"Ġairport":10976,"small":10977,"Ġdomains":10978,"Ġrebounds":10979,"Ġpancakes":10980,"iety":10981,"Ġanalys":10982,"Ġmultim":10983,"ycle":10984,"Ġlogistics":10985,"Ġlearnt":10986,"Ġmayor":10987,"Ġsonra":10988,"iert":10989,"Ġmeat":10990,"Ġstudies":10991,"Ġmiscon":10992,"ashing":10993,"Ġcompares":10994,"gif":10995,"Ġdistributed":10996,"yyyy":10997,"Ġoverbought":10998,"Ġcalculator":10999,"Ġerrors":11000,"akt":11001,"turn":11002,"perfect":11003,"Ġcalculation":11004,"Ġtut":11005,"zs":11006,"kraken":11007,"Ġacademic":11008,"Ġrant":11009,"Ġelectroneum":11010,"corre":11011,"Ġreap":11012,"Ġlegitimately":11013,"recently":11014,"Ġconducted":11015,"Ġendors":11016,"Ġvendors":11017,"child":11018,"Ġcombine":11019,"boost":11020,"ubs":11021,"especially":11022,"forks":11023,"Ġash":11024,"reward":11025,"pes":11026,"Ġdonating":11027,"Ġrespective":11028,"uy":11029,"Ġviewed":11030,"attle":11031,"Ġinfluenced":11032,"Ġcontributors":11033,"aron":11034,"jud":11035,"Ġslides":11036,"Ġchamber":11037,"Ġintellectual":11038,"Ġroyal":11039,"Ġtradem":11040,"Ġwheres":11041,"Ġinventor":11042,"Ġneat":11043,"Ġgodd":11044,"shiba":11045,"Ġobst":11046,"Ġthisappeared":11047,"Ġnetworking":11048,"Ġupvoted":11049,"Ġllc":11050,"Ġinspir":11051,"Ġef":11052,"Ġprototy":11053,"Ġkindly":11054,"oks":11055,"Ġqualified":11056,"bound":11057,"actual":11058,"ahh":11059,"Ġverd":11060,"Ġoverly":11061,"Ġsys":11062,"Ġfd":11063,"chr":11064,"precedent":11065,"Ġcovers":11066,"Ġdlares":11067,"Ġwsb":11068,"Ġquo":11069,"Ġbrown":11070,"Ġreferrals":11071,"Ġambcrypto":11072,"besides":11073,"Ġtheoretical":11074,"bloom":11075,"rcryptocurrency":11076,"alanche":11077,"Ġbitcoinbitcoin":11078,"Ġcher":11079,"illiqa":11080,"Ġchuck":11081,"Ġcoingecko":11082,"Ġdenomin":11083,"payments":11084,"Ġparano":11085,"Ġsms":11086,"Ġuncom":11087,"Ġblaming":11088,"zh":11089,"Ġinvestigating":11090,"Ġfractions":11091,"wd":11092,"Ġhoge":11093,"Ġseeds":11094,"Ġcommunications":11095,"Ġetherscan":11096,"hmmm":11097,"getr":11098,"Ġsegment":11099,"Ġcuriosity":11100,"Ġnan":11101,"Ġprizes":11102,"itutional":11103,"Ġshor":11104,"col":11105,"Ġconsuming":11106,"Ġpeaked":11107,"Ġgifts":11108,"Ġcomply":11109,"Ġalternate":11110,"Ġsecrets":11111,"Ġcheese":11112,"Ġfactom":11113,"following":11114,"Ġterrorism":11115,"Ġcous":11116,"Ġexpose":11117,"Ġsaylor":11118,"boom":11119,"weight":11120,"Ġprogramm":11121,"saw":11122,"blocks":11123,"uccess":11124,"Ġtd":11125,"Ġthomas":11126,"Ġanth":11127,"Ġscoop":11128,"Ġmagical":11129,"nodes":11130,"Ġcance":11131,"eee":11132,"Ġbrutal":11133,"Ġblockchaininfo":11134,"warren":11135,"Ġinher":11136,"Ġearns":11137,"Ġmarketwatch":11138,"havent":11139,"Ġhappily":11140,"Ġrollups":11141,"Ġdual":11142,"Ġnether":11143,"club":11144,"Ġimpat":11145,"Ġnegativity":11146,"Ġinstruments":11147,"Ġillustr":11148,"Ġdinos":11149,"Ġcryptoassets":11150,"Ġscenes":11151,"Ġfluctuating":11152,"Ġdaughter":11153,"ordan":11154,"larak":11155,"Ġtide":11156,"Ġtransl":11157,"Ġimplo":11158,"Ġoz":11159,"Ġholo":11160,"Ġlaid":11161,"path":11162,"Ġflipping":11163,"Ġtactics":11164,"Ġgeorge":11165,"Ġangeles":11166,"Ġbern":11167,"lements":11168,"atable":11169,"Ġunicorn":11170,"Ġvenezuelan":11171,"Ġdescribes":11172,"anth":11173,"stud":11174,"Ġshes":11175,"Ġsteel":11176,"rick":11177,"Ġhappiness":11178,"Ġwoz":11179,"Ġamm":11180,"iiii":11181,"Ġparis":11182,"Ġlacking":11183,"lot":11184,"Ġwatchdog":11185,"ervice":11186,"agues":11187,"Ġamazed":11188,"Ġxem":11189,"Ġcrew":11190,"Ġsmoking":11191,"Ġshed":11192,"crazy":11193,"Ġtitan":11194,"Ġtm":11195,"Ġscientific":11196,"Ġmysterious":11197,"Ġcorrespond":11198,"japans":11199,"Ġtwe":11200,"Ġimpr":11201,"Ġweapon":11202,"Ġplummets":11203,"sof":11204,"Ġfruit":11205,"Ġpulse":11206,"Ġbtcc":11207,"Ġcryptoworld":11208,"Ġthieves":11209,"Ġwildly":11210,"Ġmanufacturing":11211,"precedented":11212,"uuuu":11213,"afe":11214,"address":11215,"Ġpics":11216,"Ġoversight":11217,"Ġwithdrawn":11218,"Ġresponding":11219,"Ġbarriers":11220,"Ġcloth":11221,"tbh":11222,"Ġpeers":11223,"Ġsiacoin":11224,"Ġalter":11225,"Ġactivate":11226,"Ġdivision":11227,"Ġmatrix":11228,"Ġpurs":11229,"Ġorph":11230,"Ġrealm":11231,"Ġuntraceable":11232,"Ġoperational":11233,"fud":11234,"Ġio":11235,"master":11236,"cb":11237,"itting":11238,"Ġties":11239,"jt":11240,"atively":11241,"Ġattempted":11242,"Ġknife":11243,"Ġsacrifice":11244,"Ġhike":11245,"Ġoffset":11246,"Ġolarak":11247,"Ġpublishing":11248,"Ġpron":11249,"Ġelements":11250,"ideas":11251,"Ġnap":11252,"Ġadmits":11253,"Ġunderway":11254,"bone":11255,"Ġwid":11256,"pb":11257,"Ġyay":11258,"Ġusecases":11259,"Ġminimize":11260,"Ġoffsh":11261,"source":11262,"Ġrequiring":11263,"itters":11264,"wed":11265,"payment":11266,"Ġcriptomo":11267,"Ġoutrage":11268,"Ġkan":11269,"Ġspiked":11270,"Ġrick":11271,"Ġgathering":11272,"Ġdope":11273,"Ġintro":11274,"uries":11275,"Ġresulted":11276,"kel":11277,"Ġargued":11278,"Ġtranslation":11279,"Ġscientist":11280,"Ġsilence":11281,"Ġrom":11282,"aine":11283,"traders":11284,"Ġlacks":11285,"Ġsensible":11286,"Ġdestination":11287,"Ġkevin":11288,"Ġfired":11289,"Ġvirgin":11290,"Ġconferences":11291,"Ġwhaless":11292,"Ġskip":11293,"claimed":11294,"Ġcest":11295,"Ġmalays":11296,"possible":11297,"mini":11298,"Ġpnd":11299,"Ġupdating":11300,"Ġfrau":11301,"Ġparli":11302,"Ġurge":11303,"Ġcensored":11304,"Ġretweets":11305,"Ġsimpler":11306,"Ġterra":11307,"Ġengaging":11308,"rece":11309,"Ġquoted":11310,"iasm":11311,"Ġranks":11312,"places":11313,"Ġbart":11314,"Ġswapping":11315,"Ġcoinst":11316,"west":11317,"Ġirrespons":11318,"keys":11319,"Ġcatastr":11320,"etheless":11321,"Ġcamera":11322,"Ġsubstance":11323,"Ġshifting":11324,"Ġavec":11325,"dai":11326,"Ġcredible":11327,"Ġdebts":11328,"aved":11329,"Ġwebin":11330,"Ġford":11331,"Ġhostile":11332,"kh":11333,"kar":11334,"Ġcensor":11335,"Ġconfidential":11336,"Ġretain":11337,"Ġsequ":11338,"Ġrestore":11339,"square":11340,"Ġunemployment":11341,"arde":11342,"microsoft":11343,"Ġtreasure":11344,"Ġhoskinson":11345,"Ġkne":11346,"rod":11347,"Ġcentre":11348,"athan":11349,"ende":11350,"Ġfemale":11351,"Ġentitled":11352,"Ġflour":11353,"Ġincompet":11354,"Ġchurch":11355,"iran":11356,"Ġkicks":11357,"nasdaq":11358,"Ġaltogether":11359,"Ġactor":11360,"Ġergo":11361,"Ġunprecedented":11362,"Ġassure":11363,"Ġessence":11364,"fur":11365,"Ġgbtc":11366,"Ġrelate":11367,"Ġpeaks":11368,"Ġgoin":11369,"Ġkrypto":11370,"Ġants":11371,"Ġdenies":11372,"Ġpassionate":11373,"obot":11374,"Ġfloat":11375,"nie":11376,"Ġstoch":11377,"Ġcarrying":11378,"Ġprevail":11379,"Ġobliv":11380,"Ġrepresentatives":11381,"jpmorgan":11382,"Ġsecs":11383,"Ġideology":11384,"cluding":11385,"Ġbird":11386,"Ġimply":11387,"Ġhoriz":11388,"Ġlmfao":11389,"Ġmorethe":11390,"Ġaddiction":11391,"Ġelections":11392,"Ġmisunderstanding":11393,"Ġstring":11394,"Ġcustodial":11395,"Ġexagger":11396,"Ġdcaing":11397,"Ġwriter":11398,"Ġranging":11399,"Ġinfancy":11400,"swiss":11401,"Ġattracts":11402,"Ġmaintained":11403,"lend":11404,"Ġfever":11405,"Ġbrig":11406,"Ġavailability":11407,"Ġcrosschain":11408,"Ġroth":11409,"unes":11410,"Ġtwitch":11411,"Ġprevents":11412,"Ġvaporware":11413,"ibit":11414,"Ġdirected":11415,"qx":11416,"Ġeli":11417,"Ġembracing":11418,"Ġhip":11419,"Ġneighbor":11420,"Ġopensea":11421,"Ġlicensed":11422,"Ġcoinbases":11423,"Ġbitcoinistcom":11424,"bottom":11425,"Ġsincere":11426,"Ġud":11427,"Ġnie":11428,"allow":11429,"iation":11430,"Ġdirt":11431,"Ġtricks":11432,"Ġregistering":11433,"Ġfloating":11434,"disc":11435,"Ġcrushed":11436,"yout":11437,"Ġalm":11438,"Ġachieving":11439,"accur":11440,"Ġhustle":11441,"Ġdevam":11442,"holder":11443,"Ġinvo":11444,"media":11445,"Ġunpopular":11446,"quant":11447,"Ġdecred":11448,"Ġrebate":11449,"Ġextraordinary":11450,"izona":11451,"yah":11452,"Ġshoes":11453,"Ġrepresenting":11454,"Ġdoctor":11455,"Ġhoarding":11456,"Ġadvances":11457,"Ġhurdle":11458,"article":11459,"Ġderivative":11460,"Ġzuckerberg":11461,"eration":11462,"icts":11463,"Ġenigma":11464,"Ġtears":11465,"Ġdreaming":11466,"Ġohio":11467,"Ġcream":11468,"Ġsensitive":11469,"Ġregistrations":11470,"jh":11471,"Ġwen":11472,"Ġyer":11473,"Ġamate":11474,"Ġsustained":11475,"Ġcooperation":11476,"zx":11477,"Ġunsure":11478,"Ġmasters":11479,"Ġinsured":11480,"Ġbegging":11481,"inda":11482,"Ġende":11483,"Ġslowing":11484,"Ġdefeat":11485,"Ġspaces":11486,"Ġexempt":11487,"qh":11488,"ibr":11489,"Ġhunting":11490,"Ġcommented":11491,"Ġlect":11492,"fucking":11493,"thish":11494,"Ġceiling":11495,"morning":11496,"Ġcommitment":11497,"Ġoracles":11498,"Ġali":11499,"Ġrestricted":11500,"Ġfrustrated":11501,"Ġitalian":11502,"kd":11503,"Ġetoro":11504,"Ġrebuy":11505,"Ġvictory":11506,"Ġshortage":11507,"Ġlinking":11508,"Ġadopter":11509,"rockets":11510,"Ġadvised":11511,"biz":11512,"Ġobsessed":11513,"imi":11514,"Ġoverl":11515,"during":11516,"mma":11517,"Ġaion":11518,"gie":11519,"Ġcommonly":11520,"Ġoutlets":11521,"Ġemoj":11522,"Ġkills":11523,"gx":11524,"Ġremoves":11525,"Ġlan":11526,"lled":11527,"adv":11528,"Ġkle":11529,"Ġevaluate":11530,"Ġclip":11531,"author":11532,"Ġwrites":11533,"Ġxrpusd":11534,"nite":11535,"ente":11536,"Ġtec":11537,"liest":11538,"Ġspeakers":11539,"Ġfields":11540,"oot":11541,"Ġthiel":11542,"Ġcandy":11543,"Ġmigrate":11544,"tera":11545,"Ġengagement":11546,"Ġapplicable":11547,"Ġlifes":11548,"Ġeducating":11549,"Ġbrib":11550,"dca":11551,"Ġbep":11552,"Ġbittorrent":11553,"Ġpancakeswap":11554,"Ġdocumentation":11555,"Ġcoc":11556,"adoption":11557,"ictions":11558,"Ġvehicles":11559,"interested":11560,"Ġtri":11561,"Ġhydro":11562,"ules":11563,"eters":11564,"visit":11565,"unning":11566,"azaar":11567,"Ġfoundations":11568,"Ġvig":11569,"Ġinteraction":11570,"Ġbeside":11571,"Ġexchangetr":11572,"Ġsneak":11573,"oen":11574,"Ġyobit":11575,"respect":11576,"arda":11577,"vl":11578,"informed":11579,"kx":11580,"pie":11581,"Ġcmon":11582,"lored":11583,"Ġlighting":11584,"Ġlegisl":11585,"Ġmale":11586,"bra":11587,"enever":11588,"Ġphr":11589,"Ġger":11590,"Ġsucces":11591,"Ġethos":11592,"Ġmarijuana":11593,"Ġalleg":11594,"Ġescal":11595,"Ġshareholders":11596,"oz":11597,"Ġenthusiasm":11598,"Ġcypherp":11599,"aby":11600,"Ġbee":11601,"Ġridiculously":11602,"Ġtelevision":11603,"kish":11604,"Ġislam":11605,"Ġalbeit":11606,"Ġald":11607,"Ġappealing":11608,"Ġnotion":11609,"Ġesto":11610,"Ġyaz":11611,"Ġhashes":11612,"Ġactivation":11613,"Ġimper":11614,"astos":11615,"baby":11616,"Ġthisadvantages":11617,"Ġhareket":11618,"Ġdbc":11619,"Ġnull":11620,"Ġinsist":11621,"agraph":11622,"Ġtipped":11623,"Ġbridges":11624,"Ġwarrant":11625,"undant":11626,"Ġfundraising":11627,"iking":11628,"blockstream":11629,"niak":11630,"Ġgrandma":11631,"Ġrup":11632,"Ġgall":11633,"Ġshorter":11634,"Ġconfirming":11635,"Ġsaudi":11636,"Ġmum":11637,"Ġlfg":11638,"Ġforgetting":11639,"transaction":11640,"isy":11641,"Ġryan":11642,"irl":11643,"Ġsubsidiary":11644,"Ġplane":11645,"Ġselfish":11646,"Ġreturning":11647,"Ġcasual":11648,"Ġunrealistic":11649,"Ġlame":11650,"Ġnetherlands":11651,"nis":11652,"Ġparliament":11653,"Ġburden":11654,"Ġanalog":11655,"Ġextends":11656,"Ġhomework":11657,"Ġbenchmark":11658,"Ġbitcoing":11659,"Ġcheer":11660,"Ġmanages":11661,"Ġapplying":11662,"Ġtranslate":11663,"Ġjurisdiction":11664,"Ġsynth":11665,"Ġcringe":11666,"Ġoffices":11667,"udos":11668,"Ġequation":11669,"software":11670,"website":11671,"Ġrus":11672,"Ġtempl":11673,"Ġzeros":11674,"Ġtreating":11675,"Ġmathematical":11676,"mobile":11677,"zw":11678,"Ġcomputation":11679,"Ġrepos":11680,"Ġembed":11681,"enews":11682,"nya":11683,"Ġindicated":11684,"Ġsuffers":11685,"Ġintens":11686,"Ġconcrete":11687,"Ġinsult":11688,"Ġrefused":11689,"Ġnfl":11690,"Ġmarc":11691,"staking":11692,"aan":11693,"Ġfacilities":11694,"jd":11695,"Ġefficiently":11696,"europe":11697,"Ġrasp":11698,"loaded":11699,"Ġwondered":11700,"Ġhovering":11701,"Ġkiss":11702,"Ġdb":11703,"Ġpartnering":11704,"Ġlatin":11705,"burn":11706,"amn":11707,"Ġeconomically":11708,"Ġbutter":11709,"Ġlivest":11710,"Ġinbox":11711,"Ġmemor":11712,"Ġfreetoken":11713,"zes":11714,"Ġavoided":11715,"Ġbalanced":11716,"Ġindependently":11717,"telegram":11718,"Ġbitter":11719,"Ġlimiting":11720,"Ġconviction":11721,"illing":11722,"Ġcryptomonna":11723,"Ġinstitute":11724,"Ġnasty":11725,"Ġarc":11726,"important":11727,"Ġdifficulties":11728,"cen":11729,"saf":11730,"Ġoverpriced":11731,"Ġcelebrity":11732,"Ġvoyager":11733,"Ġspac":11734,"ugs":11735,"Ġnegatively":11736,"Ġolacak":11737,"Ġamidst":11738,"Ġfungibility":11739,"Ġlifestyle":11740,"Ġbucket":11741,"Ġaverages":11742,"Ġveteran":11743,"Ġbts":11744,"Ġdesired":11745,"Ġvaluations":11746,"Ġweapons":11747,"liquid":11748,"Ġassessment":11749,"Ġlocking":11750,"Ġrobbed":11751,"Ġteacher":11752,"Ġpremise":11753,"Ġsbi":11754,"Ġcryptocoin":11755,"Ġyeni":11756,"Ġsplitting":11757,"governments":11758,"Ġfearful":11759,"ocoin":11760,"Ġdime":11761,"Ġhowtobuy":11762,"Ġclamp":11763,"upt":11764,"Ġacquires":11765,"ua":11766,"Ġfollower":11767,"rc":11768,"Ġfrequent":11769,"Ġroy":11770,"Ġuh":11771,"Ġunite":11772,"Ġflu":11773,"Ġmurder":11774,"Ġrai":11775,"embered":11776,"Ġtreatment":11777,"Ġhou":11778,"Ġalarm":11779,"Ġinterf":11780,"Ġrespected":11781,"Ġanchor":11782,"Ġbitcoinprice":11783,"Ġberlin":11784,"Ġdetr":11785,"icias":11786,"bring":11787,"Ġapproves":11788,"itll":11789,"Ġffs":11790,"aws":11791,"Ġparagraph":11792,"Ġmodest":11793,"rally":11794,"Ġretreat":11795,"Ġunemployed":11796,"Ġego":11797,"Ġoutperformed":11798,"bly":11799,"Ġgard":11800,"Ġbottoms":11801,"Ġrecruitment":11802,"sales":11803,"Ġross":11804,"Ġseman":11805,"Ġcryptocoinsnews":11806,"Ġscalp":11807,"sky":11808,"Ġflipped":11809,"firm":11810,"ahahahah":11811,"Ġpessim":11812,"Ġbitcoincom":11813,"worlds":11814,"Ġyields":11815,"vas":11816,"Ġadz":11817,"jw":11818,"Ġtha":11819,"Ġretailer":11820,"Ġdownloading":11821,"Ġconstructive":11822,"Ġmicropayments":11823,"prop":11824,"Ġoutlaw":11825,"Ġpresum":11826,"inden":11827,"xa":11828,"Ġpublication":11829,"iks":11830,"inction":11831,"aches":11832,"Ġbrains":11833,"baf":11834,"zc":11835,"ignty":11836,"Ġevange":11837,"Ġdynamics":11838,"mid":11839,"Ġubi":11840,"norm":11841,"Ġmete":11842,"req":11843,"Ġdiye":11844,"ooooo":11845,"withdraw":11846,"Ġbottle":11847,"Ġevasion":11848,"kucoin":11849,"Ġzil":11850,"Ġpizzas":11851,"Ġconclusions":11852,"Ġprobable":11853,"Ġlivestream":11854,"Ġtik":11855,"Ġempire":11856,"Ġclay":11857,"Ġeyeing":11858,"Ġhai":11859,"Ġthisadvantage":11860,"Ġcada":11861,"wire":11862,"Ġwiki":11863,"Ġlitecoins":11864,"Ġbytes":11865,"rey":11866,"Ġweekends":11867,"Ġoptional":11868,"decentral":11869,"Ġstudied":11870,"Ġcryt":11871,"dex":11872,"Ġnaz":11873,"local":11874,"Ġpaint":11875,"Ġfractal":11876,"Ġcelebrities":11877,"Ġdashboard":11878,"stan":11879,"Ġolan":11880,"Ġinsecure":11881,"verge":11882,"Ġuz":11883,"ustainable":11884,"Ġdiversifying":11885,"bx":11886,"Ġrecon":11887,"Ġviolence":11888,"anas":11889,"Ġyouth":11890,"Ġmanif":11891,"Ġosc":11892,"Ġbitcoinethereum":11893,"Ġbos":11894,"Ġwarming":11895,"fant":11896,"Ġcave":11897,"Ġprimed":11898,"Ġnormies":11899,"Ġgay":11900,"Ġdab":11901,"Ġprincipal":11902,"Ġsuits":11903,"ila":11904,"Ġappearance":11905,"Ġshy":11906,"Ġoutta":11907,"Ġremembered":11908,"Ġgau":11909,"Ġhyip":11910,"Ġrepeatedly":11911,"Ġbei":11912,"Ġrebranding":11913,"Ġproportion":11914,"Ġgrants":11915,"icity":11916,"Ġconsiderable":11917,"educated":11918,"refer":11919,"Ġcripp":11920,"Ġwitnessed":11921,"Ġvouch":11922,"Ġtechnique":11923,"Ġtechniques":11924,"Ġcracking":11925,"aled":11926,"Ġbargain":11927,"Ġrepresentation":11928,"Ġaccurately":11929,"Ġfluctuates":11930,"Ġmountain":11931,"Ġgolds":11932,"Ġdepositing":11933,"Ġscientists":11934,"Ġcrossing":11935,"Ġexchangetraded":11936,"bloomberg":11937,"Ġfk":11938,"Ġdeil":11939,"Ġprohibit":11940,"fm":11941,"Ġformula":11942,"Ġliability":11943,"massive":11944,"Ġeobot":11945,"Ġuasf":11946,"Ġexplicitly":11947,"Ġrefresh":11948,"Ġrage":11949,"Ġattracting":11950,"Ġreviewed":11951,"water":11952,"Ġks":11953,"Ġutilized":11954,"Ġvulnerabilities":11955,"Ġreform":11956,"ethere":11957,"Ġciting":11958,"Ġtryna":11959,"Ġdemocrat":11960,"Ġtrivial":11961,"nft":11962,"Ġgrocery":11963,"Ġreplying":11964,"rence":11965,"Ġnonetheless":11966,"Ġgoverment":11967,"Ġqueen":11968,"Ġtah":11969,"Ġimmune":11970,"Ġfame":11971,"Ġfolk":11972,"Ġgran":11973,"Ġspreadsheet":11974,"Ġtheyd":11975,"Ġthistance":11976,"Ġleak":11977,"Ġstranger":11978,"Ġhashflare":11979,"Ġbitches":11980,"Ġkap":11981,"Ġrisking":11982,"Ġachievement":11983,"Ġboliv":11984,"reminder":11985,"atom":11986,"eline":11987,"building":11988,"Ġvibe":11989,"vening":11990,"Ġfis":11991,"Ġfade":11992,"Ġhtml":11993,"Ġgon":11994,"Ġadvertised":11995,"Ġagents":11996,"Ġskyrocketed":11997,"Ġattorney":11998,"bag":11999,"Ġmkt":12000,"Ġavalanche":12001,"Ġmiracle":12002,"flyer":12003,"Ġzealand":12004,"Ġandrew":12005,"Ġthisappoint":12006,"Ġrocks":12007,"Ġireland":12008,"Ġmens":12009,"Ġoccup":12010,"Ġrah":12011,"othe":12012,"Ġtemper":12013,"Ġinfluencer":12014,"Ġexploded":12015,"Ġcommissioner":12016,"Ġneutrality":12017,"Ġvibes":12018,"Ġwells":12019,"Ġtraceable":12020,"Ġfocuses":12021,"Ġspanish":12022,"Ġpowell":12023,"points":12024,"Ġtoss":12025,"focused":12026,"Ġshoulder":12027,"Ġcontroversy":12028,"Ġbruh":12029,"uda":12030,"Ġuy":12031,"Ġmigration":12032,"Ġjersey":12033,"Ġvays":12034,"Ġsmallest":12035,"Ġhammer":12036,"Ġneighb":12037,"Ġregain":12038,"Ġsubjective":12039,"Ġincur":12040,"Ġrejects":12041,"Ġalike":12042,"Ġquart":12043,"Ġresilient":12044,"Ġslam":12045,"Ġfootprint":12046,"hong":12047,"Ġproducers":12048,"rd":12049,"Ġcircles":12050,"Ġecb":12051,"mot":12052,"Ġcontentious":12053,"incre":12054,"iph":12055,"Ġbackend":12056,"Ġsenator":12057,"Ġplebs":12058,"tit":12059,"atar":12060,"uating":12061,"Ġintact":12062,"Ġharvest":12063,"Ġwine":12064,"Ġrevolut":12065,"Ġstandpoint":12066,"metr":12067,"Ġcompleting":12068,"pad":12069,"Ġolur":12070,"Ġtrapped":12071,"Ġreversed":12072,"Ġhod":12073,"Ġhive":12074,"Ġrude":12075,"visa":12076,"bg":12077,"sent":12078,"Ġitaly":12079,"Ġhighlighted":12080,"vx":12081,"Ġnobel":12082,"aca":12083,"Ġnonprofit":12084,"Ġnod":12085,"Ġplag":12086,"Ġaffair":12087,"bpay":12088,"rip":12089,"Ġfried":12090,"osis":12091,"Ġpossess":12092,"Ġdiffer":12093,"Ġprogrammers":12094,"regul":12095,"Ġfond":12096,"double":12097,"wp":12098,"Ġstrikes":12099,"gun":12100,"llll":12101,"Ġbancor":12102,"Ġrecording":12103,"Ġassistant":12104,"Ġeuphoria":12105,"Ġcoast":12106,"Ġofcourse":12107,"Ġray":12108,"Ġbehave":12109,"Ġenem":12110,"loved":12111,"Ġhypothetical":12112,"Ġleaked":12113,"Ġscares":12114,"Ġprojected":12115,"Ġsubstantially":12116,"Ġarrog":12117,"Ġadjusted":12118,"Ġangle":12119,"Ġapes":12120,"Ġboxes":12121,"ression":12122,"bini":12123,"beyond":12124,"Ġsweat":12125,"Ġnach":12126,"abc":12127,"Ġprimer":12128,"Ġkazan":12129,"Ġkwh":12130,"Ġclothes":12131,"Ġnotifications":12132,"Ġpropri":12133,"Ġvalidating":12134,"Ġthisruption":12135,"Ġtrees":12136,"Ġreass":12137,"Ġfargo":12138,"Ġsuckers":12139,"pred":12140,"Ġyourselves":12141,"Ġstimulus":12142,"Ġcashback":12143,"lif":12144,"Ġgoodbye":12145,"Ġshuts":12146,"Ġmixing":12147,"Ġsucceeds":12148,"Ġieo":12149,"Ġmotivated":12150,"Ġwozniak":12151,"Ġols":12152,"Ġdesde":12153,"Ġprivately":12154,"oshi":12155,"number":12156,"Ġdall":12157,"Ġstraightforward":12158,"Ġmanufacturers":12159,"Ġsizes":12160,"Ġmatches":12161,"Ġunderstandable":12162,"oubt":12163,"Ġmessed":12164,"Ġherd":12165,"Ġnest":12166,"father":12167,"Ġwellknown":12168,"Ġpokemon":12169,"opin":12170,"andut":12171,"cx":12172,"Ġsau":12173,"ĠĠĠĠĠĠĠĠĊ":12174,"Ġbitcoincrypto":12175,"thy":12176,"beat":12177,"mx":12178,"whenever":12179,"sr":12180,"regarding":12181,"Ġextrem":12182,"Ġinferior":12183,"icoin":12184,"Ġgad":12185,"hur":12186,"Ġpix":12187,"Ġnba":12188,"Ġheshe":12189,"Ġsignaling":12190,"Ġdecimal":12191,"Ġradical":12192,"Ġplacing":12193,"Ġperm":12194,"flo":12195,"lls":12196,"Ġbackbone":12197,"Ġcoaster":12198,"Ġsie":12199,"gged":12200,"Ġgrain":12201,"Ġwaters":12202,"cause":12203,"wg":12204,"ramp":12205,"Ġrail":12206,"Ġalar":12207,"Ġstepping":12208,"Ġafaik":12209,"Ġparticipant":12210,"Ġpst":12211,"airs":12212,"Ġtattoo":12213,"Ġexercise":12214,"qp":12215,"awa":12216,"Ġquestionable":12217,"ummies":12218,"Ġtackle":12219,"Ġunprof":12220,"Ġfabric":12221,"det":12222,"Ġreligious":12223,"create":12224,"Ġjaxx":12225,"Ġnotification":12226,"estamp":12227,"needs":12228,"Ġremarkable":12229,"Ġclassified":12230,"Ġevolved":12231,"Ġrefers":12232,"Ġentertaining":12233,"zant":12234,"ripp":12235,"Ġmastering":12236,"Ġnoting":12237,"lore":12238,"Ġdrain":12239,"holes":12240,"regardless":12241,"Ġdna":12242,"transfer":12243,"Ġresolution":12244,"Ġole":12245,"nu":12246,"Ġbor":12247,"Ġspots":12248,"Ġmx":12249,"Ġnevertheless":12250,"isers":12251,"Ġindirectly":12252,"Ġmcc":12253,"Ġwhitepapers":12254,"Ġgladly":12255,"wart":12256,"Ġgroceries":12257,"Ġsessions":12258,"Ġreign":12259,"Ġfriction":12260,"Ġtransactional":12261,"Ġbrick":12262,"Ġboomers":12263,"Ġsuspected":12264,"Ġamendment":12265,"Ġoperated":12266,"Ġegg":12267,"Ġfifth":12268,"charlie":12269,"Ġml":12270,"Ġmessenger":12271,"Ġvastly":12272,"och":12273,"Ġassured":12274,"Ġyoutuber":12275,"Ġcracks":12276,"Ġjoseph":12277,"uber":12278,"Ġassert":12279,"Ġscrypt":12280,"ims":12281,"Ġpou":12282,"Ġsurprisingly":12283,"Ġbeliefs":12284,"Ġmerits":12285,"Ġshoots":12286,"Ġpowr":12287,"Ġyep":12288,"Ġviewers":12289,"amer":12290,"Ġobservation":12291,"Ġmanual":12292,"door":12293,"Ġinflate":12294,"Ġboomer":12295,"Ġforecasts":12296,"followback":12297,"Ġanticipation":12298,"inks":12299,"arest":12300,"wheres":12301,"Ġrsk":12302,"pls":12303,"Ġthief":12304,"Ġsmith":12305,"Ġiandm":12306,"Ġzks":12307,"ausible":12308,"Ġracist":12309,"Ġimpatient":12310,"Ġpenal":12311,"ew":12312,"ilemma":12313,"Ġaven":12314,"Ġseverely":12315,"np":12316,"Ġxby":12317,"Ġmoneda":12318,"Ġpursu":12319,"uyor":12320,"Ġthumb":12321,"Ġeine":12322,"Ġimpose":12323,"uto":12324,"Ġbranding":12325,"Ġware":12326,"vh":12327,"Ġpromotes":12328,"asco":12329,"australian":12330,"die":12331,"Ġresem":12332,"write":12333,"libra":12334,"Ġantif":12335,"Ġeric":12336,"Ġcommunist":12337,"eron":12338,"Ġtale":12339,"Ġexplosive":12340,"Ġintervention":12341,"Ġsemin":12342,"Ġmandatory":12343,"empl":12344,"Ġlegs":12345,"Ġfactory":12346,"Ġwiz":12347,"Ġexceeds":12348,"qt":12349,"Ġinputs":12350,"Ġchapter":12351,"lost":12352,"Ġcrum":12353,"Ġincon":12354,"Ġartwork":12355,"Ġpric":12356,"Ġcowork":12357,"ensus":12358,"Ġverifying":12359,"Ġinaccur":12360,"Ġfailures":12361,"atics":12362,"Ġhabit":12363,"Ġtrademark":12364,"gate":12365,"lon":12366,"burg":12367,"Ġvcs":12368,"Ġdeth":12369,"went":12370,"cht":12371,"Ġrfid":12372,"Ġkings":12373,"spot":12374,"Ġauss":12375,"Ġthier":12376,"Ġotr":12377,"Ġhedging":12378,"fk":12379,"Ġfinney":12380,"btct":12381,"Ġpercentages":12382,"Ġwer":12383,"Ġmarried":12384,"Ġirresponsible":12385,"Ġwrit":12386,"unlike":12387,"Ġtraced":12388,"Ġpartly":12389,"losing":12390,"Ġcia":12391,"Ġshiny":12392,"Ġgrat":12393,"Ġsinks":12394,"orgh":12395,"igen":12396,"hehe":12397,"born":12398,"venezuela":12399,"itionally":12400,"Ġrobber":12401,"Ġdesperately":12402,"Ġunderestim":12403,"Ġsuite":12404,"Ġethere":12405,"rxymarketcomments":12406,"Ġsatosh":12407,"Ġpodcasts":12408,"Ġsaves":12409,"return":12410,"mz":12411,"seen":12412,"Ġsoo":12413,"Ġmiddleman":12414,"Ġuniversities":12415,"bac":12416,"isons":12417,"Ġthreatening":12418,"Ġcompelling":12419,"fty":12420,"Ġtand":12421,"nl":12422,"Ġhede":12423,"computer":12424,"Ġshark":12425,"Ġwebinar":12426,"Ġunfold":12427,"iented":12428,"hours":12429,"Ġzilliqa":12430,"Ġmeltdown":12431,"algo":12432,"Ġhumor":12433,"Ġelev":12434,"surpr":12435,"Ġlt":12436,"tofixed":12437,"utive":12438,"Ġgratis":12439,"Ġcurrencys":12440,"Ġbrowsing":12441,"Ġexecutives":12442,"Ġunusable":12443,"grade":12444,"Ġpboc":12445,"Ġthishonest":12446,"Ġhandles":12447,"unda":12448,"Ġtouches":12449,"Ġdiversity":12450,"Ġcollapsed":12451,"Ġbitcoinmining":12452,"Ġscott":12453,"Ġpandemic":12454,"nnnn":12455,"lihood":12456,"Ġweaker":12457,"Ġdlvritq":12458,"Ġcot":12459,"fomo":12460,"Ġaddicted":12461,"Ġtribal":12462,"jamie":12463,"Ġini":12464,"Ġcalend":12465,"Ġpriorit":12466,"Ġeastern":12467,"months":12468,"Ġcodebase":12469,"vk":12470,"Ġspiral":12471,"Ġdemonstrated":12472,"regulation":12473,"Ġtg":12474,"Ġaccomplished":12475,"Ġlasts":12476,"ancer":12477,"problem":12478,"Ġbasement":12479,"Ġaqu":12480,"sex":12481,"Ġcommissions":12482,"Ġyuk":12483,"Ġproxy":12484,"xbt":12485,"Ġgreg":12486,"Ġhotels":12487,"history":12488,"Ġhors":12489,"Ġexplodes":12490,"Ġcenters":12491,"advert":12492,"Ġbras":12493,"avail":12494,"Ġdebating":12495,"Ġgf":12496,"balance":12497,"Ġlon":12498,"Ġrespectively":12499,"Ġcomplaint":12500,"opping":12501,"Ġprepar":12502,"bilir":12503,"Ġauthors":12504,"wave":12505,"iu":12506,"witter":12507,"Ġassem":12508,"inated":12509,"Ġexploding":12510,"fal":12511,"Ġnewspaper":12512,"Ġsovereignty":12513,"Ġhonesty":12514,"eas":12515,"Ġvde":12516,"Ġthisclosure":12517,"Ġcrab":12518,"Ġzcl":12519,"Ġchil":12520,"Ġabo":12521,"Ġbreed":12522,"Ġindefin":12523,"Ġdemonstrate":12524,"samsung":12525,"privacy":12526,"license":12527,"Ġmotion":12528,"Ġpoc":12529,"Ġintense":12530,"Ġipfs":12531,"Ġburger":12532,"itr":12533,"Ġalien":12534,"Ġimplying":12535,"Ġpartial":12536,"wis":12537,"Ġyard":12538,"Ġbailout":12539,"Ġsid":12540,"Ġpennant":12541,"Ġconce":12542,"Ġscripts":12543,"gans":12544,"Ġhows":12545,"circ":12546,"hab":12547,"alling":12548,"Ġunusual":12549,"Ġapologize":12550,"Ġobtained":12551,"Ġkryptow":12552,"Ġunderground":12553,"Ġorphan":12554,"Ġlau":12555,"Ġbitcon":12556,"Ġwie":12557,"canad":12558,"Ġgaz":12559,"iga":12560,"utch":12561,"Ġguru":12562,"Ġsingular":12563,"Ġbln":12564,"Ġirl":12565,"somebody":12566,"internet":12567,"Ġprototype":12568,"Ġduty":12569,"qy":12570,"Ġsmartphones":12571,"Ġcliff":12572,"Ġmlm":12573,"Ġpund":12574,"Ġjewel":12575,"Ġshocking":12576,"Ġdivor":12577,"Ġiand":12578,"Ġempower":12579,"Ġskyrockets":12580,"Ġthistingu":12581,"Ġclicks":12582,"Ġcurated":12583,"Ġicp":12584,"fung":12585,"Ġimproves":12586,"Ġiotas":12587,"Ġunsustainable":12588,"Ġlamborgh":12589,"inside":12590,"Ġintermediary":12591,"demand":12592,"Ġcontinually":12593,"Ġfaire":12594,"Ġwoo":12595,"Ġapartments":12596,"pel":12597,"oun":12598,"Ġuntill":12599,"Ġlights":12600,"Ġpraise":12601,"lucky":12602,"erto":12603,"bitconnect":12604,"Ġcoupon":12605,"Ġandgtandgt":12606,"Ġbaz":12607,"Ġreasonably":12608,"mich":12609,"Ġcrappy":12610,"Ġborrowing":12611,"Ġideally":12612,"Ġiv":12613,"Ġmyspace":12614,"Ġpresenting":12615,"Ġxtz":12616,"Ġintu":12617,"Ġmarketplaces":12618,"Ġtriggers":12619,"Ġprone":12620,"rev":12621,"Ġpuede":12622,"started":12623,"few":12624,"hows":12625,"ugg":12626,"Ġtechnicals":12627,"Ġtoronto":12628,"introducing":12629,"Ġpursue":12630,"Ġenemies":12631,"Ġuneducated":12632,"ostic":12633,"corn":12634,"Ġanxiety":12635,"isher":12636,"Ġpersonality":12637,"Ġmenu":12638,"Ġcharting":12639,"enz":12640,"Ġston":12641,"Ġjs":12642,"Ġportug":12643,"Ġnar":12644,"Ġshots":12645,"Ġrelationships":12646,"guy":12647,"Ġbanco":12648,"Ġcomponents":12649,"appro":12650,"Ġderived":12651,"hyped":12652,"Ġconsultant":12653,"eness":12654,"Ġtraject":12655,"itative":12656,"added":12657,"mis":12658,"Ġdelivers":12659,"closed":12660,"Ġlikelihood":12661,"Ġimagination":12662,"ishes":12663,"ghan":12664,"Ġcomponent":12665,"enta":12666,"Ġempow":12667,"Ġbeanie":12668,"Ġinfinitely":12669,"Ġtiene":12670,"youtube":12671,"Ġaddressing":12672,"Ġdeter":12673,"Ġsplits":12674,"Ġthiscip":12675,"Ġsuited":12676,"Ġfudd":12677,"Ġinnocent":12678,"Ġsta":12679,"Ġvai":12680,"Ġrepo":12681,"Ġhaber":12682,"Ġacquiring":12683,"feels":12684,"Ġdeer":12685,"xmr":12686,"casm":12687,"oenix":12688,"Ġjordan":12689,"Ġmmm":12690,"Ġgm":12691,"Ġexhib":12692,"Ġexport":12693,"Ġnomin":12694,"Ġexploited":12695,"Ġmercato":12696,"Ġfomoing":12697,"Ġcredential":12698,"jab":12699,"Ġedited":12700,"Ġequil":12701,"Ġfueled":12702,"opes":12703,"Ġfirmly":12704,"Ġadvertisements":12705,"Ġrhet":12706,"Ġthispos":12707,"Ġvor":12708,"Ġhunter":12709,"Ġhier":12710,"igr":12711,"Ġprepares":12712,"Ġplugin":12713,"Ġunrelated":12714,"Ġdumbest":12715,"ywood":12716,"Ġwoods":12717,"mike":12718,"Ġrepay":12719,"Ġblessed":12720,"Ġkodak":12721,"pth":12722,"qw":12723,"abe":12724,"Ġsweden":12725,"Ġcure":12726,"Ġplastic":12727,"Ġrepresented":12728,"Ġwages":12729,"Ġhyping":12730,"Ġincentivized":12731,"Ġling":12732,"Ġtuition":12733,"Ġecl":12734,"asset":12735,"Ġpermissioned":12736,"Ġamer":12737,"Ġparameters":12738,"Ġswim":12739,"Ġnights":12740,"ock":12741,"Ġsender":12742,"unu":12743,"irable":12744,"Ġrevenues":12745,"Ġcounterfeit":12746,"Ġremittances":12747,"Ġfaq":12748,"Ġtalented":12749,"bount":12750,"oi":12751,"poly":12752,"Ġdestruction":12753,"ndan":12754,"Ġthir":12755,"Ġspecialized":12756,"Ġparanoid":12757,"Ġrvn":12758,"Ġfiasco":12759,"Ġvelo":12760,"leep":12761,"Ġbien":12762,"Ġpossession":12763,"anies":12764,"Ġopposition":12765,"told":12766,"Ġmonopol":12767,"Ġswapped":12768,"irus":12769,"curious":12770,"Ġprogrammable":12771,"Ġhun":12772,"Ġtear":12773,"Ġusefulness":12774,"Ġcores":12775,"organ":12776,"ensay":12777,"cheers":12778,"udo":12779,"Ġdistr":12780,"Ġtyping":12781,"eeeeeeee":12782,"Ġcough":12783,"Ġjed":12784,"hd":12785,"Ġriskier":12786,"Ġthispute":12787,"Ġzones":12788,"Ġsteals":12789,"Ġbmw":12790,"Ġabroad":12791,"Ġvirtue":12792,"Ġsupplies":12793,"Ġtripled":12794,"crip":12795,"Ġnets":12796,"Ġstacks":12797,"cftc":12798,"Ġancient":12799,"chron":12800,"Ġsubsequent":12801,"iah":12802,"Ġcompletes":12803,"Ġstakeholders":12804,"Ġakin":12805,"Ġrestaurants":12806,"Ġtid":12807,"Ġcertificate":12808,"Ġchampions":12809,"oubtedly":12810,"aug":12811,"banking":12812,"Ġthiscusses":12813,"Ġtvtrading":12814,"Ġjohnson":12815,"Ġsinking":12816,"broke":12817,"Ġinspiration":12818,"economic":12819,"wich":12820,"Ġcoo":12821,"Ġdave":12822,"Ġdeemed":12823,"Ġamericas":12824,"Ġgrass":12825,"Ġpcs":12826,"Ġtvtradingideas":12827,"Ġhalts":12828,"Ġprepaid":12829,"Ġfak":12830,"Ġadvancement":12831,"Ġrated":12832,"Ġconnects":12833,"Ġdress":12834,"Ġextract":12835,"guard":12836,"Ġadvocates":12837,"tezos":12838,"Ġprogressive":12839,"Ġgamblers":12840,"Ġdominated":12841,"Ġbezos":12842,"oster":12843,"group":12844,"bitco":12845,"ilton":12846,"icion":12847,"Ġsecretary":12848,"tesla":12849,"ali":12850,"Ġitd":12851,"defi":12852,"onia":12853,"Ġvisiting":12854,"Ġcul":12855,"Ġfru":12856,"Ġisol":12857,"Ġrussians":12858,"nts":12859,"Ġassurance":12860,"jour":12861,"Ġanticipate":12862,"calling":12863,"arre":12864,"Ġsociet":12865,"Ġramen":12866,"bubble":12867,"Ġruled":12868,"alm":12869,"Ġcapitalize":12870,"Ġthisclose":12871,"Ġwaltonchain":12872,"uer":12873,"Ġdose":12874,"Ġpairings":12875,"Ġfunn":12876,"Ġlogged":12877,"Ġstom":12878,"Ġdebates":12879,"Ġmarsh":12880,"Ġprecedent":12881,"Ġpayed":12882,"Ġclowns":12883,"Ġproduces":12884,"solid":12885,"cyber":12886,"Ġbriefing":12887,"Ġpussy":12888,"Ġmask":12889,"Ġoutputs":12890,"ibrium":12891,"uv":12892,"Ġnur":12893,"Ġnegoti":12894,"Ġabt":12895,"Ġteenagers":12896,"inking":12897,"Ġnecessity":12898,"umin":12899,"clays":12900,"cat":12901,"Ġnik":12902,"Ġunaware":12903,"Ġxp":12904,"Ġcyr":12905,"Ġlied":12906,"Ġenvision":12907,"Ġmessing":12908,"Ġrcc":12909,"Ġtimestamp":12910,"fit":12911,"tur":12912,"Ġthisappointing":12913,"eme":12914,"Ġillusion":12915,"Ġweaken":12916,"Ġspeculations":12917,"zilla":12918,"Ġsuperm":12919,"volat":12920,"Ġilem":12921,"Ġjudgement":12922,"Ġhalvening":12923,"Ġbeef":12924,"Ġelectronics":12925,"mill":12926,"Ġduck":12927,"Ġate":12928,"Ġflee":12929,"nde":12930,"bz":12931,"usually":12932,"cred":12933,"amento":12934,"Ġanalyse":12935,"Ġatlant":12936,"uta":12937,"Ġsugar":12938,"Ġreminded":12939,"Ġemotionally":12940,"Ġprofiting":12941,"Ġstructures":12942,"Ġpolitician":12943,"inin":12944,"Ġoptimal":12945,"fear":12946,"Ġantic":12947,"Ġned":12948,"grab":12949,"itte":12950,"lium":12951,"Ġediyor":12952,"Ġintegrates":12953,"friends":12954,"Ġassholes":12955,"jer":12956,"cannot":12957,"resistant":12958,"Ġtrav":12959,"Ġshibes":12960,"Ġrivals":12961,"Ġresponds":12962,"Ġmemo":12963,"Ġdictate":12964,"Ġjudging":12965,"Ġprints":12966,"Ġtokenization":12967,"jim":12968,"Ġmile":12969,"Ġhater":12970,"Ġlanding":12971,"Ġvit":12972,"deal":12973,"liano":12974,"Ġtrajectory":12975,"Ġoffs":12976,"Ġeventual":12977,"wt":12978,"german":12979,"qg":12980,"Ġlik":12981,"Ġdesigner":12982,"entry":12983,"troll":12984,"Ġchampion":12985,"Ġhol":12986,"avo":12987,"Ġadults":12988,"Ġoverlook":12989,"Ġslave":12990,"Ġembarrassing":12991,"below":12992,"alties":12993,"Ġspain":12994,"Ġobscure":12995,"Ġresur":12996,"Ġhoy":12997,"Ġawarded":12998,"Ġsmoothly":12999,"Ġnigerian":13000,"inem":13001,"done":13002,"grow":13003,"nik":13004,"wealth":13005,"Ġfavorable":13006,"Ġroubini":13007,"Ġwabi":13008,"chi":13009,"Ġaccusations":13010,"Ġvdeo":13011,"cod":13012,"Ġfart":13013,"Ġgmo":13014,"trash":13015,"Ġpurse":13016,"Ġhugely":13017,"Ġprophec":13018,"ileaks":13019,"Ġelastos":13020,"Ġmagically":13021,"cience":13022,"Ġriches":13023,"Ġconsequence":13024,"Ġoyster":13025,"Ġmilestones":13026,"Ġgvt":13027,"marketing":13028,"interview":13029,"Ġtodos":13030,"Ġgentlemen":13031,"Ġhusband":13032,"Ġdetected":13033,"qk":13034,"Ġtheta":13035,"Ġframes":13036,"uty":13037,"Ġoffense":13038,"Ġrelev":13039,"Ġarrives":13040,"Ġconstruction":13041,"Ġterminal":13042,"Ġerik":13043,"throw":13044,"Ġez":13045,"Ġtakip":13046,"Ġlowering":13047,"ocaly":13048,"Ġpresidential":13049,"Ġraspberry":13050,"psa":13051,"Ġnexo":13052,"Ġtaxi":13053,"Ġelected":13054,"Ġapartment":13055,"imiz":13056,"user":13057,"Ġreflects":13058,"Ġbitcointhe":13059,"Ġdol":13060,"Ġmiser":13061,"Ġattackers":13062,"Ġindicating":13063,"Ġbait":13064,"Ġensuring":13065,"hive":13066,"brain":13067,"Ġrescue":13068,"winklevoss":13069,"Ġsheer":13070,"Ġoffshore":13071,"Ġtek":13072,"begin":13073,"Ġreferences":13074,"Ġmidnight":13075,"Ġleveraging":13076,"Ġshield":13077,"Ġbyzant":13078,"Ġgeo":13079,"Ġsettlements":13080,"Ġthereby":13081,"kers":13082,"eli":13083,"Ġhurdles":13084,"Ġox":13085,"jg":13086,"Ġwhichever":13087,"Ġeld":13088,"Ġoutperforming":13089,"Ġvlad":13090,"acies":13091,"Ġidentities":13092,"warning":13093,"fn":13094,"aneous":13095,"Ġbuiltin":13096,"Ġaa":13097,"Ġpare":13098,"Ġtwenty":13099,"Ġbam":13100,"bazaar":13101,"five":13102,"Ġsuisse":13103,"Ġxxx":13104,"Ġconscious":13105,"Ġds":13106,"Ġgust":13107,"Ġcrown":13108,"uated":13109,"oming":13110,"iffs":13111,"Ġinvers":13112,"Ġqash":13113,"Ġplatinum":13114,"Ġcatches":13115,"tho":13116,"Ġlobby":13117,"Ġcompetent":13118,"Ġtrave":13119,"Ġmah":13120,"cboe":13121,"Ġww":13122,"Ġbitlicense":13123,"Ġcollectively":13124,"ouve":13125,"reshing":13126,"bcc":13127,"gue":13128,"istered":13129,"genesis":13130,"Ġdownvoting":13131,"Ġhaft":13132,"pod":13133,"Ġplausible":13134,"lli":13135,"fans":13136,"rating":13137,"Ġpositioned":13138,"aciones":13139,"usa":13140,"Ġhesitate":13141,"Ġships":13142,"Ġsalaries":13143,"Ġspectac":13144,"Ġtechcrunch":13145,"rn":13146,"Ġethical":13147,"Ġinclusion":13148,"Ġhosts":13149,"Ġthirdparty":13150,"Ġthisgusting":13151,"uence":13152,"heiro":13153,"Ġthankfully":13154,"ropol":13155,"Ġpoop":13156,"Ġimaginary":13157,"Ġeea":13158,"ichain":13159,"Ġdms":13160,"Ġcable":13161,"Ġifb":13162,"Ġclarification":13163,"save":13164,"medium":13165,"Ġtaiwan":13166,"Ġeligible":13167,"Ġtestim":13168,"Ġskeptics":13169,"Ġslim":13170,"Ġcryptor":13171,"Ġobserved":13172,"Ġintermediaries":13173,"mate":13174,"Ġbone":13175,"Ġenthusiastic":13176,"Ġsecondly":13177,"Ġrounds":13178,"Ġproponents":13179,"Ġcopyp":13180,"Ġqualify":13181,"Ġannoyed":13182,"Ġproprietary":13183,"depos":13184,"drew":13185,"Ġemissions":13186,"Ġthoroughly":13187,"Ġdepressed":13188,"Ġlub":13189,"kinda":13190,"gos":13191,"ui":13192,"Ġrethtrader":13193,"Ġflush":13194,"Ġlocally":13195,"Ġexperimental":13196,"fia":13197,"Ġconcluded":13198,"ibm":13199,"Ġnont":13200,"Ġconflic":13201,"Ġtolerance":13202,"Ġaustrian":13203,"cion":13204,"Ġhearn":13205,"Ġdif":13206,"Ġbla":13207,"Ġmatching":13208,"Ġstrip":13209,"Ġmisunderstood":13210,"ainted":13211,"Ġtroj":13212,"Ġtricky":13213,"Ġsought":13214,"opp":13215,"mac":13216,"Ġallocated":13217,"Ġmentally":13218,"Ġoblivion":13219,"rill":13220,"dead":13221,"Ġgooglf":13222,"Ġfetch":13223,"Ġcollapsing":13224,"zl":13225,"Ġpdf":13226,"Ġcomputational":13227,"Ġviewing":13228,"Ġstark":13229,"Ġencouraged":13230,"Ġcriptomoedas":13231,"Ġbarter":13232,"Ġlasted":13233,"iveness":13234,"Ġmaintains":13235,"Ġgtf":13236,"Ġshitt":13237,"chester":13238,"Ġangel":13239,"Ġtus":13240,"Ġbitp":13241,"large":13242,"mess":13243,"Ġutop":13244,"Ġgrt":13245,"Ġfeeding":13246,"Ġsimilarities":13247,"Ġpwc":13248,"Ġfounding":13249,"Ġbeacon":13250,"Ġdistribution":13251,"Ġmedi":13252,"Ġtopped":13253,"Ġscum":13254,"cm":13255,"Ġarise":13256,"Ġhindi":13257,"Ġpakistan":13258,"Ġstakers":13259,"Ġlegality":13260,"Ġsecures":13261,"Ġequilibrium":13262,"Ġparas":13263,"Ġstabilizes":13264,"maker":13265,"Ġvendor":13266,"Ġuninformed":13267,"Ġkik":13268,"Ġblatant":13269,"bearish":13270,"ccer":13271,"Ġreplaces":13272,"Ġmultimillion":13273,"Ġspotify":13274,"Ġvous":13275,"Ġdownwards":13276,"Ġtheblog":13277,"Ġincentivize":13278,"shitcoin":13279,"Ġclickba":13280,"cryptom":13281,"eni":13282,"esi":13283,"legal":13284,"Ġtldr":13285,"Ġcredited":13286,"Ġtheblogweb":13287,"sun":13288,"Ġrallying":13289,"believe":13290,"Ġredd":13291,"Ġapis":13292,"Ġsenators":13293,"Ġalgos":13294,"Ġcoinstokens":13295,"Ġove":13296,"Ġvez":13297,"ostrate":13298,"Ġreplic":13299,"Ġexpanded":13300,"Ġsarcasm":13301,"Ġearliest":13302,"paying":13303,"Ġphoenix":13304,"Ġbitcoi":13305,"Ġgit":13306,"Ġtay":13307,"worst":13308,"Ġelites":13309,"uj":13310,"pse":13311,"craft":13312,"Ġinnovate":13313,"whale":13314,"Ġinconven":13315,"Ġaddict":13316,"Ġbreakfast":13317,"Ġsucked":13318,"Ġfath":13319,"Ġbitcoinand":13320,"Ġfights":13321,"nament":13322,"cohol":13323,"youd":13324,"Ġpond":13325,"Ġaltseason":13326,"Ġrequested":13327,"Ġswarm":13328,"Ġreflection":13329,"norr":13330,"Ġcru":13331,"Ġszabo":13332,"Ġantim":13333,"Ġfishy":13334,"Ġreall":13335,"Ġsummar":13336,"adan":13337,"Ġconclude":13338,"Ġcommentary":13339,"Ġsynd":13340,"Ġardor":13341,"ificant":13342,"Ġsoared":13343,"Ġscandal":13344,"Ġbitstampbtcusd":13345,"Ġlaughable":13346,"Ġsoros":13347,"Ġck":13348,"Ġresearcher":13349,"aaaaaaaa":13350,"Ġahora":13351,"kat":13352,"aga":13353,"Ġfortunately":13354,"Ġcountdown":13355,"Ġretards":13356,"Ġilk":13357,"Ġindepth":13358,"Ġcorrects":13359,"Ġitunes":13360,"ermine":13361,"lash":13362,"Ġuploaded":13363,"Ġcoke":13364,"Ġreliability":13365,"Ġcryptocurrencynews":13366,"Ġmejor":13367,"Ġanimals":13368,"arus":13369,"Ġintends":13370,"Ġcontained":13371,"origin":13372,"Ġought":13373,"Ġquestioning":13374,"Ġnerd":13375,"Ġfiguring":13376,"Ġoutcomes":13377,"Ġhtt":13378,"Ġlto":13379,"Ġapw":13380,"Ġtecnolo":13381,"dece":13382,"Ġpert":13383,"Ġgeneric":13384,"stor":13385,"Ġstrangers":13386,"Ġwordpress":13387,"Ġrepeats":13388,"Ġcredentials":13389,"Ġdeutsche":13390,"Ġslip":13391,"Ġmana":13392,"Ġbusted":13393,"Ġsticker":13394,"Ġree":13395,"Ġzar":13396,"lers":13397,"annou":13398,"Ġhorizont":13399,"Ġplata":13400,"Ġrallied":13401,"ched":13402,"Ġmerry":13403,"Ġstickers":13404,"Ġlouis":13405,"Ġff":13406,"Ġrod":13407,"Ġsupportive":13408,"Ġhijacked":13409,"yz":13410,"Ġhandy":13411,"Ġlicenses":13412,"amas":13413,"Ġslap":13414,"Ġinstability":13415,"swing":13416,"Ġutilities":13417,"Ġsignificance":13418,"Ġcandlest":13419,"Ġmonetize":13420,"Ġexcessive":13421,"nets":13422,"couldnt":13423,"Ġbursts":13424,"Ġbak":13425,"Ġcommits":13426,"Ġpad":13427,"Ġaggregated":13428,"emor":13429,"ieved":13430,"bsv":13431,"Ġzebpay":13432,"Ġfrauds":13433,"Ġasleep":13434,"Ġlaying":13435,"Ġwired":13436,"Ġgui":13437,"Ġpolo":13438,"biased":13439,"Ġsimplest":13440,"Ġgerek":13441,"Ġecosystems":13442,"Ġdt":13443,"Ġdiet":13444,"Ġponz":13445,"Ġidiotic":13446,"Ġpirate":13447,"iterate":13448,"Ġretired":13449,"Ġnotably":13450,"Ġdetermines":13451,"qj":13452,"quite":13453,"ethereums":13454,"Ġlegalization":13455,"ommod":13456,"Ġmaths":13457,"Ġpackages":13458,"Ġdevast":13459,"antminer":13460,"bio":13461,"Ġborrowed":13462,"Ġbagholders":13463,"Ġwhis":13464,"waves":13465,"Ġextortion":13466,"Ġstorj":13467,"target":13468,"Ġliberal":13469,"Ġhmmm":13470,"Ġdesigns":13471,"hoping":13472,"direct":13473,"Ġaudits":13474,"stratum":13475,"Ġwelcom":13476,"mom":13477,"Ġenlighten":13478,"Ġvelocity":13479,"Ġnose":13480,"slow":13481,"pop":13482,"Ġamateur":13483,"pedia":13484,"Ġemerged":13485,"Ġincomp":13486,"Ġinstances":13487,"Ġpreview":13488,"half":13489,"Ġcex":13490,"Ġspectrum":13491,"cmon":13492,"Ġmf":13493,"Ġgrin":13494,"Ġhardcore":13495,"bk":13496,"Ġhubs":13497,"Ġcharities":13498,"phrase":13499,"Ġdinheiro":13500,"certain":13501,"tips":13502,"Ġyatrm":13503,"Ġcig":13504,"pra":13505,"Ġdenying":13506,"Ġaccuracy":13507,"ansactions":13508,"resent":13509,"Ġsigh":13510,"Ġunderrated":13511,"rise":13512,"Ġastronom":13513,"ouriel":13514,"Ġslots":13515,"Ġconsumed":13516,"Ġdecrypt":13517,"Ġyan":13518,"forbes":13519,"Ġbusd":13520,"Ġworker":13521,"gia":13522,"Ġrobots":13523,"Ġmitigate":13524,"onion":13525,"mented":13526,"Ġviolent":13527,"technically":13528,"Ġcontributor":13529,"trend":13530,"Ġroutine":13531,"Ġhahahah":13532,"Ġfeeds":13533,"btcusdt":13534,"adam":13535,"okie":13536,"Ġcertified":13537,"Ġmoms":13538,"Ġconsiderably":13539,"loading":13540,"Ġthiscounted":13541,"Ġhats":13542,"erer":13543,"liver":13544,"hands":13545,"prep":13546,"Ġcaring":13547,"Ġcollectors":13548,"Ġstatic":13549,"Ġprinter":13550,"Ġcopying":13551,"Ġiyi":13552,"Ġclash":13553,"Ġstudio":13554,"Ġsimplicity":13555,"Ġinteractive":13556,"wont":13557,"elle":13558,"aysay":13559,"Ġnuevo":13560,"Ġwedding":13561,"Ġthistur":13562,"Ġoccasionally":13563,"omet":13564,"Ġrar":13565,"Ġincorporate":13566,"Ġcousin":13567,"Ġrelatives":13568,"Ġinherit":13569,"Ġplunged":13570,"Ġsurf":13571,"woj":13572,"Ġclears":13573,"companies":13574,"Ġtraveling":13575,"aten":13576,"Ġboi":13577,"Ġutterly":13578,"Ġdeduct":13579,"Ġcolleagues":13580,"deep":13581,"ffff":13582,"Ġspite":13583,"energy":13584,"Ġkcs":13585,"san":13586,"abased":13587,"moil":13588,"wasnt":13589,"ighted":13590,"Ġdouche":13591,"sten":13592,"Ġdesc":13593,"institutional":13594,"Ġdeserved":13595,"Ġimpacts":13596,"Ġcope":13597,"tor":13598,"Ġalan":13599,"Ġinitiatives":13600,"Ġcomprehend":13601,"Ġpaired":13602,"four":13603,"Ġsurprises":13604,"Ġrankings":13605,"erce":13606,"Ġaltr":13607,"Ġprogrammed":13608,"Ġcoded":13609,"dow":13610,"Ġdating":13611,"Ġstraw":13612,"Ġmaj":13613,"Ġinclined":13614,"Ġmeh":13615,"covered":13616,"shout":13617,"Ġstood":13618,"Ġshiller":13619,"Ġgender":13620,"Ġluke":13621,"arlo":13622,"Ġtechnologically":13623,"Ġbyk":13624,"Ġairbnb":13625,"Ġsorted":13626,"Ġprotects":13627,"Ġvariable":13628,"Ġbrainer":13629,"hare":13630,"parent":13631,"Ġtorrent":13632,"Ġfacto":13633,"clusive":13634,"Ġshouldve":13635,"Ġcourts":13636,"Ġcunt":13637,"between":13638,"Ġtodd":13639,"Ġstunt":13640,"Ġrefreshing":13641,"connected":13642,"Ġbrow":13643,"quality":13644,"Ġjuicy":13645,"estr":13646,"Ġquarterly":13647,"Ġsimplified":13648,"quit":13649,"dominance":13650,"fold":13651,"Ġauch":13652,"little":13653,"oston":13654,"layer":13655,"Ġauthenticator":13656,"kim":13657,"bounty":13658,"asia":13659,"Ġmultib":13660,"lara":13661,"Ġpouring":13662,"clearly":13663,"Ġforeseeable":13664,"Ġgrave":13665,"ijn":13666,"Ġregions":13667,"redited":13668,"Ġskepticism":13669,"Ġcalendar":13670,"Ġtagged":13671,"Ġracing":13672,"Ġsunny":13673,"Ġcraw":13674,"Ġargues":13675,"Ġanalyzing":13676,"falls":13677,"Ġmvp":13678,"Ġhackathon":13679,"omodo":13680,"Ġcarries":13681,"sadly":13682,"avery":13683,"Ġnamely":13684,"Ġrussias":13685,"Ġcrushing":13686,"Ġdeployment":13687,"Ġcourage":13688,"Ġcongested":13689,"Ġns":13690,"Ġytd":13691,"Ġassign":13692,"Ġwbtc":13693,"Ġexpire":13694,"Ġdisney":13695,"Ġbitfury":13696,"enas":13697,"Ġjk":13698,"yt":13699,"Ġgoogles":13700,"Ġcompute":13701,"Ġfortnite":13702,"oning":13703,"Ġattach":13704,"custod":13705,"oops":13706,"Ġundoubtedly":13707,"Ġmartin":13708,"heart":13709,"contract":13710,"lab":13711,"rh":13712,"Ġthise":13713,"mint":13714,"Ġdemocrats":13715,"Ġost":13716,"Ġours":13717,"serious":13718,"Ġguardian":13719,"nav":13720,"Ġkull":13721,"Ġgab":13722,"Ġdallas":13723,"tip":13724,"wanna":13725,"Ġmankind":13726,"Ġturmoil":13727,"Ġmd":13728,"Ġarizona":13729,"Ġpayday":13730,"bruh":13731,"Ġswan":13732,"Ġmoderate":13733,"notes":13734,"Ġnce":13735,"Ġears":13736,"Ġsd":13737,"Ġlsk":13738,"Ġdirections":13739,"Ġsympath":13740,"style":13741,"Ġcompensation":13742,"canadian":13743,"oday":13744,"Ġdrove":13745,"Ġjerk":13746,"eto":13747,"dav":13748,"Ġcmo":13749,"Ġencourages":13750,"Ġmim":13751,"Ġdegrees":13752,"Ġantibitcoin":13753,"eon":13754,"Ġfoss":13755,"Ġcracked":13756,"Ġdny":13757,"edia":13758,"Ġobama":13759,"Ġcatastroph":13760,"iner":13761,"emo":13762,"Ġhesitant":13763,"Ġwird":13764,"Ġsucking":13765,"Ġmp":13766,"gc":13767,"Ġnonex":13768,"Ġensures":13769,"itrade":13770,"Ġcriptomoneda":13771,"Ġharmful":13772,"root":13773,"Ġcandidates":13774,"Ġsatisfy":13775,"Ġdns":13776,"weigh":13777,"Ġdh":13778,"Ġruining":13779,"Ġshifts":13780,"Ġzk":13781,"Ġstreams":13782,"stone":13783,"Ġinvitation":13784,"Ġscrolltofixed":13785,"Ġperpetual":13786,"subs":13787,"bis":13788,"quart":13789,"hodling":13790,"excited":13791,"iture":13792,"unic":13793,"Ġbacklog":13794,"itech":13795,"beware":13796,"Ġnit":13797,"Ġshaking":13798,"Ġultr":13799,"Ġmiddlemen":13800,"Ġbx":13801,"Ġcryptoin":13802,"tin":13803,"Ġaos":13804,"Ġarena":13805,"Ġupgrading":13806,"Ġzksn":13807,"available":13808,"uno":13809,"Ġmedian":13810,"Ġhk":13811,"Ġliar":13812,"Ġconsists":13813,"text":13814,"Ġevaluation":13815,"Ġslipp":13816,"rp":13817,"Ġmedicine":13818,"Ġoccurring":13819,"Ġrust":13820,"Ġcontacted":13821,"Ġhaw":13822,"ceptions":13823,"Ġbodies":13824,"Ġinner":13825,"company":13826,"bp":13827,"jn":13828,"Ġriver":13829,"Ġusagecoin":13830,"Ġlleg":13831,"comnews":13832,"Ġslips":13833,"Ġpapa":13834,"ei":13835,"Ġstub":13836,"Ġnaysay":13837,"Ġadmins":13838,"Ġinn":13839,"Ġwithdrew":13840,"Ġbackers":13841,"Ġjournalism":13842,"ports":13843,"Ġlump":13844,"Ġmaterials":13845,"aux":13846,"Ġredditors":13847,"Ġvaults":13848,"Ġrico":13849,"Ġza":13850,"Ġempres":13851,"ahaha":13852,"onet":13853,"Ġrx":13854,"heads":13855,"Ġcbdc":13856,"Ġthistinct":13857,"Ġzomb":13858,"Ġtyler":13859,"Ġkoreans":13860,"Ġdeclares":13861,"Ġtroubles":13862,"Ġtt":13863,"Ġstaring":13864,"Ġspotted":13865,"Ġluno":13866,"Ġimagined":13867,"html":13868,"olas":13869,"ulates":13870,"Ġannually":13871,"Ġdaniel":13872,"Ġcryptocurren":13873,"Ġprophecy":13874,"indias":13875,"Ġsticks":13876,"Ġextrad":13877,"Ġstressful":13878,"Ġprocedure":13879,"Ġloopring":13880,"Ġvaccine":13881,"Ġscept":13882,"Ġasses":13883,"avoid":13884,"Ġbytecoin":13885,"zv":13886,"Ġtradable":13887,"Ġreacts":13888,"Ġmercatox":13889,"Ġlud":13890,"ervices":13891,"ncia":13892,"goes":13893,
[...]
